{
  "<unk>": 0,
  "<s>": 1,
  "</s>": 2,
  "<PAD>": 3,
  "<OOV>": 4,
  "<USR>": 5,
  "<SYS>": 6,
  "<FIN>": 7,
  "[IDEA]": 8,
  "[TENSION]": 9,
  "[PROP]": 10,
  "[DUDA]": 11,
  "[FIX]": 12,
  "[FALLO]": 13,
  "¿": 14,
  "¡": 15,
  "á": 16,
  "é": 17,
  "í": 18,
  "ó": 19,
  "ú": 20,
  "ü": 21,
  "ñ": 22,
  "Á": 23,
  "É": 24,
  "Í": 25,
  "Ó": 26,
  "Ú": 27,
  "Ñ": 28,
  "de": 29,
  "▁de": 30,
  "▁e": 31,
  "▁l": 32,
  "▁c": 33,
  "os": 34,
  "▁p": 35,
  "er": 36,
  "▁a": 37,
  "en": 38,
  "on": 39,
  "ar": 40,
  "es": 41,
  "▁s": 42,
  "as": 43,
  "ci": 44,
  "an": 45,
  "or": 46,
  "▁la": 47,
  "ad": 48,
  "▁en": 49,
  "al": 50,
  "ue": 51,
  "in": 52,
  "un": 53,
  "re": 54,
  "▁m": 55,
  "▁el": 56,
  "te": 57,
  "▁y": 58,
  "ti": 59,
  "tr": 60,
  "que": 61,
  "ta": 62,
  "▁es": 63,
  "om": 64,
  "▁con": 65,
  "▁un": 66,
  "di": 67,
  "▁que": 68,
  "to": 69,
  "▁f": 70,
  "▁E": 71,
  "do": 72,
  "ic": 73,
  "is": 74,
  "▁se": 75,
  "▁h": 76,
  "▁C": 77,
  "ro": 78,
  "▁n": 79,
  "▁del": 80,
  "▁su": 81,
  "aci": 82,
  "▁los": 83,
  "▁S": 84,
  "ol": 85,
  "am": 86,
  "▁A": 87,
  "▁v": 88,
  "▁re": 89,
  "ri": 90,
  "le": 91,
  "▁L": 92,
  "▁in": 93,
  "▁com": 94,
  "▁1": 95,
  "▁o": 96,
  "ado": 97,
  "tu": 98,
  "▁par": 99,
  "▁M": 100,
  "ra": 101,
  "▁P": 102,
  "▁por": 103,
  "▁al": 104,
  "ab": 105,
  "▁g": 106,
  "id": 107,
  "ente": 108,
  "ter": 109,
  "res": 110,
  "il": 111,
  "▁las": 112,
  "▁una": 113,
  "▁d": 114,
  "ul": 115,
  "▁di": 116,
  "▁b": 117,
  "▁(": 118,
  "ec": 119,
  "ien": 120,
  "▁2": 121,
  "io": 122,
  "el": 123,
  "us": 124,
  "mp": 125,
  "ada": 126,
  "▁D": 127,
  "▁T": 128,
  "ia": 129,
  "▁pro": 130,
  "▁B": 131,
  "▁para": 132,
  "la": 133,
  "▁t": 134,
  "ig": 135,
  "▁R": 136,
  "▁des": 137,
  "ur": 138,
  "▁tr": 139,
  "ent": 140,
  "ones": 141,
  "ch": 142,
  "qu": 143,
  "▁como": 144,
  "da": 145,
  "lo": 146,
  "mb": 147,
  "ici": 148,
  "tor": 149,
  "▁F": 150,
  "▁G": 151,
  "▁El": 152,
  "▁per": 153,
  "it": 154,
  "ca": 155,
  "iz": 156,
  "▁En": 157,
  "ma": 158,
  "▁cu": 159,
  "ir": 160,
  "▁19": 161,
  "▁20": 162,
  "co": 163,
  "go": 164,
  "▁no": 165,
  "tos": 166,
  "ales": 167,
  "▁I": 168,
  "▁N": 169,
  "▁Es": 170,
  "cia": 171,
  "ando": 172,
  "ac": 173,
  "▁\"": 174,
  "▁La": 175,
  "uer": 176,
  "▁H": 177,
  "im": 178,
  "▁ac": 179,
  "▁j": 180,
  "ran": 181,
  "▁J": 182,
  "ica": 183,
  "▁lo": 184,
  "ados": 185,
  "den": 186,
  "ier": 187,
  "ie": 188,
  "ob": 189,
  "▁fue": 190,
  "tiv": 191,
  "▁ex": 192,
  "▁an": 193,
  "se": 194,
  "ante": 195,
  "mer": 196,
  "tes": 197,
  "iv": 198,
  "mente": 199,
  "aj": 200,
  "ib": 201,
  "dad": 202,
  "tro": 203,
  "ay": 204,
  "▁me": 205,
  "idad": 206,
  "pa": 207,
  "▁U": 208,
  "mo": 209,
  "ten": 210,
  "▁V": 211,
  "▁est": 212,
  "po": 213,
  "uc": 214,
  "um": 215,
  "pe": 216,
  "▁ti": 217,
  "tra": 218,
  "ido": 219,
  "tre": 220,
  "▁ser": 221,
  "gu": 222,
  "ico": 223,
  "▁r": 224,
  "▁cons": 225,
  "cu": 226,
  "tas": 227,
  "▁sus": 228,
  "▁i": 229,
  "ce": 230,
  "ador": 231,
  "▁te": 232,
  "▁to": 233,
  "▁ar": 234,
  "▁O": 235,
  "der": 236,
  "des": 237,
  "per": 238,
  "▁pri": 239,
  "▁esta": 240,
  "pu": 241,
  "▁pr": 242,
  "ios": 243,
  "ida": 244,
  "par": 245,
  "▁res": 246,
  "oci": 247,
  "▁mu": 248,
  "▁ca": 249,
  "▁as": 250,
  "onal": 251,
  "tal": 252,
  "tar": 253,
  "00": 254,
  "▁le": 255,
  "dos": 256,
  "orm": 257,
  "▁Un": 258,
  "ano": 259,
  "ero": 260,
  "ub": 261,
  "),": 262,
  "▁dis": 263,
  "▁hab": 264,
  "ers": 265,
  "▁po": 266,
  "iento": 267,
  "▁ob": 268,
  "▁primer": 269,
  "ez": 270,
  "ug": 271,
  "ina": 272,
  "cul": 273,
  "▁or": 274,
  "▁201": 275,
  "gr": 276,
  "vo": 277,
  "gun": 278,
  "omb": 279,
  "cl": 280,
  "ana": 281,
  "▁entre": 282,
  "▁ta": 283,
  "▁car": 284,
  "adas": 285,
  "aron": 286,
  "con": 287,
  "ces": 288,
  "era": 289,
  "▁Se": 290,
  "lan": 291,
  "les": 292,
  "av": 293,
  "▁pa": 294,
  "amente": 295,
  "ino": 296,
  "las": 297,
  "▁pres": 298,
  "▁Al": 299,
  ").": 300,
  "ras": 301,
  "▁pue": 302,
  "za": 303,
  "los": 304,
  "ru": 305,
  "▁In": 306,
  "enta": 307,
  "▁W": 308,
  "▁K": 309,
  "ciones": 310,
  "aciones": 311,
  "encia": 312,
  "almente": 313,
  "ista": 314,
  "▁Re": 315,
  "ba": 316,
  "fer": 317,
  "mbi": 318,
  "cip": 319,
  "▁parti": 320,
  "ne": 321,
  "▁imp": 322,
  "lic": 323,
  "▁inter": 324,
  "▁Con": 325,
  "por": 326,
  "▁sob": 327,
  "▁cam": 328,
  "▁ab": 329,
  "he": 330,
  "tic": 331,
  "aliz": 332,
  "▁200": 333,
  "▁pre": 334,
  "ga": 335,
  "▁cas": 336,
  "ior": 337,
  "tros": 338,
  "fic": 339,
  "no": 340,
  "▁si": 341,
  "▁mo": 342,
  "ona": 343,
  "▁3": 344,
  "▁qu": 345,
  "▁mar": 346,
  "ens": 347,
  "ento": 348,
  "tin": 349,
  "vi": 350,
  "▁fin": 351,
  "pos": 352,
  "▁can": 353,
  "▁San": 354,
  "▁fuer": 355,
  "ara": 356,
  "▁man": 357,
  "▁tambi": 358,
  "jo": 359,
  "emp": 360,
  "▁esc": 361,
  "▁sobre": 362,
  "va": 363,
  "▁Mar": 364,
  "isi": 365,
  "▁lle": 366,
  "urante": 367,
  "▁este": 368,
  "ismo": 369,
  "tura": 370,
  "duc": 371,
  "ener": 372,
  "til": 373,
  "asta": 374,
  "ble": 375,
  "▁pos": 376,
  "▁son": 377,
  "▁pero": 378,
  "fici": 379,
  "▁col": 380,
  "▁may": 381,
  "min": 382,
  "tan": 383,
  "▁ma": 384,
  "man": 385,
  "▁dos": 386,
  "▁cor": 387,
  "ene": 388,
  "bi": 389,
  "tado": 390,
  "▁Los": 391,
  "▁18": 392,
  "▁medi": 393,
  "▁ha": 394,
  "tras": 395,
  "▁Ch": 396,
  "ario": 397,
  "iu": 398,
  "onde": 399,
  "entes": 400,
  "ton": 401,
  "▁An": 402,
  "ing": 403,
  "tica": 404,
  "▁ter": 405,
  "▁sol": 406,
  "qui": 407,
  "▁deb": 408,
  "▁pers": 409,
  "enci": 410,
  "▁comp": 411,
  "igu": 412,
  "▁cre": 413,
  "▁reg": 414,
  "▁parte": 415,
  "▁hasta": 416,
  "em": 417,
  "▁nue": 418,
  "ias": 419,
  "▁gran": 420,
  "uci": 421,
  "das": 422,
  "▁pas": 423,
  "tur": 424,
  "aba": 425,
  "mbre": 426,
  "▁donde": 427,
  "▁Ar": 428,
  "▁ap": 429,
  "acional": 430,
  "▁De": 431,
  "ores": 432,
  "▁emp": 433,
  "lam": 434,
  "og": 435,
  "iden": 436,
  "eg": 437,
  "▁for": 438,
  "car": 439,
  "ajo": 440,
  "iudad": 441,
  "rec": 442,
  "▁desde": 443,
  "▁prin": 444,
  "ech": 445,
  "▁inf": 446,
  "na": 447,
  "▁var": 448,
  "▁fun": 449,
  "▁Su": 450,
  "ill": 451,
  "▁au": 452,
  "titu": 453,
  "▁Y": 454,
  "▁ins": 455,
  "tivo": 456,
  "ues": 457,
  "\".": 458,
  "unto": 459,
  "▁princip": 460,
  "me": 461,
  "▁durante": 462,
  "ve": 463,
  "uy": 464,
  "tico": 465,
  "▁nomb": 466,
  "mi": 467,
  "ver": 468,
  "▁us": 469,
  "ans": 470,
  "ven": 471,
  "at": 472,
  "cho": 473,
  "▁4": 474,
  "gos": 475,
  "miento": 476,
  "dem": 477,
  "ora": 478,
  "▁hac": 479,
  "▁Com": 480,
  "▁estu": 481,
  "▁sin": 482,
  "\",": 483,
  "idos": 484,
  "je": 485,
  "▁mun": 486,
  "ares": 487,
  "endo": 488,
  "▁pol": 489,
  "iendo": 490,
  "▁era": 491,
  "gen": 492,
  "▁sal": 493,
  "pres": 494,
  "▁(1": 495,
  "▁trab": 496,
  "▁-": 497,
  "zo": 498,
  "terior": 499,
  "▁oc": 500,
  "gan": 501,
  "▁ej": 502,
  "mas": 503,
  "oc": 504,
  "▁ciudad": 505,
  "dr": 506,
  "endi": 507,
  "▁5": 508,
  "▁incl": 509,
  "eb": 510,
  "pon": 511,
  "peci": 512,
  "▁ten": 513,
  "▁ya": 514,
  "anz": 515,
  "uel": 516,
  "▁199": 517,
  "argo": 518,
  "▁mayor": 519,
  "eron": 520,
  "tados": 521,
  "▁Car": 522,
  "▁contra": 523,
  "▁despu": 524,
  "mos": 525,
  "ito": 526,
  "esti": 527,
  "▁tu": 528,
  "uego": 529,
  "if": 530,
  "th": 531,
  "▁cuando": 532,
  "cha": 533,
  "ja": 534,
  "▁cual": 535,
  "ist": 536,
  "▁of": 537,
  "▁cl": 538,
  "ud": 539,
  "▁form": 540,
  "▁cap": 541,
  "ivers": 542,
  "▁Las": 543,
  "toria": 544,
  "▁puede": 545,
  "iste": 546,
  "antes": 547,
  "ge": 548,
  "laci": 549,
  "▁gener": 550,
  "arse": 551,
  "▁u": 552,
  "▁lib": 553,
  "▁inv": 554,
  "icos": 555,
  "▁cer": 556,
  "idades": 557,
  "▁temp": 558,
  "▁especi": 559,
  "adores": 560,
  "arro": 561,
  "▁primera": 562,
  "ide": 563,
  "ena": 564,
  "pec": 565,
  "▁Des": 566,
  "▁ad": 567,
  "▁emb": 568,
  "▁pe": 569,
  "entos": 570,
  "▁tan": 571,
  "▁prop": 572,
  "op": 573,
  "▁*": 574,
  "all": 575,
  "ine": 576,
  "eces": 577,
  "▁realiz": 578,
  "▁cal": 579,
  "ros": 580,
  "ll": 581,
  "▁ver": 582,
  "▁Par": 583,
  "cal": 584,
  "itar": 585,
  "ugar": 586,
  "▁do": 587,
  "▁ro": 588,
  "▁Le": 589,
  "ama": 590,
  "▁hi": 591,
  "▁As": 592,
  "▁forma": 593,
  "embre": 594,
  "▁llam": 595,
  "▁tras": 596,
  "lti": 597,
  "▁person": 598,
  "anos": 599,
  "▁mismo": 600,
  "▁cr": 601,
  "tiva": 602,
  "▁produc": 603,
  "▁algun": 604,
  "eci": 605,
  "tante": 606,
  "▁estudi": 607,
  "▁reci": 608,
  "▁otros": 609,
  "▁fueron": 610,
  "ard": 611,
  "cion": 612,
  "and": 613,
  "ed": 614,
  "▁tiene": 615,
  "truc": 616,
  "ern": 617,
  "▁actu": 618,
  "▁den": 619,
  "▁vez": 620,
  "▁6": 621,
  "▁encu": 622,
  "iones": 623,
  "ap": 624,
  "..": 625,
  "▁gru": 626,
  "20": 627,
  "▁Por": 628,
  "▁uno": 629,
  "pues": 630,
  "▁bas": 631,
  "tir": 632,
  "▁muy": 633,
  "▁rec": 634,
  "ita": 635,
  "▁equi": 636,
  "▁mon": 637,
  "▁pel": 638,
  "▁men": 639,
  "ion": 640,
  "lica": 641,
  "omin": 642,
  "▁tiemp": 643,
  "▁Ma": 644,
  "tis": 645,
  "▁direc": 646,
  "ut": 647,
  "▁nombre": 648,
  "tiliz": 649,
  "so": 650,
  "▁cen": 651,
  "▁am": 652,
  "▁segun": 653,
  "▁apar": 654,
  "et": 655,
  "cos": 656,
  "▁her": 657,
  "▁conoci": 658,
  "▁impor": 659,
  "▁gob": 660,
  "▁lleg": 661,
  "▁trans": 662,
  "▁deci": 663,
  "▁198": 664,
  "-1": 665,
  "▁encuen": 666,
  "▁da": 667,
  "ierno": 668,
  "▁edi": 669,
  "uro": 670,
  "unque": 671,
  "▁co": 672,
  "▁lugar": 673,
  "fec": 674,
  "icas": 675,
  "▁fam": 676,
  "▁Fran": 677,
  "▁conv": 678,
  "ich": 679,
  "▁tres": 680,
  "▁sig": 681,
  "ord": 682,
  "cri": 683,
  "▁estado": 684,
  "▁utiliz": 685,
  "▁Z": 686,
  "ip": 687,
  "acia": 688,
  "▁todo": 689,
  "▁quien": 690,
  "▁conf": 691,
  "▁cab": 692,
  "ital": 693,
  "aje": 694,
  "gua": 695,
  "▁mej": 696,
  "▁tra": 697,
  "dia": 698,
  "▁pub": 699,
  "▁his": 700,
  "▁escri": 701,
  "istas": 702,
  "eo": 703,
  "nica": 704,
  "▁tiempo": 705,
  "▁7": 706,
  "▁super": 707,
  "▁desarro": 708,
  "erv": 709,
  "iente": 710,
  "▁ch": 711,
  "ticas": 712,
  "▁plan": 713,
  "eno": 714,
  "▁=": 715,
  "llo": 716,
  "ientras": 717,
  "oy": 718,
  "▁Pa": 719,
  "▁sigu": 720,
  "ial": 721,
  "rig": 722,
  "amiento": 723,
  "▁inici": 724,
  "▁Me": 725,
  "0,": 726,
  "eros": 727,
  "tores": 728,
  "▁contr": 729,
  "taci": 730,
  "▁mil": 731,
  "▁15": 732,
  "▁cos": 733,
  "ific": 734,
  "able": 735,
  "chos": 736,
  "▁fr": 737,
  "▁8": 738,
  "tion": 739,
  "▁soci": 740,
  "▁z": 741,
  "▁comun": 742,
  "atro": 743,
  "uerra": 744,
  "▁sido": 745,
  "▁trabaj": 746,
  "▁vol": 747,
  "▁sec": 748,
  "illa": 749,
  "▁han": 750,
  "▁197": 751,
  "▁nov": 752,
  "▁The": 753,
  "▁embargo": 754,
  "ular": 755,
  "▁min": 756,
  "vin": 757,
  "rica": 758,
  "orte": 759,
  "▁orig": 760,
  "▁difer": 761,
  "▁mis": 762,
  "▁[": 763,
  "▁def": 764,
  "bre": 765,
  "▁cada": 766,
  "contr": 767,
  "▁pla": 768,
  "▁rev": 769,
  "cer": 770,
  "▁exp": 771,
  "nico": 772,
  "ril": 773,
  "▁pes": 774,
  "▁ban": 775,
  "▁No": 776,
  "tido": 777,
  "▁cul": 778,
  "▁17": 779,
  "▁anti": 780,
  "arios": 781,
  "▁Univers": 782,
  "ustr": 783,
  "uso": 784,
  "aban": 785,
  "tivos": 786,
  "▁ba": 787,
  "▁todos": 788,
  "icip": 789,
  "▁val": 790,
  "▁Ju": 791,
  "▁prof": 792,
  "ieron": 793,
  "▁public": 794,
  "▁Gu": 795,
  "▁Col": 796,
  "▁famil": 797,
  "▁solo": 798,
  "▁ni": 799,
  "▁pob": 800,
  "rab": 801,
  "▁k": 802,
  "▁encontr": 803,
  "▁Sin": 804,
  "▁ev": 805,
  "lig": 806,
  "cias": 807,
  "▁ne": 808,
  "enz": 809,
  "lu": 810,
  "▁llev": 811,
  "dic": 812,
  "dio": 813,
  "▁Tam": 814,
  "▁tempor": 815,
  "li": 816,
  "▁div": 817,
  "oma": 818,
  "ele": 819,
  "▁esp": 820,
  "▁gan": 821,
  "▁Espa": 822,
  "pti": 823,
  "ola": 824,
  "▁(19": 825,
  "▁ese": 826,
  "▁9": 827,
  "▁elec": 828,
  "▁repres": 829,
  "cula": 830,
  "▁espa": 831,
  "gres": 832,
  "▁ref": 833,
  "▁siste": 834,
  "adre": 835,
  "jer": 836,
  "▁vida": 837,
  "tac": 838,
  "▁grupo": 839,
  "▁gr": 840,
  "▁junto": 841,
  "▁tanto": 842,
  "▁serie": 843,
  "▁entr": 844,
  "ot": 845,
  "mero": 846,
  "▁Cas": 847,
  "▁equipo": 848,
  "ientos": 849,
  "si": 850,
  "▁10": 851,
  "▁Pro": 852,
  "▁tar": 853,
  "quier": 854,
  "ala": 855,
  "▁sub": 856,
  "tec": 857,
  "▁,": 858,
  "idente": 859,
  "▁16": 860,
  "▁mientras": 861,
  "▁serv": 862,
  "▁Cu": 863,
  "▁na": 864,
  "▁bajo": 865,
  "▁nuevo": 866,
  "gar": 867,
  "▁comple": 868,
  "▁antes": 869,
  "ticos": 870,
  "▁Co": 871,
  "▁196": 872,
  "ganiz": 873,
  "▁hacer": 874,
  "2,": 875,
  "▁jun": 876,
  "uela": 877,
  "erci": 878,
  "und": 879,
  "000": 880,
  "bol": 881,
  "▁Mon": 882,
  "pre": 883,
  "▁resul": 884,
  "duci": 885,
  "teg": 886,
  "ber": 887,
  "▁Estados": 888,
  "▁Q": 889,
  "▁contin": 890,
  "▁hay": 891,
  "1,": 892,
  "▁Tambi": 893,
  "unci": 894,
  "du": 895,
  "▁mejor": 896,
  "yec": 897,
  "dades": 898,
  "▁neces": 899,
  "jos": 900,
  "▁Bar": 901,
  "▁viv": 902,
  "▁ra": 903,
  "▁progr": 904,
  "▁Fue": 905,
  "aria": 906,
  "▁segu": 907,
  "olog": 908,
  "ome": 909,
  "▁final": 910,
  "ible": 911,
  "ile": 912,
  "cel": 913,
  "ban": 914,
  "▁mie": 915,
  "▁Unidos": 916,
  "▁aunque": 917,
  "▁Nacional": 918,
  "▁X": 919,
  "▁pues": 920,
  "▁hacia": 921,
  "CO": 922,
  "▁Cor": 923,
  "▁muer": 924,
  "▁clas": 925,
  "▁Jo": 926,
  "▁otras": 927,
  "sica": 928,
  "▁Jos": 929,
  "▁sur": 930,
  "▁ay": 931,
  "▁inform": 932,
  "od": 933,
  "▁ofici": 934,
  "▁Este": 935,
  "ies": 936,
  "ques": 937,
  "tamente": 938,
  "ulio": 939,
  "▁Para": 940,
  "▁.": 941,
  "▁jug": 942,
  "ang": 943,
  "ren": 944,
  "▁mes": 945,
  "▁siendo": 946,
  "▁tor": 947,
  "▁general": 948,
  "lec": 949,
  "▁af": 950,
  "▁Esta": 951,
  "▁bien": 952,
  "▁gu": 953,
  "▁municip": 954,
  "ider": 955,
  "3,": 956,
  "▁lu": 957,
  "▁comenz": 958,
  "▁Cam": 959,
  "▁gobierno": 960,
  "osa": 961,
  "▁personas": 962,
  "yo": 963,
  "cep": 964,
  "oso": 965,
  "cen": 966,
  "▁estaba": 967,
  "torio": 968,
  "5,": 969,
  "ndos": 970,
  "0.": 971,
  "rea": 972,
  "▁miemb": 973,
  "cas": 974,
  ");": 975,
  "4,": 976,
  "▁fran": 977,
  "ell": 978,
  "▁trav": 979,
  "▁lanz": 980,
  "ura": 981,
  "▁tien": 982,
  "ndose": 983,
  "tonces": 984,
  "▁202": 985,
  "▁historia": 986,
  "ima": 987,
  "tural": 988,
  "▁the": 989,
  "ece": 990,
  "DI": 991,
  "▁hech": 992,
  "▁Ca": 993,
  "gra": 994,
  "▁pueden": 995,
  "▁mundo": 996,
  "istr": 997,
  "▁194": 998,
  "▁dici": 999,
  "▁apro": 1000,
  "lor": 1001,
  "ris": 1002,
  "inas": 1003,
  "son": 1004,
  "ilidad": 1005,
  "tru": 1006,
  "xim": 1007,
  "tad": 1008,
  "rero": 1009,
  "che": 1010,
  "alidad": 1011,
  "nos": 1012,
  "▁peque": 1013,
  "▁Mun": 1014,
  "ceso": 1015,
  "isten": 1016,
  "▁incluy": 1017,
  "▁mom": 1018,
  "▁12": 1019,
  "▁Lu": 1020,
  "gent": 1021,
  "zas": 1022,
  "▁fal": 1023,
  "▁is": 1024,
  "▁proyec": 1025,
  "ag": 1026,
  "▁empres": 1027,
  "9,": 1028,
  "▁organiz": 1029,
  "▁Man": 1030,
  "irm": 1031,
  "▁situ": 1032,
  "8,": 1033,
  "6,": 1034,
  "ex": 1035,
  "▁amb": 1036,
  "▁bu": 1037,
  "▁estable": 1038,
  "lb": 1039,
  "▁$": 1040,
  "▁ale": 1041,
  "▁temporada": 1042,
  "▁ri": 1043,
  "izo": 1044,
  "▁Sh": 1045,
  "tubre": 1046,
  "▁debido": 1047,
  "▁doc": 1048,
  "▁bar": 1049,
  "▁mujer": 1050,
  "ses": 1051,
  "▁obje": 1052,
  "▁inc": 1053,
  "ptiembre": 1054,
  "imiento": 1055,
  "▁fund": 1056,
  "▁mus": 1057,
  "▁hum": 1058,
  "▁Ro": 1059,
  "idas": 1060,
  "GO": 1061,
  "▁recon": 1062,
  "▁total": 1063,
  "iel": 1064,
  "▁varios": 1065,
  "can": 1066,
  "▁otro": 1067,
  "cis": 1068,
  "▁195": 1069,
  "bo": 1070,
  "7,": 1071,
  "▁particip": 1072,
  "▁vis": 1073,
  "▁sistema": 1074,
  "▁ejemp": 1075,
  "▁mayo": 1076,
  "nea": 1077,
  "▁Juan": 1078,
  "▁activ": 1079,
  "lbum": 1080,
  "dor": 1081,
  "ya": 1082,
  "▁octubre": 1083,
  "▁pal": 1084,
  "▁encuentra": 1085,
  "▁nuev": 1086,
  "▁dere": 1087,
  "▁Per": 1088,
  "▁193": 1089,
  "▁luego": 1090,
  "▁Si": 1091,
  "▁relaci": 1092,
  "▁algunos": 1093,
  "▁naci": 1094,
  "ke": 1095,
  "▁present": 1096,
  "II": 1097,
  "tam": 1098,
  "▁julio": 1099,
  "▁entonces": 1100,
  "▁tuvo": 1101,
  "▁apo": 1102,
  "▁Sal": 1103,
  "blica": 1104,
  "ecu": 1105,
  "▁tom": 1106,
  "▁marzo": 1107,
  "▁Or": 1108,
  "▁dirig": 1109,
  "DIGO": 1110,
  "ian": 1111,
  "lar": 1112,
  "▁servici": 1113,
  "CODIGO": 1114,
  "▁profes": 1115,
  "▁trad": 1116,
  "ea": 1117,
  "▁enero": 1118,
  "ep": 1119,
  "tera": 1120,
  "▁junio": 1121,
  "gosto": 1122,
  "▁Can": 1123,
  "▁pu": 1124,
  "▁estos": 1125,
  "iso": 1126,
  "▁local": 1127,
  "ts": 1128,
  "▁ante": 1129,
  "▁diciembre": 1130,
  "▁provin": 1131,
  "▁vers": 1132,
  "tran": 1133,
  "▁trabajo": 1134,
  "▁Val": 1135,
  "▁Is": 1136,
  "ivel": 1137,
  "amos": 1138,
  "▁poder": 1139,
  "▁esti": 1140,
  "▁Cons": 1141,
  "▁To": 1142,
  "▁Durante": 1143,
  "irti": 1144,
  "▁origin": 1145,
  "lev": 1146,
  "▁and": 1147,
  "ula": 1148,
  "▁cin": 1149,
  "ong": 1150,
  "▁dej": 1151,
  "▁der": 1152,
  "▁cuatro": 1153,
  "iembre": 1154,
  "▁14": 1155,
  "▁agosto": 1156,
  "▁permi": 1157,
  "▁Inter": 1158,
  "▁cuenta": 1159,
  "acio": 1160,
  "▁w": 1161,
  "▁adem": 1162,
  "▁Ale": 1163,
  "▁ven": 1164,
  "▁toda": 1165,
  "dici": 1166,
  "posici": 1167,
  "ela": 1168,
  "▁homb": 1169,
  "▁familia": 1170,
  "▁'": 1171,
  "rado": 1172,
  "estig": 1173,
  "omo": 1174,
  "▁Lo": 1175,
  "▁Mo": 1176,
  "▁noviembre": 1177,
  "▁abril": 1178,
  "ira": 1179,
  "chas": 1180,
  "▁mill": 1181,
  "▁principal": 1182,
  "2.": 1183,
  "▁camb": 1184,
  "culo": 1185,
  "▁fil": 1186,
  "▁compa": 1187,
  "▁Gran": 1188,
  "az": 1189,
  "rera": 1190,
  "▁autor": 1191,
  "▁nivel": 1192,
  "▁hace": 1193,
  "▁obra": 1194,
  "rid": 1195,
  "▁momento": 1196,
  "▁esto": 1197,
  "▁seg": 1198,
  "▁11": 1199,
  "eta": 1200,
  "▁vo": 1201,
  "tada": 1202,
  "pen": 1203,
  "cio": 1204,
  "▁guerra": 1205,
  "acter": 1206,
  "▁sie": 1207,
  "▁econ": 1208,
  "▁les": 1209,
  "▁convirti": 1210,
  "▁Am": 1211,
  "dida": 1212,
  "iano": 1213,
  "▁qued": 1214,
  "▁ve": 1215,
  "xico": 1216,
  "turas": 1217,
  "▁13": 1218,
  "▁Nue": 1219,
  "tral": 1220,
  "▁Euro": 1221,
  "▁continu": 1222,
  "▁fu": 1223,
  "be": 1224,
  "▁partido": 1225,
  "sa": 1226,
  "ciden": 1227,
  "abor": 1228,
  "dial": 1229,
  "trucci": 1230,
  "jas": 1231,
  "encias": 1232,
  "▁proble": 1233,
  "▁tipo": 1234,
  "▁Una": 1235,
  "▁ellos": 1236,
  "fr": 1237,
  "lesia": 1238,
  "ebrero": 1239,
  "▁zona": 1240,
  "▁anterior": 1241,
  "▁menos": 1242,
  "eder": 1243,
  "▁segundo": 1244,
  "oluci": 1245,
  "▁dentro": 1246,
  "▁pueb": 1247,
  "ck": 1248,
  "reg": 1249,
  "▁ella": 1250,
  "mana": 1251,
  "▁Ex": 1252,
  "ef": 1253,
  "▁indi": 1254,
  "▁logr": 1255,
  "mica": 1256,
  "▁refer": 1257,
  "nacional": 1258,
  "▁Adem": 1259,
  "▁Mad": 1260,
  "▁siguiente": 1261,
  "▁tarde": 1262,
  "ument": 1263,
  "▁hizo": 1264,
  "1.": 1265,
  "▁Ne": 1266,
  "▁gol": 1267,
  "▁caso": 1268,
  "▁dise": 1269,
  "▁febrero": 1270,
  "▁nacional": 1271,
  "urs": 1272,
  "tulo": 1273,
  "tivas": 1274,
  "lico": 1275,
  "▁manera": 1276,
  "fico": 1277,
  "▁partir": 1278,
  "tener": 1279,
  "▁norte": 1280,
  "▁consider": 1281,
  "rci": 1282,
  "inos": 1283,
  "tantes": 1284,
  "▁poco": 1285,
  "ual": 1286,
  "▁poblaci": 1287,
  "▁pun": 1288,
  "▁largo": 1289,
  "ientes": 1290,
  "▁ub": 1291,
  "puesta": 1292,
  "ng": 1293,
  "pel": 1294,
  "▁inten": 1295,
  "ign": 1296,
  "cada": 1297,
  "mpl": 1298,
  "tidad": 1299,
  "▁mer": 1300,
  "▁Cal": 1301,
  "▁orden": 1302,
  "ical": 1303,
  "▁Pe": 1304,
  "▁nueva": 1305,
  "▁millones": 1306,
  "men": 1307,
  "▁pop": 1308,
  "▁otra": 1309,
  "fo": 1310,
  "▁segunda": 1311,
  "este": 1312,
  "▁pl": 1313,
  "▁comerci": 1314,
  "▁oper": 1315,
  "▁casa": 1316,
  "▁efec": 1317,
  "5.": 1318,
  "eza": 1319,
  "▁posterior": 1320,
  "br": 1321,
  "itos": 1322,
  "▁unos": 1323,
  "dencia": 1324,
  "▁Bo": 1325,
  "▁centro": 1326,
  "▁regi": 1327,
  "▁ing": 1328,
  "▁termin": 1329,
  "▁li": 1330,
  "▁ejemplo": 1331,
  "▁ah": 1332,
  "▁obs": 1333,
  "uda": 1334,
  "▁ag": 1335,
  "▁control": 1336,
  "▁muchos": 1337,
  "▁mas": 1338,
  "▁caus": 1339,
  "▁banda": 1340,
  "▁haber": 1341,
  "▁muerte": 1342,
  "3.": 1343,
  "ves": 1344,
  "onales": 1345,
  "ka": 1346,
  "▁Sa": 1347,
  "▁ind": 1348,
  "ric": 1349,
  "van": 1350,
  "▁Ba": 1351,
  "▁medio": 1352,
  "tific": 1353,
  "▁Despu": 1354,
  "▁mater": 1355,
  "▁Ac": 1356,
  "▁misma": 1357,
  "▁art": 1358,
  "▁exper": 1359,
  "▁hecho": 1360,
  "▁caracter": 1361,
  "▁distin": 1362,
  "▁decl": 1363,
  "mar": 1364,
  "▁Tras": 1365,
  "tituci": 1366,
  "dido": 1367,
  "▁canci": 1368,
  "iga": 1369,
  "▁pie": 1370,
  "▁sen": 1371,
  "▁ocu": 1372,
  "rem": 1373,
  "fica": 1374,
  "4.": 1375,
  "ho": 1376,
  "▁grandes": 1377,
  "rcito": 1378,
  "▁ide": 1379,
  "▁investig": 1380,
  "▁eran": 1381,
  "tuvo": 1382,
  "▁divers": 1383,
  "▁inte": 1384,
  "▁tienen": 1385,
  "▁hor": 1386,
  "▁desarroll": 1387,
  "edad": 1388,
  "▁interpre": 1389,
  "tel": 1390,
  "▁uso": 1391,
  "▁Cen": 1392,
  "▁varias": 1393,
  "ond": 1394,
  "▁distr": 1395,
  "▁porque": 1396,
  "...": 1397,
  "gon": 1398,
  "rit": 1399,
  "▁Di": 1400,
  "▁tener": 1401,
  "uniden": 1402,
  "erg": 1403,
  "▁espec": 1404,
  "ltimo": 1405,
  "▁mov": 1406,
  "ire": 1407,
  "▁todas": 1408,
  "poca": 1409,
  "cado": 1410,
  "▁programa": 1411,
  "itu": 1412,
  "▁Estado": 1413,
  "8.": 1414,
  "9.": 1415,
  "▁ubic": 1416,
  "▁bus": 1417,
  "▁cele": 1418,
  "--": 1419,
  "▁Santa": 1420,
  "▁rom": 1421,
  "▁rey": 1422,
  "orma": 1423,
  "▁sign": 1424,
  "terio": 1425,
  "▁terri": 1426,
  "▁agua": 1427,
  "▁Po": 1428,
  "6.": 1429,
  "▁tal": 1430,
  "▁cuer": 1431,
  "▁sim": 1432,
  "▁mi": 1433,
  "▁hijo": 1434,
  "ork": 1435,
  "dis": 1436,
  "▁Bu": 1437,
  "▁juego": 1438,
  "ini": 1439,
  "▁op": 1440,
  "cular": 1441,
  "▁ep": 1442,
  "▁rad": 1443,
  "zar": 1444,
  "nas": 1445,
  "▁podr": 1446,
  "▁191": 1447,
  "tancia": 1448,
  "▁via": 1449,
  "ry": 1450,
  "▁estas": 1451,
  "▁so": 1452,
  "▁pin": 1453,
  "▁regres": 1454,
  "rm": 1455,
  "▁edifici": 1456,
  "▁padre": 1457,
  "7.": 1458,
  "quel": 1459,
  "▁nu": 1460,
  "▁Desde": 1461,
  "rio": 1462,
  "ensa": 1463,
  "hn": 1464,
  "▁veces": 1465,
  "▁igu": 1466,
  "▁Mus": 1467,
  "ajes": 1468,
  "▁Pri": 1469,
  "ndo": 1470,
  "ase": 1471,
  "▁ley": 1472,
  "▁sab": 1473,
  "uerdo": 1474,
  "▁inclu": 1475,
  "▁trata": 1476,
  "val": 1477,
  "▁derro": 1478,
  "com": 1479,
  "neo": 1480,
  "▁vic": 1481,
  "200": 1482,
  "▁liber": 1483,
  "isti": 1484,
  "▁tradici": 1485,
  "gentina": 1486,
  "iles": 1487,
  "▁Cl": 1488,
  "entar": 1489,
  "▁anunci": 1490,
  "▁antigu": 1491,
  "ik": 1492,
  "▁sue": 1493,
  "adora": 1494,
  "una": 1495,
  "▁ir": 1496,
  "tino": 1497,
  "orn": 1498,
  "▁perio": 1499,
  "▁provincia": 1500,
  "▁conocido": 1501,
  "tom": 1502,
  "▁anim": 1503,
  "ron": 1504,
  "▁cien": 1505,
  "▁25": 1506,
  "▁club": 1507,
  "▁cier": 1508,
  "▁obras": 1509,
  "▁compr": 1510,
  "▁carrera": 1511,
  "entaci": 1512,
  "ph": 1513,
  "pendi": 1514,
  "▁30": 1515,
  "culos": 1516,
  "▁punto": 1517,
  "▁compar": 1518,
  "▁cir": 1519,
  "▁}": 1520,
  "▁municipio": 1521,
  "uerto": 1522,
  "▁192": 1523,
  "istro": 1524,
  "▁Nueva": 1525,
  "▁Como": 1526,
  "▁papel": 1527,
  "enos": 1528,
  "▁recib": 1529,
  "▁Ins": 1530,
  "▁declar": 1531,
  "▁director": 1532,
  "talla": 1533,
  "▁estableci": 1534,
  "▁producci": 1535,
  "▁esa": 1536,
  "▁tier": 1537,
  "▁versi": 1538,
  "del": 1539,
  "▁telev": 1540,
  "gas": 1541,
  "▁primeros": 1542,
  "▁Th": 1543,
  "▁algunas": 1544,
  "▁pan": 1545,
  "mpre": 1546,
  "▁descu": 1547,
  "ilar": 1548,
  "▁So": 1549,
  "▁Entre": 1550,
  "▁frente": 1551,
  "pro": 1552,
  "▁leg": 1553,
  "▁inde": 1554,
  "umento": 1555,
  "tio": 1556,
  "eras": 1557,
  "▁Qu": 1558,
  "col": 1559,
  "var": 1560,
  "meros": 1561,
  "▁vi": 1562,
  "▁baj": 1563,
  "▁proyecto": 1564,
  "▁base": 1565,
  "form": 1566,
  "▁cuar": 1567,
  "▁pesar": 1568,
  "up": 1569,
  "mit": 1570,
  "cur": 1571,
  "▁nues": 1572,
  "▁Tor": 1573,
  "▁estar": 1574,
  "▁destac": 1575,
  "▁mucho": 1576,
  "▁et": 1577,
  "dera": 1578,
  "▁conj": 1579,
  "imon": 1580,
  "cn": 1581,
  "bri": 1582,
  "canz": 1583,
  "▁Madrid": 1584,
  "▁estr": 1585,
  "▁Mor": 1586,
  "▁Pol": 1587,
  "ono": 1588,
  "ila": 1589,
  "▁Min": 1590,
  "▁pueblo": 1591,
  "▁cinco": 1592,
  "▁cargo": 1593,
  "▁posici": 1594,
  "cial": 1595,
  "tando": 1596,
  "▁descri": 1597,
  "▁llamado": 1598,
  "201": 1599,
  "▁Ra": 1600,
  "usi": 1601,
  "ruz": 1602,
  "▁Gar": 1603,
  "▁debe": 1604,
  "▁Te": 1605,
  "ional": 1606,
  "▁“": 1607,
  "▁cri": 1608,
  "▁lado": 1609,
  "mon": 1610,
  "▁constru": 1611,
  "▁grab": 1612,
  "▁int": 1613,
  "▁ases": 1614,
  "echa": 1615,
  "▁miembros": 1616,
  "▁Carlos": 1617,
  "blic": 1618,
  "ental": 1619,
  "igo": 1620,
  "▁pon": 1621,
  "▁Pla": 1622,
  "imo": 1623,
  "▁alcanz": 1624,
  "▁nav": 1625,
  "▁Mu": 1626,
  "▁eleg": 1627,
  "pi": 1628,
  "▁jue": 1629,
  "ha": 1630,
  "ff": 1631,
  "▁cualquier": 1632,
  "rede": 1633,
  "▁Cuando": 1634,
  "emos": 1635,
  "▁Francis": 1636,
  "stica": 1637,
  "▁mal": 1638,
  "▁casi": 1639,
  "aran": 1640,
  "▁social": 1641,
  "▁mode": 1642,
  "▁Soci": 1643,
  "▁univers": 1644,
  "ilo": 1645,
  "▁Esto": 1646,
  "▁II": 1647,
  "▁esper": 1648,
  "avor": 1649,
  "ifica": 1650,
  "ibu": 1651,
  "ivo": 1652,
  "▁Pal": 1653,
  ".,": 1654,
  "▁comien": 1655,
  "▁Luis": 1656,
  "▁proceso": 1657,
  "▁aquel": 1658,
  "tem": 1659,
  "rag": 1660,
  "stico": 1661,
  "▁atr": 1662,
  "▁Guerra": 1663,
  "▁mediante": 1664,
  "ki": 1665,
  "onia": 1666,
  "▁color": 1667,
  "ram": 1668,
  "▁elem": 1669,
  "▁ur": 1670,
  "▁{": 1671,
  "blico": 1672,
  "nes": 1673,
  "▁ju": 1674,
  "▁fuera": 1675,
  "end": 1676,
  "peona": 1677,
  "▁mues": 1678,
  "▁siempre": 1679,
  "▁datos": 1680,
  "▁natural": 1681,
  "▁aplic": 1682,
  "▁exten": 1683,
  "anas": 1684,
  "▁Na": 1685,
  "▁acuerdo": 1686,
  "ler": 1687,
  "▁sino": 1688,
  "▁reconoci": 1689,
  "zos": 1690,
  "tbol": 1691,
  "▁ig": 1692,
  "▁estudios": 1693,
  "▁cerca": 1694,
  "iedad": 1695,
  "▁dio": 1696,
  "▁Gener": 1697,
  "xito": 1698,
  "adamente": 1699,
  "istencia": 1700,
  "▁loc": 1701,
  "cil": 1702,
  "▁personal": 1703,
  "▁admin": 1704,
  "▁perman": 1705,
  "▁agr": 1706,
  "▁ata": 1707,
  "▁Mundial": 1708,
  "▁estudio": 1709,
  "▁Rep": 1710,
  "unidense": 1711,
  "▁represent": 1712,
  "▁conver": 1713,
  "tia": 1714,
  "▁estre": 1715,
  "▁finales": 1716,
  "▁informaci": 1717,
  "▁mujeres": 1718,
  "▁bo": 1719,
  "▁respon": 1720,
  "▁respec": 1721,
  "▁igual": 1722,
  "▁instal": 1723,
  "cor": 1724,
  "▁conside": 1725,
  "▁encar": 1726,
  "cre": 1727,
  "▁denomin": 1728,
  "▁puesto": 1729,
  "▁cuales": 1730,
  "tivamente": 1731,
  "▁selec": 1732,
  "▁paso": 1733,
  "▁/": 1734,
  "▁mor": 1735,
  "▁ayud": 1736,
  "▁san": 1737,
  "xto": 1738,
  "▁domin": 1739,
  "ick": 1740,
  "▁empresa": 1741,
  "▁Her": 1742,
  "tiene": 1743,
  "▁dar": 1744,
  "mientos": 1745,
  "taron": 1746,
  "mor": 1747,
  "▁Seg": 1748,
  "▁capital": 1749,
  "port": 1750,
  "▁favor": 1751,
  "El": 1752,
  "unta": 1753,
  "▁meses": 1754,
  "▁funci": 1755,
  "▁real": 1756,
  "ltima": 1757,
  "iva": 1758,
  "▁posible": 1759,
  "▁disco": 1760,
  "▁vuel": 1761,
  "▁Ad": 1762,
  "▁Francia": 1763,
  "▁compe": 1764,
  "ack": 1765,
  "▁perten": 1766,
  "rin": 1767,
  "▁blan": 1768,
  "▁desa": 1769,
  "▁gra": 1770,
  "ancia": 1771,
  "▁servicio": 1772,
  "graf": 1773,
  "mico": 1774,
  "ables": 1775,
  "amb": 1776,
  "porte": 1777,
  "iar": 1778,
  "▁cambio": 1779,
  "izaci": 1780,
  "▁24": 1781,
  "▁ocas": 1782,
  "ridad": 1783,
  "▁emple": 1784,
  "▁enfr": 1785,
  "partam": 1786,
  "▁Argentina": 1787,
  "▁valor": 1788,
  "▁Pres": 1789,
  "▁dif": 1790,
  "pol": 1791,
  "▁Ab": 1792,
  "puesto": 1793,
  "▁titu": 1794,
  "▁Ha": 1795,
  "igh": 1796,
  "enas": 1797,
  "▁cambi": 1798,
  "▁estruc": 1799,
  "▁sa": 1800,
  "tero": 1801,
  "▁estilo": 1802,
  "▁Ig": 1803,
  "ns": 1804,
  "rez": 1805,
  "gica": 1806,
  "▁John": 1807,
  "▁expres": 1808,
  "▁York": 1809,
  "▁Europa": 1810,
  "▁Fern": 1811,
  "dal": 1812,
  "oro": 1813,
  "tagon": 1814,
  "▁len": 1815,
  "▁va": 1816,
  "▁produci": 1817,
  "ite": 1818,
  "▁sea": 1819,
  "▁Anton": 1820,
  "rico": 1821,
  "La": 1822,
  "▁gobern": 1823,
  "▁nos": 1824,
  "idi": 1825,
  "laz": 1826,
  "▁libro": 1827,
  "▁alrede": 1828,
  "sico": 1829,
  "▁Fin": 1830,
  "ly": 1831,
  "vieron": 1832,
  "illo": 1833,
  "▁moder": 1834,
  "▁mos": 1835,
  "quitec": 1836,
  "iales": 1837,
  "irse": 1838,
  "usti": 1839,
  "fa": 1840,
  "▁televisi": 1841,
  "▁Francisco": 1842,
  "vis": 1843,
  "▁ima": 1844,
  "▁patr": 1845,
  "tista": 1846,
  "▁senci": 1847,
  "▁Ter": 1848,
  "itantes": 1849,
  "▁ocup": 1850,
  "ok": 1851,
  "anza": 1852,
  "▁popular": 1853,
  "▁suf": 1854,
  "acias": 1855,
  "tario": 1856,
  "ev": 1857,
  "▁tur": 1858,
  "▁all": 1859,
  "▁km": 1860,
  "▁ingl": 1861,
  "termin": 1862,
  "▁iden": 1863,
  "posi": 1864,
  "▁Lib": 1865,
  "udo": 1866,
  "▁prob": 1867,
  "ins": 1868,
  "onas": 1869,
  "tenci": 1870,
  "iana": 1871,
  "lad": 1872,
  "▁relig": 1873,
  "▁Gob": 1874,
  "▁actual": 1875,
  "▁incluso": 1876,
  "pas": 1877,
  "▁conse": 1878,
  "taba": 1879,
  "dico": 1880,
  "▁origen": 1881,
  "ame": 1882,
  "erro": 1883,
  "▁edad": 1884,
  "▁ambos": 1885,
  "▁recibi": 1886,
  "▁oficial": 1887,
  "▁algo": 1888,
  "▁decir": 1889,
  "▁palab": 1890,
  "icana": 1891,
  "▁muchas": 1892,
  "▁industr": 1893,
  "bas": 1894,
  "-19": 1895,
  "▁Sus": 1896,
  "▁on": 1897,
  "▁dedic": 1898,
  "▁ru": 1899,
  "▁hist": 1900,
  "▁envi": 1901,
  "▁Pos": 1902,
  "ierra": 1903,
  "ivil": 1904,
  "gado": 1905,
  "▁militar": 1906,
  "▁Rob": 1907,
  "lla": 1908,
  "▁creci": 1909,
  "isis": 1910,
  "pir": 1911,
  "▁reun": 1912,
  "▁funcion": 1913,
  "amas": 1914,
  "iene": 1915,
  "▁cuerpo": 1916,
  "ror": 1917,
  "▁Chile": 1918,
  "▁Sol": 1919,
  "tiz": 1920,
  "▁Ho": 1921,
  "est": 1922,
  "lado": 1923,
  "ment": 1924,
  "▁neg": 1925,
  "ardo": 1926,
  "▁21": 1927,
  "▁miembro": 1928,
  "tales": 1929,
  "▁vari": 1930,
  "▁0": 1931,
  "▁fo": 1932,
  "ys": 1933,
  "▁edificio": 1934,
  "edro": 1935,
  "▁vide": 1936,
  "▁comunic": 1937,
  "odo": 1938,
  "ity": 1939,
  "aro": 1940,
  "pl": 1941,
  "ner": 1942,
  "▁superior": 1943,
  "vid": 1944,
  "greso": 1945,
  "▁fac": 1946,
  "▁Real": 1947,
  "ecer": 1948,
  "▁sac": 1949,
  "▁episo": 1950,
  "▁aband": 1951,
  "▁os": 1952,
  "sticas": 1953,
  "▁Res": 1954,
  "uras": 1955,
  "▁enfer": 1956,
  "ole": 1957,
  "▁rela": 1958,
  "dios": 1959,
  "▁brit": 1960,
  "▁Imp": 1961,
  "▁Reg": 1962,
  "tegor": 1963,
  "▁decidi": 1964,
  "are": 1965,
  "land": 1966,
  "▁iglesia": 1967,
  "▁partidos": 1968,
  "ducaci": 1969,
  "iere": 1970,
  "▁original": 1971,
  "peonato": 1972,
  "▁puntos": 1973,
  "▁cine": 1974,
  "▁cabo": 1975,
  "osp": 1976,
  "onado": 1977,
  "ger": 1978,
  "▁campo": 1979,
  "▁significa": 1980,
  "iza": 1981,
  "▁Ber": 1982,
  "▁hoy": 1983,
  "▁separ": 1984,
  "▁influ": 1985,
  "▁capaci": 1986,
  "ty": 1987,
  "▁gen": 1988,
  "▁cantidad": 1989,
  "▁resultado": 1990,
  "▁ello": 1991,
  "▁colec": 1992,
  "▁[/": 1993,
  "▁Pero": 1994,
  "▁ahora": 1995,
  "tituto": 1996,
  "▁conserv": 1997,
  "▁er": 1998,
  "▁ase": 1999,
  "▁grupos": 2000,
  "▁conten": 2001,
  "amer": 2002,
  "via": 2003,
  "▁propio": 2004,
  "▁190": 2005,
  "▁du": 2006,
  "iera": 2007,
  "▁fre": 2008,
  "ko": 2009,
  "gico": 2010,
  "▁especial": 2011,
  "entemente": 2012,
  "▁Ej": 2013,
  "▁Pedro": 2014,
  "elo": 2015,
  "▁Ser": 2016,
  "▁colabor": 2017,
  "ires": 2018,
  "▁22": 2019,
  "▁lab": 2020,
  "▁hombres": 2021,
  "▁Ge": 2022,
  "▁madre": 2023,
  "ificaci": 2024,
  "▁estuvo": 2025,
  "erva": 2026,
  "▁dijo": 2027,
  "lio": 2028,
  "▁oblig": 2029,
  "▁arquitec": 2030,
  "▁100": 2031,
  "mano": 2032,
  "estiv": 2033,
  "▁Partido": 2034,
  "iro": 2035,
  "▁dispon": 2036,
  "mple": 2037,
  "iri": 2038,
  "nicos": 2039,
  "▁alrededor": 2040,
  "dado": 2041,
  "▁ado": 2042,
  "▁23": 2043,
  "nde": 2044,
  "uls": 2045,
  "▁matr": 2046,
  "▁asoci": 2047,
  "bles": 2048,
  "▁+": 2049,
  "▁trop": 2050,
  "▁din": 2051,
  "▁escu": 2052,
  "▁problemas": 2053,
  "vil": 2054,
  "▁Ros": 2055,
  "▁prem": 2056,
  "▁auto": 2057,
  "▁comba": 2058,
  "▁Aunque": 2059,
  "▁prue": 2060,
  "▁pens": 2061,
  "▁recu": 2062,
  "ple": 2063,
  "▁alim": 2064,
  "▁Har": 2065,
  "esa": 2066,
  "▁mostr": 2067,
  "▁primero": 2068,
  "▁llamada": 2069,
  "icano": 2070,
  "▁dem": 2071,
  "▁integr": 2072,
  "tien": 2073,
  "▁Be": 2074,
  "rac": 2075,
  "▁propor": 2076,
  "ulo": 2077,
  "imonio": 2078,
  "▁comb": 2079,
  "▁conjunto": 2080,
  "▁viol": 2081,
  "▁New": 2082,
  "inar": 2083,
  "enso": 2084,
  "icamente": 2085,
  "▁<": 2086,
  "▁seis": 2087,
  "▁Ven": 2088,
  "▁llegar": 2089,
  "culas": 2090,
  "▁metros": 2091,
  "cedi": 2092,
  "▁hon": 2093,
  "▁lista": 2094,
  "truy": 2095,
  "▁isla": 2096,
  "▁Feder": 2097,
  "▁celebr": 2098,
  "▁General": 2099,
  "▁campa": 2100,
  "▁Antonio": 2101,
  "unca": 2102,
  "▁Prem": 2103,
  "▁elim": 2104,
  "▁acep": 2105,
  "▁protagon": 2106,
  "▁corres": 2107,
  "▁Sur": 2108,
  "▁sex": 2109,
  "▁determin": 2110,
  "▁at": 2111,
  "▁empez": 2112,
  "▁tema": 2113,
  "▁minu": 2114,
  "lares": 2115,
  "bur": 2116,
  "▁Ta": 2117,
  "▁menci": 2118,
  "▁localidad": 2119,
  "nero": 2120,
  "reci": 2121,
  "cr": 2122,
  "ley": 2123,
  "▁conocida": 2124,
  "partamento": 2125,
  "usto": 2126,
  "Es": 2127,
  "one": 2128,
  "table": 2129,
  "laciones": 2130,
  "▁categor": 2131,
  "▁pod": 2132,
  "▁Bel": 2133,
  "orge": 2134,
  "▁espos": 2135,
  "▁hom": 2136,
  "▁interior": 2137,
  "inado": 2138,
  "▁ren": 2139,
  "▁estaban": 2140,
  "▁2000": 2141,
  "tt": 2142,
  "▁resto": 2143,
  "uri": 2144,
  "ompa": 2145,
  "rmino": 2146,
  "▁fecha": 2147,
  "illas": 2148,
  "mania": 2149,
  "▁video": 2150,
  "uraci": 2151,
  "ert": 2152,
  "anci": 2153,
  "▁he": 2154,
  "▁Div": 2155,
  "log": 2156,
  "▁servicios": 2157,
  "▁ocur": 2158,
  "ft": 2159,
  "▁conte": 2160,
  "▁dispu": 2161,
  "▁His": 2162,
  "pan": 2163,
  "▁jo": 2164,
  "▁Ol": 2165,
  "▁persona": 2166,
  "▁frecu": 2167,
  "▁He": 2168,
  "reas": 2169,
  "dero": 2170,
  "▁Uni": 2171,
  "▁apoyo": 2172,
  "▁gas": 2173,
  "▁arte": 2174,
  "▁presenta": 2175,
  "▁realizar": 2176,
  "emen": 2177,
  "dujo": 2178,
  "hib": 2179,
  "▁189": 2180,
  "▁Pas": 2181,
  "▁Vic": 2182,
  "▁Club": 2183,
  "▁aproxim": 2184,
  "▁alto": 2185,
  "ursos": 2186,
  "▁prom": 2187,
  "pci": 2188,
  "hu": 2189,
  "▁pose": 2190,
  "-2": 2191,
  "itas": 2192,
  "▁terc": 2193,
  "▁lim": 2194,
  "▁agu": 2195,
  "▁espacio": 2196,
  "▁lar": 2197,
  "▁nego": 2198,
  "▁Gal": 2199,
  "▁hombre": 2200,
  "icio": 2201,
  "▁posib": 2202,
  "oce": 2203,
  "▁Aires": 2204,
  "genes": 2205,
  "▁28": 2206,
  "▁afec": 2207,
  "▁alta": 2208,
  "▁numeros": 2209,
  "▁encontrar": 2210,
  "acci": 2211,
  "▁retir": 2212,
  "▁direcci": 2213,
  "▁considera": 2214,
  "▁horas": 2215,
  "▁Cab": 2216,
  "▁conci": 2217,
  "▁personaje": 2218,
  "erio": 2219,
  "▁modo": 2220,
  "▁Yo": 2221,
  "▁prepar": 2222,
  "tora": 2223,
  "▁secre": 2224,
  "jar": 2225,
  "▁jef": 2226,
  "iencia": 2227,
  "▁ho": 2228,
  "nd": 2229,
  "▁central": 2230,
  "▁fuerzas": 2231,
  "▁consecu": 2232,
  "▁Rec": 2233,
  "bier": 2234,
  "▁At": 2235,
  "ace": 2236,
  "dir": 2237,
  "▁objetivo": 2238,
  "▁26": 2239,
  "▁incor": 2240,
  "gue": 2241,
  "▁vir": 2242,
  "▁situaci": 2243,
  "▁%": 2244,
  "alizaci": 2245,
  "▁energ": 2246,
  "fon": 2247,
  "▁norm": 2248,
  "▁entren": 2249,
  "▁Mart": 2250,
  "▁27": 2251,
  "▁constitu": 2252,
  "▁partici": 2253,
  "▁cuad": 2254,
  "tillo": 2255,
  "▁Reino": 2256,
  "▁hijos": 2257,
  "▁Ja": 2258,
  "her": 2259,
  "▁em": 2260,
  "▁Mi": 2261,
  "▁sitio": 2262,
  "dra": 2263,
  "▁escuela": 2264,
  "▁Ver": 2265,
  "▁Gobierno": 2266,
  "▁2020": 2267,
  "▁dice": 2268,
  "▁proces": 2269,
  "▁bal": 2270,
  "▁usu": 2271,
  "▁ayuda": 2272,
  "guay": 2273,
  "onar": 2274,
  "arra": 2275,
  "▁Super": 2276,
  "▁recuper": 2277,
  "▁Ciudad": 2278,
  "▁Primer": 2279,
  "▁Segun": 2280,
  "▁calle": 2281,
  "▁Ban": 2282,
  "dica": 2283,
  "isiones": 2284,
  "50": 2285,
  "▁hija": 2286,
  "▁cur": 2287,
  "▁especies": 2288,
  "▁derecho": 2289,
  "▁mul": 2290,
  "▁modelo": 2291,
  "ines": 2292,
  "gn": 2293,
  "▁frances": 2294,
  "▁ital": 2295,
  "▁(18": 2296,
  "diciones": 2297,
  "▁Dav": 2298,
  "rar": 2299,
  "▁provo": 2300,
  "▁canciones": 2301,
  "▁dese": 2302,
  "▁puer": 2303,
  "▁traslad": 2304,
  "▁1.": 2305,
  "▁red": 2306,
  "▁candida": 2307,
  "▁gri": 2308,
  "▁nunca": 2309,
  "▁imagen": 2310,
  "leg": 2311,
  "▁abs": 2312,
  "cios": 2313,
  "▁intro": 2314,
  "omas": 2315,
  "▁fuerte": 2316,
  "▁actividad": 2317,
  "anto": 2318,
  "▁Conse": 2319,
  "▁administr": 2320,
  "▁extra": 2321,
  "▁firm": 2322,
  "▁Norte": 2323,
  "▁batalla": 2324,
  "▁Bol": 2325,
  "▁sir": 2326,
  "▁Vir": 2327,
  "▁(200": 2328,
  "▁edici": 2329,
  "eli": 2330,
  "▁Go": 2331,
  "▁Copa": 2332,
  "cepci": 2333,
  "igos": 2334,
  "ash": 2335,
  "▁Ste": 2336,
  "▁nuevos": 2337,
  "▁amp": 2338,
  "eles": 2339,
  "▁fon": 2340,
  "tiago": 2341,
  "▁Ital": 2342,
  "▁elementos": 2343,
  "▁Buenos": 2344,
  "▁Dis": 2345,
  "▁euro": 2346,
  "tual": 2347,
  "bal": 2348,
  "leci": 2349,
  "tistas": 2350,
  "uelo": 2351,
  "▁raz": 2352,
  "▁franc": 2353,
  "digo": 2354,
  "▁joven": 2355,
  "▁conoc": 2356,
  "▁Ob": 2357,
  "▁respons": 2358,
  "▁musical": 2359,
  "▁especie": 2360,
  "ducci": 2361,
  "▁Luego": 2362,
  "▁tierra": 2363,
  "▁presiden": 2364,
  "▁superfici": 2365,
  "adio": 2366,
  "manas": 2367,
  "▁sede": 2368,
  "uales": 2369,
  "nimo": 2370,
  "▁derechos": 2371,
  "▁extre": 2372,
  "▁hermano": 2373,
  "▁188": 2374,
  "demia": 2375,
  "tus": 2376,
  "inaci": 2377,
  "▁x": 2378,
  "▁az": 2379,
  "▁acompa": 2380,
  "▁alter": 2381,
  "▁histor": 2382,
  "▁aparece": 2383,
  "▁menor": 2384,
  ".\"": 2385,
  "▁vel": 2386,
  "▁creaci": 2387,
  "▁May": 2388,
  "ice": 2389,
  "taciones": 2390,
  "▁Manuel": 2391,
  "celona": 2392,
  "tina": 2393,
  "▁unas": 2394,
  "▁Rev": 2395,
  "▁depor": 2396,
  "wn": 2397,
  "iado": 2398,
  "▁equipos": 2399,
  "esi": 2400,
  "turales": 2401,
  "▁Alemania": 2402,
  "▁apareci": 2403,
  "▁Au": 2404,
  "▁grande": 2405,
  "▁incorpor": 2406,
  "▁haci": 2407,
  "▁acer": 2408,
  "▁problema": 2409,
  "▁gal": 2410,
  "▁hub": 2411,
  "arlo": 2412,
  "ulares": 2413,
  "▁Da": 2414,
  "▁formaci": 2415,
  "arca": 2416,
  "uros": 2417,
  "vers": 2418,
  "umentos": 2419,
  "▁observ": 2420,
  "▁ejecu": 2421,
  "▁Nav": 2422,
  "▁fron": 2423,
  "▁eso": 2424,
  "▁Centro": 2425,
  "▁capacidad": 2426,
  "▁ingres": 2427,
  "▁perdi": 2428,
  "ES": 2429,
  "▁estaci": 2430,
  "wa": 2431,
  "▁Rus": 2432,
  "▁muestra": 2433,
  "rendi": 2434,
  "▁antiguo": 2435,
  "▁individ": 2436,
  "▁tecn": 2437,
  "ecen": 2438,
  "▁libre": 2439,
  "ps": 2440,
  "naci": 2441,
  "dap": 2442,
  "▁Iglesia": 2443,
  "▁pen": 2444,
  "ER": 2445,
  "▁gracias": 2446,
  "▁Mer": 2447,
  "rido": 2448,
  "▁Ben": 2449,
  "todo": 2450,
  "oles": 2451,
  "ltimos": 2452,
  "▁nuevas": 2453,
  "▁obtuvo": 2454,
  "▁propia": 2455,
  "▁Instituto": 2456,
  "▁ol": 2457,
  "▁Hu": 2458,
  "▁ellas": 2459,
  "=\"": 2460,
  "▁Austr": 2461,
  "▁semana": 2462,
  "▁clase": 2463,
  "▁Mig": 2464,
  "logo": 2465,
  "▁Esc": 2466,
  "▁casos": 2467,
  "▁debut": 2468,
  "▁religios": 2469,
  "▁electr": 2470,
  "nicas": 2471,
  "▁aprob": 2472,
  "▁partes": 2473,
  "▁interes": 2474,
  "triz": 2475,
  "▁Dan": 2476,
  "▁bor": 2477,
  "▁crear": 2478,
  "▁noche": 2479,
  "dific": 2480,
  "▁comunidad": 2481,
  "▁sencillo": 2482,
  "▁avi": 2483,
  "▁Deb": 2484,
  "▁Bal": 2485,
  "▁orien": 2486,
  "han": 2487,
  "▁salud": 2488,
  "▁Tri": 2489,
  "▁ampl": 2490,
  "▁primeras": 2491,
  "estival": 2492,
  "▁Cap": 2493,
  "▁Santiago": 2494,
  "▁muri": 2495,
  "tici": 2496,
  "▁monta": 2497,
  "▁eta": 2498,
  "▁Jes": 2499,
  "▁ciu": 2500,
  "▁Divisi": 2501,
  "lin": 2502,
  "▁presencia": 2503,
  "▁187": 2504,
  "▁mit": 2505,
  "▁desemp": 2506,
  "▁29": 2507,
  "ker": 2508,
  "▁jur": 2509,
  "▁jugador": 2510,
  "▁ina": 2511,
  "▁priv": 2512,
  "▁cient": 2513,
  "▁desc": 2514,
  "▁il": 2515,
  "▁Son": 2516,
  "▁ib": 2517,
  "▁Mal": 2518,
  "ham": 2519,
  "▁financi": 2520,
  "▁quer": 2521,
  "▁permite": 2522,
  "▁Mil": 2523,
  "▁consigu": 2524,
  "▁50": 2525,
  "bu": 2526,
  "guna": 2527,
  "):": 2528,
  "▁inm": 2529,
  "▁186": 2530,
  "▁nombrado": 2531,
  "arias": 2532,
  "▁medida": 2533,
  "AR": 2534,
  "ximo": 2535,
  "metros": 2536,
  "ari": 2537,
  "▁etc": 2538,
  "unidad": 2539,
  "▁Segunda": 2540,
  "itado": 2541,
  "mara": 2542,
  "▁europe": 2543,
  "itud": 2544,
  "entas": 2545,
  "▁Barcelona": 2546,
  "ni": 2547,
  "olo": 2548,
  "vas": 2549,
  "▁cat": 2550,
  "▁atra": 2551,
  "titud": 2552,
  "sta": 2553,
  "▁mercado": 2554,
  "▁apoy": 2555,
  "▁revista": 2556,
  "▁Colomb": 2557,
  "▁pron": 2558,
  "▁im": 2559,
  "▁divi": 2560,
  "deo": 2561,
  "▁seguridad": 2562,
  "▁quienes": 2563,
  "▁fab": 2564,
  "▁sociedad": 2565,
  "▁Will": 2566,
  "▁adap": 2567,
  "▁lig": 2568,
  "▁episodio": 2569,
  "▁enferme": 2570,
  "▁web": 2571,
  "▁Liga": 2572,
  "▁arch": 2573,
  "▁Pr": 2574,
  "▁resta": 2575,
  "dena": 2576,
  "▁tama": 2577,
  "▁cla": 2578,
  "ndez": 2579,
  "▁All": 2580,
  "▁venta": 2581,
  "▁ciudades": 2582,
  "▁Consejo": 2583,
  "▁plata": 2584,
  "▁civil": 2585,
  "ecre": 2586,
  "▁minutos": 2587,
  "ficos": 2588,
  "ches": 2589,
  "▁Algun": 2590,
  "ws": 2591,
  "▁respuesta": 2592,
  "tadas": 2593,
  "miti": 2594,
  "▁fuerza": 2595,
  "▁Miguel": 2596,
  "▁deber": 2597,
  "▁pare": 2598,
  "rique": 2599,
  "▁Ing": 2600,
  "▁causa": 2601,
  "▁permiti": 2602,
  "▁maes": 2603,
  "cam": 2604,
  "isterio": 2605,
  "▁ampli": 2606,
  "▁quin": 2607,
  "▁abier": 2608,
  "tud": 2609,
  "▁Os": 2610,
  "▁Sch": 2611,
  "visi": 2612,
  "▁Lond": 2613,
  "▁mitad": 2614,
  "▁desapar": 2615,
  "▁planta": 2616,
  "▁Cos": 2617,
  "▁luz": 2618,
  "▁convertir": 2619,
  "erto": 2620,
  "▁arm": 2621,
  "int": 2622,
  "▁relacion": 2623,
  "▁mex": 2624,
  "▁defin": 2625,
  "▁manten": 2626,
  "▁cop": 2627,
  "▁alg": 2628,
  "iam": 2629,
  "▁ministro": 2630,
  "▁Italia": 2631,
  "ultura": 2632,
  "▁Gre": 2633,
  "▁victoria": 2634,
  "▁av": 2635,
  "▁correspon": 2636,
  "AS": 2637,
  "▁uni": 2638,
  "▁visi": 2639,
  "▁obtener": 2640,
  "quia": 2641,
  "net": 2642,
  "▁tercer": 2643,
  "▁volvi": 2644,
  "▁productos": 2645,
  "▁reco": 2646,
  "▁dicho": 2647,
  "▁profun": 2648,
  "rir": 2649,
  "cle": 2650,
  "guir": 2651,
  "▁Ram": 2652,
  "ulas": 2653,
  "▁oeste": 2654,
  "olu": 2655,
  "torios": 2656,
  "ks": 2657,
  "▁viaj": 2658,
  "media": 2659,
  "▁recor": 2660,
  "▁Bro": 2661,
  "▁Pan": 2662,
  "tilla": 2663,
  "▁calidad": 2664,
  "▁temas": 2665,
  "',": 2666,
  "▁afirm": 2667,
  "▁independi": 2668,
  "adres": 2669,
  "▁zonas": 2670,
  "▁medios": 2671,
  "▁Mas": 2672,
  "org": 2673,
  "▁descubri": 2674,
  "neas": 2675,
  "▁pasado": 2676,
  "ducir": 2677,
  "▁lucha": 2678,
  "▁2.": 2679,
  "turo": 2680,
  "▁|": 2681,
  "ibuy": 2682,
  "▁teor": 2683,
  "▁Hay": 2684,
  "viv": 2685,
  "▁periodo": 2686,
  "▁principio": 2687,
  "ung": 2688,
  "cidental": 2689,
  "▁mejores": 2690,
  "▁Bras": 2691,
  "▁acceso": 2692,
  "icia": 2693,
  "▁Primera": 2694,
  "▁desp": 2695,
  "▁cultura": 2696,
  "▁prome": 2697,
  "▁Rey": 2698,
  "▁jefe": 2699,
  "▁esposa": 2700,
  "30": 2701,
  "ey": 2702,
  "▁Del": 2703,
  "▁acci": 2704,
  "▁idea": 2705,
  "torial": 2706,
  "▁radio": 2707,
  "pendencia": 2708,
  "10": 2709,
  "▁Fuer": 2710,
  "▁Museo": 2711,
  "▁Br": 2712,
  "▁reemp": 2713,
  "▁iz": 2714,
  "▁aument": 2715,
  "▁Jap": 2716,
  "▁pasar": 2717,
  "gal": 2718,
  "ense": 2719,
  "▁usar": 2720,
  "▁otor": 2721,
  "▁Mich": 2722,
  "▁experim": 2723,
  "▁fa": 2724,
  "▁educaci": 2725,
  "▁Ru": 2726,
  "vos": 2727,
  "dente": 2728,
  "▁Premio": 2729,
  "quil": 2730,
  "▁foto": 2731,
  "ij": 2732,
  "quis": 2733,
  "ime": 2734,
  "▁Fo": 2735,
  "▁amor": 2736,
  "▁fabric": 2737,
  "ting": 2738,
  "▁esca": 2739,
  "▁cristi": 2740,
  "▁manif": 2741,
  "▁tropas": 2742,
  "▁diversos": 2743,
  "▁nin": 2744,
  "19": 2745,
  "itan": 2746,
  "▁Aca": 2747,
  "tencia": 2748,
  "art": 2749,
  "▁Pue": 2750,
  "ticamente": 2751,
  "▁menudo": 2752,
  "▁Der": 2753,
  "▁Ag": 2754,
  "acto": 2755,
  "▁antigua": 2756,
  "▁simple": 2757,
  "bla": 2758,
  "▁similar": 2759,
  "irma": 2760,
  "()": 2761,
  "aja": 2762,
  "▁media": 2763,
  "▁sociales": 2764,
  "itario": 2765,
  "▁esf": 2766,
  "▁acab": 2767,
  "▁tercera": 2768,
  "▁Tur": 2769,
  "ili": 2770,
  "▁Naci": 2771,
  "ianza": 2772,
  "▁aut": 2773,
  "ulta": 2774,
  "▁2010": 2775,
  "▁lleva": 2776,
  "▁Ed": 2777,
  "genier": 2778,
  "▁Mientras": 2779,
  "▁honor": 2780,
  "▁descon": 2781,
  "▁Cris": 2782,
  "▁Tra": 2783,
  "ames": 2784,
  "dan": 2785,
  "▁asc": 2786,
  "▁gesti": 2787,
  "▁cantante": 2788,
  "istra": 2789,
  "▁llevar": 2790,
  "ix": 2791,
  "iblio": 2792,
  "ted": 2793,
  "▁III": 2794,
  "▁Ay": 2795,
  "▁van": 2796,
  "----": 2797,
  "▁ense": 2798,
  "cepto": 2799,
  "▁fra": 2800,
  "▁entrada": 2801,
  "alizar": 2802,
  "▁inaug": 2803,
  "▁identific": 2804,
  "amo": 2805,
  "ivos": 2806,
  "▁construy": 2807,
  "▁polic": 2808,
  "micos": 2809,
  "▁izquier": 2810,
  "bir": 2811,
  "▁desempe": 2812,
  "▁estra": 2813,
  "ky": 2814,
  "▁mantener": 2815,
  "▁lec": 2816,
  "▁ade": 2817,
  "curso": 2818,
  "▁realidad": 2819,
  "▁2011": 2820,
  "▁Tom": 2821,
  "▁empresas": 2822,
  "▁sos": 2823,
  "au": 2824,
  "vel": 2825,
  "▁Do": 2826,
  "cidente": 2827,
  "abilidad": 2828,
  "ugares": 2829,
  "▁Fernando": 2830,
  "▁Sp": 2831,
  "▁sector": 2832,
  "char": 2833,
  "▁falleci": 2834,
  "▁Unido": 2835,
  "reo": 2836,
  "teca": 2837,
  "▁2012": 2838,
  "sh": 2839,
  "▁:": 2840,
  "▁Colombia": 2841,
  "▁colon": 2842,
  "tualmente": 2843,
  "▁milit": 2844,
  "▁Ley": 2845,
  "▁dado": 2846,
  "▁pudo": 2847,
  "▁suces": 2848,
  "▁evitar": 2849,
  "▁Cruz": 2850,
  "▁Gon": 2851,
  "▁bene": 2852,
  "▁novela": 2853,
  "▁Estos": 2854,
  "adu": 2855,
  "▁camino": 2856,
  "▁obten": 2857,
  "▁trabajar": 2858,
  "▁pudi": 2859,
  "▁Mc": 2860,
  "ural": 2861,
  "▁For": 2862,
  "▁31": 2863,
  "▁40": 2864,
  "▁Escuela": 2865,
  "▁solici": 2866,
  "▁cumpl": 2867,
  "▁Rom": 2868,
  "ctr": 2869,
  "ospital": 2870,
  "ale": 2871,
  "▁Estu": 2872,
  "▁pregun": 2873,
  "gur": 2874,
  "▁mano": 2875,
  "▁Ori": 2876,
  "later": 2877,
  "-0": 2878,
  "▁Cr": 2879,
  "▁veloci": 2880,
  "▁adqui": 2881,
  "▁China": 2882,
  "▁gente": 2883,
  "▁falta": 2884,
  "alia": 2885,
  "▁veci": 2886,
  "▁altura": 2887,
  "▁oport": 2888,
  "▁And": 2889,
  "mocr": 2890,
  "▁incluye": 2891,
  "▁cabeza": 2892,
  "▁rep": 2893,
  "▁Posterior": 2894,
  "▁cuyo": 2895,
  "▁acus": 2896,
  "▁dig": 2897,
  "ish": 2898,
  "▁come": 2899,
  "cin": 2900,
  "▁vac": 2901,
  "▁fe": 2902,
  "▁1,": 2903,
  "forma": 2904,
  "▁vendi": 2905,
  "dados": 2906,
  "▁Die": 2907,
  "▁respecto": 2908,
  "sicos": 2909,
  "▁Dios": 2910,
  "▁probable": 2911,
  "ria": 2912,
  "▁(201": 2913,
  "▁propie": 2914,
  "▁Est": 2915,
  "aller": 2916,
  "▁aspec": 2917,
  "venes": 2918,
  "▁Ap": 2919,
  "▁publicado": 2920,
  "▁elegido": 2921,
  "▁diversas": 2922,
  "▁Venez": 2923,
  "▁infer": 2924,
  "micas": 2925,
  "▁siete": 2926,
  "▁Catal": 2927,
  "▁Patr": 2928,
  "rece": 2929,
  "▁Nic": 2930,
  "▁(199": 2931,
  "▁nada": 2932,
  "tab": 2933,
  "▁Brasil": 2934,
  "▁mens": 2935,
  "▁ran": 2936,
  "▁Congreso": 2937,
  "cla": 2938,
  "ispo": 2939,
  "▁tomar": 2940,
  "▁demos": 2941,
  "▁mol": 2942,
  "quer": 2943,
  "▁econom": 2944,
  "ulaci": 2945,
  "▁conflic": 2946,
  "▁estren": 2947,
  "▁Garc": 2948,
  "▁Hol": 2949,
  "▁material": 2950,
  "ight": 2951,
  "▁profesor": 2952,
  "▁concl": 2953,
  "▁propiedad": 2954,
  "ney": 2955,
  "▁vista": 2956,
  "▁excl": 2957,
  "rada": 2958,
  "ferencia": 2959,
  "pera": 2960,
  "▁2013": 2961,
  "▁sentido": 2962,
  "ray": 2963,
  "echo": 2964,
  "▁refle": 2965,
  "▁baja": 2966,
  "▁siglo": 2967,
  "▁aire": 2968,
  "▁vig": 2969,
  "▁(2": 2970,
  "nez": 2971,
  "igura": 2972,
  "onte": 2973,
  "▁registr": 2974,
  "▁tempera": 2975,
  "▁mec": 2976,
  "▁mando": 2977,
  "▁cerc": 2978,
  "▁desta": 2979,
  "▁lengu": 2980,
  "▁Bur": 2981,
  "▁lugares": 2982,
  "▁dic": 2983,
  "▁contac": 2984,
  "ctica": 2985,
  "▁sigue": 2986,
  "usticia": 2987,
  "anda": 2988,
  "▁alem": 2989,
  "▁indic": 2990,
  "▁long": 2991,
  "▁corri": 2992,
  "▁manos": 2993,
  "isa": 2994,
  "▁tecnolog": 2995,
  "▁camp": 2996,
  "▁marc": 2997,
  "▁Vol": 2998,
  "▁gira": 2999,
  "▁ayudar": 3000,
  "▁Londres": 3001,
  "uegos": 3002,
  "su": 3003,
  "▁mez": 3004,
  "▁escribi": 3005,
  "▁deri": 3006,
  "▁conduc": 3007,
  "▁Oc": 3008,
  "▁2008": 3009,
  "▁ocasiones": 3010,
  "usta": 3011,
  "▁diez": 3012,
  "▁tri": 3013,
  "▁Amer": 3014,
  "▁sistemas": 3015,
  "torno": 3016,
  "▁alma": 3017,
  "▁ejerci": 3018,
  "▁Fil": 3019,
  "ibles": 3020,
  "▁oro": 3021,
  "ull": 3022,
  "▁Jer": 3023,
  "▁armas": 3024,
  "▁ataque": 3025,
  "▁Ph": 3026,
  "▁Fu": 3027,
  "▁Imperio": 3028,
  "▁bos": 3029,
  "ablo": 3030,
  "▁atenci": 3031,
  "▁fundam": 3032,
  "▁design": 3033,
  "aya": 3034,
  "▁centr": 3035,
  "▁dinero": 3036,
  "asa": 3037,
  "▁2009": 3038,
  "▁libros": 3039,
  "▁Tierra": 3040,
  "▁fies": 3041,
  "▁existe": 3042,
  "toral": 3043,
  "▁Tele": 3044,
  "▁recom": 3045,
  "ane": 3046,
  "laterra": 3047,
  "▁cambios": 3048,
  "▁asum": 3049,
  "▁bol": 3050,
  "▁cic": 3051,
  "▁residen": 3052,
  "▁asegur": 3053,
  "▁proteg": 3054,
  "▁conoce": 3055,
  "▁recha": 3056,
  "▁Char": 3057,
  "▁bomb": 3058,
  "▁David": 3059,
  "▁modific": 3060,
  "▁labor": 3061,
  "▁demostr": 3062,
  "manos": 3063,
  "alo": 3064,
  "▁marca": 3065,
  "▁divisi": 3066,
  "▁Municip": 3067,
  "▁premio": 3068,
  "OS": 3069,
  "▁buena": 3070,
  "▁Ir": 3071,
  "cter": 3072,
  "iforn": 3073,
  "▁Pre": 3074,
  "▁explic": 3075,
  "▁peri": 3076,
  "bar": 3077,
  "▁Ya": 3078,
  "▁juegos": 3079,
  "AN": 3080,
  "▁teatro": 3081,
  "▁2007": 3082,
  "▁hici": 3083,
  "▁185": 3084,
  "▁utiliza": 3085,
  "▁cosas": 3086,
  "▁repar": 3087,
  "▁conce": 3088,
  "▁kil": 3089,
  "lisis": 3090,
  "▁habr": 3091,
  "untos": 3092,
  "ON": 3093,
  "tol": 3094,
  "▁etapa": 3095,
  "onel": 3096,
  "tecci": 3097,
  "▁2014": 3098,
  "▁Alber": 3099,
  "▁evi": 3100,
  "▁enfrent": 3101,
  "▁plaza": 3102,
  "▁texto": 3103,
  "▁padres": 3104,
  "EN": 3105,
  "venci": 3106,
  "▁000": 3107,
  "▁parece": 3108,
  "lores": 3109,
  "▁mediados": 3110,
  "ny": 3111,
  "▁todav": 3112,
  "mite": 3113,
  "▁voz": 3114,
  "ionales": 3115,
  "use": 3116,
  "gentino": 3117,
  "idamente": 3118,
  "▁inferior": 3119,
  "▁Tr": 3120,
  "▁intent": 3121,
  "▁Ten": 3122,
  "▁Venezuela": 3123,
  "▁confirm": 3124,
  "▁recl": 3125,
  "ive": 3126,
  "▁conform": 3127,
  "▁capa": 3128,
  "(\"": 3129,
  "▁cuya": 3130,
  "izar": 3131,
  "▁secund": 3132,
  "▁espect": 3133,
  "ensi": 3134,
  "▁locales": 3135,
  "▁volver": 3136,
  "▁Nor": 3137,
  "ese": 3138,
  "▁adop": 3139,
  "▁costa": 3140,
  "▁formar": 3141,
  "▁extran": 3142,
  "▁canal": 3143,
  "▁jugadores": 3144,
  "▁humanos": 3145,
  "mina": 3146,
  "▁Fer": 3147,
  "gina": 3148,
  "centr": 3149,
  "▁clasific": 3150,
  "▁utilizar": 3151,
  "▁torneo": 3152,
  "▁ning": 3153,
  "lez": 3154,
  "▁trabajos": 3155,
  "▁veh": 3156,
  "ste": 3157,
  "ultado": 3158,
  "▁artistas": 3159,
  "fe": 3160,
  "enov": 3161,
  "mir": 3162,
  "iencias": 3163,
  "enda": 3164,
  "▁2015": 3165,
  "▁aven": 3166,
  "rbol": 3167,
  "▁184": 3168,
  "▁Central": 3169,
  "▁don": 3170,
  "▁Gr": 3171,
  "▁Que": 3172,
  "deres": 3173,
  "▁verano": 3174,
  "ood": 3175,
  "▁Bas": 3176,
  "tedr": 3177,
  "▁cuesti": 3178,
  "iss": 3179,
  "gin": 3180,
  "▁enter": 3181,
  "▁formas": 3182,
  "tring": 3183,
  "▁mundial": 3184,
  "iller": 3185,
  "▁Gonz": 3186,
  "▁actor": 3187,
  "▁benefici": 3188,
  "tional": 3189,
  "▁evento": 3190,
  "for": 3191,
  "▁Villa": 3192,
  "frica": 3193,
  "▁Mat": 3194,
  "ind": 3195,
  "lada": 3196,
  "▁tierras": 3197,
  "rael": 3198,
  "▁periodis": 3199,
  "▁combate": 3200,
  "▁dicha": 3201,
  "▁haciendo": 3202,
  "▁alcal": 3203,
  "ult": 3204,
  "xima": 3205,
  "▁barrio": 3206,
  "▁hora": 3207,
  "sticos": 3208,
  "▁compon": 3209,
  "▁document": 3210,
  "The": 3211,
  "▁acu": 3212,
  "▁exist": 3213,
  "▁cel": 3214,
  "▁seguir": 3215,
  "▁transform": 3216,
  "▁Ka": 3217,
  "▁lic": 3218,
  "egio": 3219,
  "ifornia": 3220,
  "demos": 3221,
  "▁arg": 3222,
  "▁selecci": 3223,
  "▁ocho": 3224,
  "▁campe": 3225,
  "▁conec": 3226,
  "▁alguna": 3227,
  "bra": 3228,
  "▁tendr": 3229,
  "▁palabras": 3230,
  "▁programas": 3231,
  "▁elev": 3232,
  "▁Je": 3233,
  "▁proce": 3234,
  "▁reb": 3235,
  "icales": 3236,
  "▁memor": 3237,
  "▁figura": 3238,
  "gicos": 3239,
  "pal": 3240,
  "▁dipu": 3241,
  "▁William": 3242,
  "▁Pop": 3243,
  "▁conocer": 3244,
  "▁Roma": 3245,
  "▁cob": 3246,
  "▁toma": 3247,
  "onda": 3248,
  "ore": 3249,
  "▁Er": 3250,
  "ye": 3251,
  "▁Direc": 3252,
  "ibuci": 3253,
  "▁impres": 3254,
  "▁prisi": 3255,
  "put": 3256,
  "AC": 3257,
  "▁destin": 3258,
  "▁comercial": 3259,
  "▁Ga": 3260,
  "▁viaje": 3261,
  "porta": 3262,
  "▁secu": 3263,
  "▁jud": 3264,
  "▁dirigida": 3265,
  "▁espaci": 3266,
  "▁parque": 3267,
  "hi": 3268,
  "▁defensa": 3269,
  "▁ferro": 3270,
  "▁Fac": 3271,
  "▁perteneci": 3272,
  "len": 3273,
  "▁Domin": 3274,
  "▁contrato": 3275,
  "yn": 3276,
  "▁jugar": 3277,
  "In": 3278,
  "itaci": 3279,
  "▁inicio": 3280,
  "ombre": 3281,
  "▁velocidad": 3282,
  "▁cuanto": 3283,
  "▁carre": 3284,
  "▁misi": 3285,
  "▁blo": 3286,
  "▁conde": 3287,
  "eso": 3288,
  "abel": 3289,
  "▁palabra": 3290,
  "alizado": 3291,
  "▁recursos": 3292,
  "ld": 3293,
  "En": 3294,
  "▁deben": 3295,
  "▁golpe": 3296,
  "▁defini": 3297,
  "▁amena": 3298,
  "ith": 3299,
  "▁inspir": 3300,
  "▁distrito": 3301,
  "▁Hab": 3302,
  "▁ge": 3303,
  "▁Casa": 3304,
  "▁colum": 3305,
  "▁instr": 3306,
  "\")": 3307,
  "cnica": 3308,
  "▁Fre": 3309,
  "▁yo": 3310,
  "▁escul": 3311,
  "eran": 3312,
  "▁(\"": 3313,
  "ilidades": 3314,
  "▁sufri": 3315,
  "▁mayores": 3316,
  "▁presi": 3317,
  "alu": 3318,
  "bano": 3319,
  "izada": 3320,
  "ward": 3321,
  "▁Don": 3322,
  "▁inicia": 3323,
  "▁Ger": 3324,
  "▁Wal": 3325,
  "▁aqu": 3326,
  "▁animales": 3327,
  "▁ganar": 3328,
  "▁objeto": 3329,
  "▁restos": 3330,
  "▁Sam": 3331,
  "▁longitud": 3332,
  "▁ubicado": 3333,
  "▁exterior": 3334,
  "erador": 3335,
  "mpor": 3336,
  "usa": 3337,
  "▁plantas": 3338,
  "2)": 3339,
  "tulos": 3340,
  "▁bre": 3341,
  "gi": 3342,
  "▁Europe": 3343,
  "pez": 3344,
  "rer": 3345,
  "▁avanz": 3346,
  "ficas": 3347,
  "▁2006": 3348,
  "elas": 3349,
  "▁enem": 3350,
  "▁incluyen": 3351,
  "isla": 3352,
  "berg": 3353,
  "▁autom": 3354,
  "▁blanco": 3355,
  "sen": 3356,
  "▁Academia": 3357,
  "▁militares": 3358,
  "▁Flor": 3359,
  "▁levan": 3360,
  "▁industria": 3361,
  "ust": 3362,
  "▁Arm": 3363,
  "▁sent": 3364,
  "▁Social": 3365,
  "▁inmedia": 3366,
  "▁promo": 3367,
  "▁bel": 3368,
  "▁Cla": 3369,
  "▁coment": 3370,
  "▁hid": 3371,
  "▁parro": 3372,
  "Con": 3373,
  "▁fase": 3374,
  "▁comienza": 3375,
  "▁efecto": 3376,
  ".000": 3377,
  "▁aparici": 3378,
  "▁motor": 3379,
  "ington": 3380,
  "▁corte": 3381,
  "we": 3382,
  "▁fan": 3383,
  "ultad": 3384,
  "ance": 3385,
  "▁sens": 3386,
  "▁voc": 3387,
  "nacionales": 3388,
  "yos": 3389,
  "▁artista": 3390,
  "fin": 3391,
  "crip": 3392,
  "▁vas": 3393,
  "▁elabor": 3394,
  "▁arro": 3395,
  "▁Tran": 3396,
  "▁tex": 3397,
  "▁vin": 3398,
  "▁Chris": 3399,
  "▁Mac": 3400,
  "▁promoci": 3401,
  "▁Rusia": 3402,
  "▁unidades": 3403,
  "▁tales": 3404,
  "▁guar": 3405,
  "▁2016": 3406,
  "▁faci": 3407,
  "tida": 3408,
  "▁detal": 3409,
  "▁cultural": 3410,
  "▁Festival": 3411,
  "▁futuro": 3412,
  "▁tel": 3413,
  "▁183": 3414,
  "fil": 3415,
  "▁sor": 3416,
  "tle": 3417,
  "zado": 3418,
  "▁referirse": 3419,
  "▁actriz": 3420,
  "▁Em": 3421,
  "▁sufici": 3422,
  "▁posi": 3423,
  "icidad": 3424,
  "▁acciones": 3425,
  "▁abandon": 3426,
  "▁correc": 3427,
  "ters": 3428,
  "▁existen": 3429,
  "▁Plan": 3430,
  "▁Asoci": 3431,
  "▁paci": 3432,
  "▁ens": 3433,
  "▁fundad": 3434,
  "▁War": 3435,
  "▁integ": 3436,
  "llas": 3437,
  "tell": 3438,
  "cipe": 3439,
  "▁exposici": 3440,
  "▁revel": 3441,
  "▁producto": 3442,
  "tarse": 3443,
  "umen": 3444,
  "▁dev": 3445,
  "▁Comisi": 3446,
  "amble": 3447,
  "▁Fr": 3448,
  "▁flu": 3449,
  "▁Bor": 3450,
  "▁cruz": 3451,
  "▁Debido": 3452,
  "▁Jorge": 3453,
  "▁60": 3454,
  "▁dejar": 3455,
  "ock": 3456,
  "▁realizado": 3457,
  "cadas": 3458,
  "▁Ang": 3459,
  "lem": 3460,
  "▁Ur": 3461,
  "▁escen": 3462,
  "1)": 3463,
  "▁capit": 3464,
  "▁Sil": 3465,
  "▁efectos": 3466,
  "▁Tu": 3467,
  "▁idi": 3468,
  "▁municipal": 3469,
  "▁ries": 3470,
  "▁Du": 3471,
  "old": 3472,
  "uelas": 3473,
  "▁coloc": 3474,
  "▁comand": 3475,
  "▁produjo": 3476,
  "entales": 3477,
  "▁Estas": 3478,
  "▁sem": 3479,
  "▁fuente": 3480,
  "▁doble": 3481,
  "▁Mag": 3482,
  "▁Az": 3483,
  "▁fines": 3484,
  "▁cuarto": 3485,
  "▁Hen": 3486,
  "tim": 3487,
  "▁esfuer": 3488,
  "▁ambas": 3489,
  "▁vio": 3490,
  "cti": 3491,
  "▁prueba": 3492,
  "IN": 3493,
  "▁Amb": 3494,
  "vador": 3495,
  "▁institu": 3496,
  "▁utilizado": 3497,
  "itada": 3498,
  "▁dispar": 3499,
  "-3": 3500,
  "▁pasa": 3501,
  "▁fru": 3502,
  "▁decisi": 3503,
  "60": 3504,
  "puestas": 3505,
  "▁extranj": 3506,
  "▁funciones": 3507,
  "▁convier": 3508,
  "▁verda": 3509,
  "edi": 3510,
  "▁hermanos": 3511,
  "▁amigos": 3512,
  "▁Lin": 3513,
  "▁busc": 3514,
  "12": 3515,
  "▁cadena": 3516,
  "olver": 3517,
  "teras": 3518,
  "▁vuelta": 3519,
  "izado": 3520,
  "▁Enrique": 3521,
  "▁llegada": 3522,
  "▁completo": 3523,
  "▁signific": 3524,
  "ju": 3525,
  "▁sustitu": 3526,
  "▁instituci": 3527,
  "ego": 3528,
  "▁2017": 3529,
  "▁pilo": 3530,
  "▁escritor": 3531,
  "▁pueblos": 3532,
  "▁mic": 3533,
  "imismo": 3534,
  "▁convo": 3535,
  "tividad": 3536,
  "ncipe": 3537,
  "▁Wil": 3538,
  "rados": 3539,
  "▁Ah": 3540,
  "imientos": 3541,
  "▁fig": 3542,
  "osos": 3543,
  "▁proyectos": 3544,
  "▁contenido": 3545,
  "IC": 3546,
  "▁guitar": 3547,
  "▁enci": 3548,
  "5)": 3549,
  "▁semanas": 3550,
  "▁Bre": 3551,
  "manes": 3552,
  "▁amigo": 3553,
  "▁inaugur": 3554,
  "▁Monte": 3555,
  "▁glo": 3556,
  "▁2,": 3557,
  "▁hu": 3558,
  "▁quier": 3559,
  "▁Mos": 3560,
  "▁madera": 3561,
  "▁pocos": 3562,
  "▁Orden": 3563,
  "▁noti": 3564,
  "▁femen": 3565,
  "▁Algunos": 3566,
  "paci": 3567,
  "erop": 3568,
  "▁poner": 3569,
  "▁reuni": 3570,
  "▁Gru": 3571,
  "▁aguas": 3572,
  "▁chil": 3573,
  "▁contiene": 3574,
  "ocu": 3575,
  "▁pelig": 3576,
  "▁Cat": 3577,
  "▁feder": 3578,
  "▁disf": 3579,
  "▁Pablo": 3580,
  "▁cubier": 3581,
  "▁tiempos": 3582,
  "dicos": 3583,
  "▁catal": 3584,
  "▁lengua": 3585,
  "▁guer": 3586,
  "rantes": 3587,
  "▁ingenier": 3588,
  "▁salida": 3589,
  "by": 3590,
  "▁repro": 3591,
  "orld": 3592,
  "▁atac": 3593,
  "▁invers": 3594,
  "▁ninguna": 3595,
  "3)": 3596,
  "▁francesa": 3597,
  "tig": 3598,
  "▁program": 3599,
  "▁revoluci": 3600,
  "lamento": 3601,
  "▁nuestro": 3602,
  "▁182": 3603,
  "▁necesario": 3604,
  "▁Provin": 3605,
  "▁presente": 3606,
  "▁bastante": 3607,
  "▁crea": 3608,
  "abe": 3609,
  "▁Bla": 3610,
  "ID": 3611,
  "istros": 3612,
  "80": 3613,
  "▁Li": 3614,
  "▁creado": 3615,
  "▁Edi": 3616,
  "▁3.": 3617,
  "40": 3618,
  "▁Blan": 3619,
  "▁unidad": 3620,
  "▁pruebas": 3621,
  "pone": 3622,
  "▁tipos": 3623,
  "4)": 3624,
  "▁realiza": 3625,
  "ilares": 3626,
  "etas": 3627,
  "torias": 3628,
  "uestra": 3629,
  "▁alum": 3630,
  "▁numerosos": 3631,
  "▁templo": 3632,
  "▁crisis": 3633,
  "sque": 3634,
  "▁aus": 3635,
  "▁Bill": 3636,
  "▁Cre": 3637,
  "▁buen": 3638,
  "▁lanzado": 3639,
  "▁Emp": 3640,
  "icanos": 3641,
  "public": 3642,
  "imos": 3643,
  "ware": 3644,
  "olid": 3645,
  "▁soldados": 3646,
  "▁fuentes": 3647,
  "enca": 3648,
  "▁Feli": 3649,
  "▁protes": 3650,
  "▁2018": 3651,
  "▁llega": 3652,
  "▁beb": 3653,
  "BC": 3654,
  "AM": 3655,
  "mbiente": 3656,
  "▁Den": 3657,
  "▁escena": 3658,
  "▁obstante": 3659,
  "▁peso": 3660,
  "▁deman": 3661,
  "▁gradu": 3662,
  "▁libertad": 3663,
  "▁Paul": 3664,
  "▁composi": 3665,
  "▁dibu": 3666,
  "▁organ": 3667,
  "▁circ": 3668,
  "▁Puerto": 3669,
  "▁rode": 3670,
  "imen": 3671,
  "▁nie": 3672,
  "▁piedra": 3673,
  "▁pul": 3674,
  "ling": 3675,
  "▁IV": 3676,
  "pidamente": 3677,
  "▁distintos": 3678,
  "▁Asociaci": 3679,
  "▁trib": 3680,
  "iados": 3681,
  "quista": 3682,
  "▁Atl": 3683,
  "Ar": 3684,
  "▁Trans": 3685,
  "▁We": 3686,
  "EC": 3687,
  "▁Cer": 3688,
  "▁Tiene": 3689,
  "▁depen": 3690,
  "▁Depor": 3691,
  "▁Virgen": 3692,
  "▁abog": 3693,
  "ricos": 3694,
  "ismos": 3695,
  "amp": 3696,
  "▁infan": 3697,
  "▁concentr": 3698,
  "▁amar": 3699,
  "teratura": 3700,
  "metro": 3701,
  "III": 3702,
  "▁2005": 3703,
  "▁Jul": 3704,
  "('": 3705,
  "▁izquierda": 3706,
  "▁Andr": 3707,
  "▁ofrec": 3708,
  "▁aplicaci": 3709,
  "raf": 3710,
  "▁Riv": 3711,
  "cionar": 3712,
  "▁Star": 3713,
  "gada": 3714,
  "menes": 3715,
  "▁liter": 3716,
  "▁Fund": 3717,
  "ecci": 3718,
  "arc": 3719,
  "▁provoc": 3720,
  "▁vie": 3721,
  "▁recibir": 3722,
  "▁colecci": 3723,
  "▁edificios": 3724,
  "gicas": 3725,
  "▁hacen": 3726,
  "▁tuvieron": 3727,
  "AL": 3728,
  "▁llama": 3729,
  "▁Lor": 3730,
  "▁mm": 3731,
  "terr": 3732,
  "▁facil": 3733,
  "▁goles": 3734,
  "iblioteca": 3735,
  "▁suelo": 3736,
  "AT": 3737,
  "osas": 3738,
  "▁distancia": 3739,
  "▁escrito": 3740,
  "▁Fe": 3741,
  "tedral": 3742,
  "ak": 3743,
  "▁2019": 3744,
  "▁tes": 3745,
  "ford": 3746,
  "▁Castilla": 3747,
  "orme": 3748,
  "▁Hum": 3749,
  "raz": 3750,
  "▁derecha": 3751,
  "▁grado": 3752,
  "▁James": 3753,
  "reras": 3754,
  "▁Comun": 3755,
  "andro": 3756,
  "▁oficiales": 3757,
  "fre": 3758,
  "▁esos": 3759,
  "11": 3760,
  "▁titular": 3761,
  "amento": 3762,
  "uce": 3763,
  "▁consigui": 3764,
  "rdo": 3765,
  "▁soluci": 3766,
  "▁hicieron": 3767,
  "iscal": 3768,
  "▁Santo": 3769,
  "▁mantuvo": 3770,
  "▁Dr": 3771,
  "▁Rich": 3772,
  "▁aprendi": 3773,
  "▁//": 3774,
  "▁descar": 3775,
  "▁Leg": 3776,
  "▁arri": 3777,
  "adoras": 3778,
  "▁arti": 3779,
  "uns": 3780,
  "▁puerto": 3781,
  "alizada": 3782,
  "▁posee": 3783,
  "▁islas": 3784,
  "ave": 3785,
  "▁cm": 3786,
  "▁castillo": 3787,
  "▁argentino": 3788,
  "itaria": 3789,
  "tidos": 3790,
  "fonso": 3791,
  "chi": 3792,
  "▁sum": 3793,
  "▁har": 3794,
  "cionales": 3795,
  "▁necesita": 3796,
  "▁Historia": 3797,
  "ate": 3798,
  "▁adecu": 3799,
  "▁Secre": 3800,
  "amblea": 3801,
  "▁Canad": 3802,
  "amientos": 3803,
  "▁dismin": 3804,
  "utbol": 3805,
  "idores": 3806,
  "▁aquellos": 3807,
  "▁fondo": 3808,
  "▁Cub": 3809,
  "▁suel": 3810,
  "▁niveles": 3811,
  "▁multi": 3812,
  "▁situado": 3813,
  "No": 3814,
  "▁enc": 3815,
  "quiv": 3816,
  "▁impuls": 3817,
  "▁luch": 3818,
  "puestos": 3819,
  "▁valores": 3820,
  "ndole": 3821,
  "▁alterna": 3822,
  "tarios": 3823,
  "▁necesidad": 3824,
  "fi": 3825,
  "▁Artes": 3826,
  "ianos": 3827,
  "▁familias": 3828,
  "let": 3829,
  "gip": 3830,
  "▁hubo": 3831,
  "▁Wh": 3832,
  "▁conseguir": 3833,
  "▁aumento": 3834,
  "▁produce": 3835,
  "▁perfec": 3836,
  "eca": 3837,
  "▁trat": 3838,
  "ant": 3839,
  "▁eventos": 3840,
  "lia": 3841,
  "oz": 3842,
  "▁Sud": 3843,
  "▁rock": 3844,
  "▁arque": 3845,
  "esta": 3846,
  "▁permaneci": 3847,
  "tiles": 3848,
  "▁construir": 3849,
  "vech": 3850,
  "▁ras": 3851,
  "▁US": 3852,
  "▁nuestra": 3853,
  "▁Liber": 3854,
  "▁entrev": 3855,
  "▁expe": 3856,
  "▁audi": 3857,
  "▁env": 3858,
  "ega": 3859,
  "▁cuid": 3860,
  "aca": 3861,
  "rano": 3862,
  "▁Bern": 3863,
  "tron": 3864,
  "gimen": 3865,
  "▁objetos": 3866,
  "▁Mel": 3867,
  "▁votos": 3868,
  "▁Felipe": 3869,
  "tismo": 3870,
  "▁exclus": 3871,
  "▁artes": 3872,
  "▁estim": 3873,
  "▁concepto": 3874,
  "tern": 3875,
  "uno": 3876,
  "ucle": 3877,
  "▁Bri": 3878,
  "way": 3879,
  "▁torre": 3880,
  "▁ofrece": 3881,
  "▁prensa": 3882,
  "untamiento": 3883,
  "▁cont": 3884,
  "▁hermana": 3885,
  "▁dan": 3886,
  "▁mag": 3887,
  "eropuerto": 3888,
  "▁Bos": 3889,
  "▁azul": 3890,
  "tions": 3891,
  "▁permit": 3892,
  "▁distintas": 3893,
  "▁)": 3894,
  "▁acerca": 3895,
  "sic": 3896,
  "▁Pu": 3897,
  "▁(198": 3898,
  "▁secci": 3899,
  "▁Serv": 3900,
  "▁destru": 3901,
  "eda": 3902,
  "▁mismos": 3903,
  "amil": 3904,
  "▁variedad": 3905,
  "▁2010,": 3906,
  "▁dom": 3907,
  "▁saber": 3908,
  "▁adel": 3909,
  "▁negro": 3910,
  "ield": 3911,
  "▁Luc": 3912,
  "▁ofreci": 3913,
  "▁sang": 3914,
  "▁2011,": 3915,
  "▁Kar": 3916,
  "▁diario": 3917,
  "▁tenido": 3918,
  "OR": 3919,
  "▁individu": 3920,
  "▁fuego": 3921,
  "▁India": 3922,
  "Ch": 3923,
  "taria": 3924,
  "ato": 3925,
  "▁vein": 3926,
  "▁encuentro": 3927,
  "▁Edu": 3928,
  "▁Teatro": 3929,
  "▁evoluci": 3930,
  "▁asesina": 3931,
  "▁cru": 3932,
  "teros": 3933,
  "isto": 3934,
  "▁italiano": 3935,
  "idor": 3936,
  "rdoba": 3937,
  "ngeles": 3938,
  "▁habitu": 3939,
  "adura": 3940,
  "ienda": 3941,
  "grado": 3942,
  "▁exig": 3943,
  "cra": 3944,
  "alla": 3945,
  "▁abri": 3946,
  "▁Hor": 3947,
  "▁motivo": 3948,
  "AD": 3949,
  "▁nombres": 3950,
  "rden": 3951,
  "▁decor": 3952,
  "▁defens": 3953,
  "▁flo": 3954,
  "▁volun": 3955,
  "▁Sta": 3956,
  "▁captur": 3957,
  "▁regular": 3958,
  "▁fus": 3959,
  "▁manifes": 3960,
  "▁Jav": 3961,
  "ngel": 3962,
  "▁nombr": 3963,
  "▁concre": 3964,
  "▁protecci": 3965,
  "▁Ese": 3966,
  "ster": 3967,
  "▁garan": 3968,
  "unal": 3969,
  "▁Dar": 3970,
  "pertura": 3971,
  "▁rendi": 3972,
  "▁clases": 3973,
  "ciales": 3974,
  "tienen": 3975,
  "▁bi": 3976,
  "rios": 3977,
  "dentes": 3978,
  "▁invol": 3979,
  "▁Sociedad": 3980,
  "▁181": 3981,
  "ael": 3982,
  "▁Bra": 3983,
  "▁Inv": 3984,
  "guez": 3985,
  "aliza": 3986,
  "ise": 3987,
  "asi": 3988,
  "▁situada": 3989,
  "ral": 3990,
  "▁Alej": 3991,
  "▁Vie": 3992,
  "▁siglos": 3993,
  "igr": 3994,
  "icci": 3995,
  "▁Costa": 3996,
  "▁contacto": 3997,
  "▁emperador": 3998,
  "▁detr": 3999,
  "▁Revoluci": 4000,
  "▁visto": 4001,
  "desa": 4002,
  "▁tren": 4003,
  "render": 4004,
  "▁composici": 4005,
  "▁Valencia": 4006,
  "▁numerosas": 4007,
  "▁jard": 4008,
  "▁coci": 4009,
  "▁Doc": 4010,
  "dores": 4011,
  "▁2012,": 4012,
  "▁id": 4013,
  "▁Robert": 4014,
  "▁reemplaz": 4015,
  "▁alcan": 4016,
  "▁Ind": 4017,
  "▁Jack": 4018,
  "▁Grupo": 4019,
  "my": 4020,
  "quina": 4021,
  "▁80": 4022,
  "lie": 4023,
  "▁prohib": 4024,
  "ibilidad": 4025,
  "sito": 4026,
  "▁nomin": 4027,
  "▁asign": 4028,
  "▁hog": 4029,
  "adi": 4030,
  "▁fich": 4031,
  "blicas": 4032,
  "▁casas": 4033,
  "▁pareja": 4034,
  "▁trip": 4035,
  "▁conven": 4036,
  "▁bio": 4037,
  "tancias": 4038,
  "▁usuarios": 4039,
  "▁Australia": 4040,
  "▁larga": 4041,
  "▁Sen": 4042,
  "▁dific": 4043,
  "▁paz": 4044,
  "6)": 4045,
  "ican": 4046,
  "olas": 4047,
  "iti": 4048,
  "▁fortal": 4049,
  "▁adelante": 4050,
  "ulos": 4051,
  "tres": 4052,
  "▁sil": 4053,
  "▁conden": 4054,
  "▁actuaci": 4055,
  "ect": 4056,
  "▁demas": 4057,
  "▁cambiar": 4058,
  "entado": 4059,
  "mato": 4060,
  "inta": 4061,
  "8)": 4062,
  "▁juven": 4063,
  "▁publicaci": 4064,
  "ilio": 4065,
  "ah": 4066,
  "ek": 4067,
  "▁Dos": 4068,
  "his": 4069,
  "▁usa": 4070,
  "▁acad": 4071,
  "▁ll": 4072,
  "▁conflicto": 4073,
  "minos": 4074,
  "ello": 4075,
  "▁You": 4076,
  "▁semi": 4077,
  "▁Rodr": 4078,
  "uncia": 4079,
  "▁testi": 4080,
  "▁preocu": 4081,
  "▁reino": 4082,
  "▁DE": 4083,
  "Qu": 4084,
  "▁queda": 4085,
  "▁producir": 4086,
  "▁Gab": 4087,
  "get": 4088,
  "▁2004": 4089,
  "▁Men": 4090,
  "▁videoj": 4091,
  "▁calles": 4092,
  "▁comercio": 4093,
  "▁plante": 4094,
  "rminos": 4095,
  "▁preten": 4096,
  "▁regiones": 4097,
  "ics": 4098,
  "▁Mur": 4099,
  "▁increm": 4100,
  "▁Alex": 4101,
  "emor": 4102,
  "▁sup": 4103,
  "▁sonido": 4104,
  "▁elecci": 4105,
  "▁bloque": 4106,
  "▁podemos": 4107,
  "ux": 4108,
  "▁Alfonso": 4109,
  "▁Portu": 4110,
  "▁regreso": 4111,
  "▁180": 4112,
  "its": 4113,
  "▁pronto": 4114,
  "▁Trab": 4115,
  "▁oposici": 4116,
  "rey": 4117,
  "▁piezas": 4118,
  "ecuci": 4119,
  "▁escal": 4120,
  "▁Van": 4121,
  "▁lograr": 4122,
  "▁alcanzar": 4123,
  "▁claro": 4124,
  "-18": 4125,
  "▁Inde": 4126,
  "fes": 4127,
  "▁Sev": 4128,
  "▁error": 4129,
  "▁explo": 4130,
  "▁World": 4131,
  "▁dur": 4132,
  "▁carb": 4133,
  "ordin": 4134,
  "7)": 4135,
  "25": 4136,
  "▁fotograf": 4137,
  "ivamente": 4138,
  "▁modelos": 4139,
  "acer": 4140,
  "▁enten": 4141,
  "▁mejorar": 4142,
  "▁Pon": 4143,
  "ser": 4144,
  "yas": 4145,
  "▁Ana": 4146,
  "wer": 4147,
  "dy": 4148,
  "70": 4149,
  "▁Diego": 4150,
  "▁humano": 4151,
  "▁2013,": 4152,
  "▁emiti": 4153,
  "▁ambiente": 4154,
  "▁Red": 4155,
  "▁histori": 4156,
  "ords": 4157,
  "icultura": 4158,
  "cnico": 4159,
  "▁2015,": 4160,
  "▁adquiri": 4161,
  "▁2014,": 4162,
  "▁Ciencias": 4163,
  "▁clima": 4164,
  "▁Radio": 4165,
  "▁Guar": 4166,
  "▁memoria": 4167,
  "▁derrota": 4168,
  "ugh": 4169,
  "▁versiones": 4170,
  "▁decre": 4171,
  "misi": 4172,
  "▁On": 4173,
  "▁acce": 4174,
  "▁sug": 4175,
  "jor": 4176,
  "▁sobreviv": 4177,
  "▁involuc": 4178,
  "▁riesgo": 4179,
  "ath": 4180,
  "▁fer": 4181,
  "▁clave": 4182,
  "▁curso": 4183,
  "▁amer": 4184,
  "▁nar": 4185,
  "▁Mol": 4186,
  "illos": 4187,
  "▁avan": 4188,
  "▁veg": 4189,
  "▁Tim": 4190,
  "▁condado": 4191,
  "ayo": 4192,
  "zan": 4193,
  "▁mad": 4194,
  "▁disposi": 4195,
  "▁aprovech": 4196,
  "mpo": 4197,
  "anzas": 4198,
  "▁pp": 4199,
  "▁promedio": 4200,
  "terios": 4201,
  "▁cara": 4202,
  "osof": 4203,
  "▁ecu": 4204,
  "ami": 4205,
  "▁Segu": 4206,
  "▁diferente": 4207,
  "▁Win": 4208,
  "umb": 4209,
  "▁Jun": 4210,
  "▁austr": 4211,
  "▁grave": 4212,
  "ntico": 4213,
  "ponde": 4214,
  "▁prote": 4215,
  "ndolo": 4216,
  "▁busca": 4217,
  "▁triun": 4218,
  "carril": 4219,
  "▁enfrenta": 4220,
  "umo": 4221,
  "▁puente": 4222,
  "▁consum": 4223,
  "lex": 4224,
  "dar": 4225,
  "ota": 4226,
  "▁tre": 4227,
  "▁Valle": 4228,
  "▁medidas": 4229,
  "▁aj": 4230,
  "ear": 4231,
  "▁pele": 4232,
  "vie": 4233,
  "▁explor": 4234,
  "▁autores": 4235,
  "luy": 4236,
  "▁formado": 4237,
  "▁pidi": 4238,
  "reno": 4239,
  "▁candidato": 4240,
  "▁negoci": 4241,
  "▁dirigido": 4242,
  "entan": 4243,
  "▁colores": 4244,
  "▁mencion": 4245,
  "cons": 4246,
  "▁Sub": 4247,
  "geno": 4248,
  "9)": 4249,
  "▁carta": 4250,
  "▁clar": 4251,
  "▁convierte": 4252,
  "▁corre": 4253,
  "▁carga": 4254,
  "▁generaci": 4255,
  "▁TV": 4256,
  "▁bot": 4257,
  "ille": 4258,
  "▁fen": 4259,
  "aco": 4260,
  "▁pier": 4261,
  "▁valle": 4262,
  "▁2009,": 4263,
  "▁Def": 4264,
  "▁carretera": 4265,
  "▁vivo": 4266,
  "pla": 4267,
  "▁suele": 4268,
  "▁basada": 4269,
  "▁Michael": 4270,
  "▁cree": 4271,
  "▁redes": 4272,
  "▁disc": 4273,
  "▁puso": 4274,
  "▁breve": 4275,
  "▁bienes": 4276,
  "▁George": 4277,
  "▁formato": 4278,
  "tidades": 4279,
  "▁constante": 4280,
  "Al": 4281,
  "▁2008,": 4282,
  "ometr": 4283,
  "▁condici": 4284,
  "▁ruta": 4285,
  "15": 4286,
  "▁doctor": 4287,
  "▁intelig": 4288,
  "▁coin": 4289,
  "ueva": 4290,
  "▁antiguos": 4291,
  "nicamente": 4292,
  "▁sabe": 4293,
  "itz": 4294,
  "▁hechos": 4295,
  "▁marcha": 4296,
  "▁pintura": 4297,
  "neos": 4298,
  "como": 4299,
  "▁requier": 4300,
  "▁Fal": 4301,
  "▁estados": 4302,
  "▁respe": 4303,
  "ctor": 4304,
  "rill": 4305,
  "▁intento": 4306,
  "▁torno": 4307,
  "▁Cul": 4308,
  "▁recur": 4309,
  "pido": 4310,
  "▁ciencia": 4311,
  "ramien": 4312,
  "▁fundaci": 4313,
  "▁Sar": 4314,
  "unidenses": 4315,
  "▁coraz": 4316,
  "▁suce": 4317,
  "▁some": 4318,
  "americana": 4319,
  "peraci": 4320,
  "genas": 4321,
  "▁renov": 4322,
  "▁EE": 4323,
  "▁Stu": 4324,
  "▁nega": 4325,
  "▁rob": 4326,
  "▁Cada": 4327,
  "▁sangre": 4328,
  "▁manda": 4329,
  "▁usando": 4330,
  "▁precio": 4331,
  "▁hue": 4332,
  "▁Uno": 4333,
  "▁Rafa": 4334,
  "jes": 4335,
  "ture": 4336,
  "▁llegaron": 4337,
  "▁dr": 4338,
  "▁sala": 4339,
  "▁cierto": 4340,
  "▁convenci": 4341,
  "▁restaur": 4342,
  "\">": 4343,
  "▁ideas": 4344,
  "▁Prin": 4345,
  "▁Gua": 4346,
  "▁Uru": 4347,
  "▁portu": 4348,
  "▁permitir": 4349,
  "▁elemento": 4350,
  "mes": 4351,
  "▁deten": 4352,
  "▁Fa": 4353,
  "gel": 4354,
  "▁deriv": 4355,
  "▁Pen": 4356,
  "▁bra": 4357,
  "▁capaz": 4358,
  "din": 4359,
  "ples": 4360,
  "▁Ecu": 4361,
  "dias": 4362,
  "▁haya": 4363,
  "ther": 4364,
  "▁escribir": 4365,
  "onalmente": 4366,
  "zada": 4367,
  "▁CO": 4368,
  "▁Popular": 4369,
  "▁intens": 4370,
  "▁Otros": 4371,
  "▁alcalde": 4372,
  "▁inicial": 4373,
  "istir": 4374,
  "IS": 4375,
  "▁dec": 4376,
  "▁museo": 4377,
  "▁seleccion": 4378,
  "▁buscar": 4379,
  "▁Comit": 4380,
  "cesa": 4381,
  "▁Salvador": 4382,
  "diente": 4383,
  "▁Jim": 4384,
  "▁cabal": 4385,
  "anismo": 4386,
  "istente": 4387,
  "leo": 4388,
  "▁500": 4389,
  "▁pros": 4390,
  "▁ingles": 4391,
  "▁frontera": 4392,
  "▁Asimismo": 4393,
  "cnicas": 4394,
  "▁puerta": 4395,
  "▁2016,": 4396,
  "▁esco": 4397,
  "▁emo": 4398,
  "▁2007,": 4399,
  "para": 4400,
  "▁Era": 4401,
  "lulas": 4402,
  "▁Lima": 4403,
  "ague": 4404,
  "▁conta": 4405,
  "ings": 4406,
  "wood": 4407,
  "▁Tal": 4408,
  "▁hier": 4409,
  "-4": 4410,
  "ence": 4411,
  "▁Daniel": 4412,
  "▁ubicada": 4413,
  "ast": 4414,
  "▁Var": 4415,
  "▁vuelo": 4416,
  "▁2003": 4417,
  "▁convers": 4418,
  "▁piel": 4419,
  "izan": 4420,
  "▁desemb": 4421,
  "▁Jean": 4422,
  "▁nueve": 4423,
  "▁Nuevo": 4424,
  "▁mucha": 4425,
  "obre": 4426,
  "▁prima": 4427,
  "▁Ofici": 4428,
  "▁terreno": 4429,
  "RO": 4430,
  "ude": 4431,
  "▁duque": 4432,
  "▁mane": 4433,
  "▁Juegos": 4434,
  "▁Bus": 4435,
  "▁imper": 4436,
  "don": 4437,
  "▁productor": 4438,
  "▁Guad": 4439,
  "▁oscu": 4440,
  "▁obispo": 4441,
  "▁naveg": 4442,
  "ministr": 4443,
  "▁decis": 4444,
  "mez": 4445,
  "▁usuario": 4446,
  "Cu": 4447,
  "▁recibe": 4448,
  "uth": 4449,
  "▁Ella": 4450,
  "st": 4451,
  "▁recons": 4452,
  "▁reform": 4453,
  "▁Mayor": 4454,
  "▁metal": 4455,
  "▁Econ": 4456,
  "zaje": 4457,
  "▁70": 4458,
  "▁almacen": 4459,
  "cripci": 4460,
  "merg": 4461,
  "▁Plata": 4462,
  "▁35": 4463,
  "▁vesti": 4464,
  "▁pueda": 4465,
  "ife": 4466,
  "▁herramien": 4467,
  "▁aco": 4468,
  "▁Elec": 4469,
  "▁dirigi": 4470,
  "▁90": 4471,
  "▁adul": 4472,
  "▁salir": 4473,
  "2),": 4474,
  "uta": 4475,
  "▁intenci": 4476,
  "▁Inf": 4477,
  "▁Isabel": 4478,
  "▁refug": 4479,
  "▁detec": 4480,
  "tropol": 4481,
  "▁absolu": 4482,
  "▁Ken": 4483,
  "▁entrar": 4484,
  "▁Federal": 4485,
  "();": 4486,
  "tz": 4487,
  "▁prev": 4488,
  "▁2018,": 4489,
  "▁Sue": 4490,
  "▁dipl": 4491,
  "▁reina": 4492,
  "▁Han": 4493,
  "▁basado": 4494,
  "▁vuelve": 4495,
  "llos": 4496,
  "▁record": 4497,
  "▁propios": 4498,
  "▁4.": 4499,
  "▁liga": 4500,
  "▁guion": 4501,
  "▁centros": 4502,
  "cher": 4503,
  "▁estrella": 4504,
  "▁Alberto": 4505,
  "cido": 4506,
  "▁Palacio": 4507,
  "▁decide": 4508,
  "▁conex": 4509,
  "▁hospital": 4510,
  "▁fiesta": 4511,
  "estruc": 4512,
  "▁futbol": 4513,
  "▁proporci": 4514,
  "▁Antes": 4515,
  "questa": 4516,
  "tric": 4517,
  "▁contrario": 4518,
  "mento": 4519,
  "▁magn": 4520,
  "▁menores": 4521,
  "icios": 4522,
  "▁Med": 4523,
  "▁gana": 4524,
  "▁vivir": 4525,
  "▁2017,": 4526,
  "▁sigui": 4527,
  "▁Cristo": 4528,
  "▁nave": 4529,
  "▁democr": 4530,
  "▁quiere": 4531,
  "▁similares": 4532,
  "▁result": 4533,
  "arqu": 4534,
  "▁0,": 4535,
  "ania": 4536,
  "▁extremo": 4537,
  "mann": 4538,
  "▁ocurri": 4539,
  "ograf": 4540,
  "ducido": 4541,
  "▁Uruguay": 4542,
  "▁reac": 4543,
  "squeda": 4544,
  "tesis": 4545,
  "▁salv": 4546,
  "▁Sevilla": 4547,
  "apones": 4548,
  "▁habla": 4549,
  "▁Junta": 4550,
  "▁operaci": 4551,
  "▁escrita": 4552,
  "cina": 4553,
  "pado": 4554,
  "▁fi": 4555,
  "▁relev": 4556,
  "3),": 4557,
  "blicos": 4558,
  "nal": 4559,
  "▁iba": 4560,
  "▁Israel": 4561,
  "rdida": 4562,
  "▁japones": 4563,
  "▁sola": 4564,
  "▁disfru": 4565,
  "▁deba": 4566,
  "▁ses": 4567,
  "erdo": 4568,
  "FA": 4569,
  "▁mir": 4570,
  "▁Educaci": 4571,
  "ivas": 4572,
  "▁equiv": 4573,
  "▁lin": 4574,
  "▁prac": 4575,
  "▁figuras": 4576,
  "▁Arte": 4577,
  "▁verde": 4578,
  "▁demasiado": 4579,
  "▁naturales": 4580,
  "▁terror": 4581,
  "▁opera": 4582,
  "▁acto": 4583,
  "▁terminar": 4584,
  "▁agreg": 4585,
  "▁titulado": 4586,
  "titucional": 4587,
  "ricas": 4588,
  "▁ronda": 4589,
  "ivia": 4590,
  "vera": 4591,
  "▁Peter": 4592,
  "▁tabla": 4593,
  "▁impues": 4594,
  "▁My": 4595,
  "▁2006,": 4596,
  "aman": 4597,
  "▁Ren": 4598,
  "▁2019,": 4599,
  "4),": 4600,
  "▁later": 4601,
  "▁visita": 4602,
  "ella": 4603,
  "▁cay": 4604,
  "▁parroquia": 4605,
  "omos": 4606,
  "tios": 4607,
  "▁estadio": 4608,
  "▁procedi": 4609,
  "▁remo": 4610,
  "▁dando": 4611,
  "▁Asamblea": 4612,
  "▁sovi": 4613,
  "▁edu": 4614,
  "▁Oro": 4615,
  "▁maestro": 4616,
  "▁tele": 4617,
  "▁vincul": 4618,
  "▁Ke": 4619,
  "▁Tex": 4620,
  "abez": 4621,
  "▁amplia": 4622,
  "▁opci": 4623,
  "▁Civil": 4624,
  "▁Portugal": 4625,
  "tuales": 4626,
  "▁Ama": 4627,
  "▁prov": 4628,
  "hab": 4629,
  "▁distribu": 4630,
  "▁VI": 4631,
  "ltiples": 4632,
  "▁ja": 4633,
  "acas": 4634,
  "▁(197": 4635,
  "▁bur": 4636,
  "nam": 4637,
  "▁entorno": 4638,
  "1),": 4639,
  "nch": 4640,
  "▁ruso": 4641,
  "▁reducir": 4642,
  "▁if": 4643,
  "sar": 4644,
  "▁campos": 4645,
  "gro": 4646,
  "▁nota": 4647,
  "▁bater": 4648,
  "▁contribuy": 4649,
  "▁Gra": 4650,
  "ashington": 4651,
  "▁Tar": 4652,
  "6),": 4653,
  "mbito": 4654,
  "▁lago": 4655,
  "nov": 4656,
  "▁comienzo": 4657,
  "tory": 4658,
  "▁compuesto": 4659,
  "paron": 4660,
  "▁educa": 4661,
  "▁Mir": 4662,
  "▁villa": 4663,
  "▁Pub": 4664,
  "unes": 4665,
  "▁completa": 4666,
  "rim": 4667,
  "▁sacerdo": 4668,
  "8),": 4669,
  "▁fundada": 4670,
  "chada": 4671,
  "▁contar": 4672,
  "▁ganado": 4673,
  "▁encima": 4674,
  "mentos": 4675,
  "igue": 4676,
  "▁Ni": 4677,
  "▁lenguaje": 4678,
  "ieza": 4679,
  "▁leyes": 4680,
  "uf": 4681,
  "turn": 4682,
  "\").": 4683,
  "▁llu": 4684,
  "▁propuesta": 4685,
  "▁Anti": 4686,
  "▁marco": 4687,
  "▁Jef": 4688,
  "▁suje": 4689,
  "▁lider": 4690,
  "▁extensi": 4691,
  "▁Rafael": 4692,
  "▁flor": 4693,
  "aces": 4694,
  "bita": 4695,
  "▁prim": 4696,
  "▁ocasi": 4697,
  "▁solamente": 4698,
  "rdenes": 4699,
  "terna": 4700,
  "▁Hun": 4701,
  "▁hel": 4702,
  "▁3,": 4703,
  "zi": 4704,
  "lvar": 4705,
  "▁escenario": 4706,
  "▁violencia": 4707,
  "▁Sab": 4708,
  "▁Gro": 4709,
  "rom": 4710,
  "▁repe": 4711,
  "▁escuelas": 4712,
  "rana": 4713,
  "gre": 4714,
  "rump": 4715,
  "▁Justicia": 4716,
  "bil": 4717,
  "▁constituy": 4718,
  "▁ambien": 4719,
  "eck": 4720,
  "ecido": 4721,
  "▁Paz": 4722,
  "▁realizada": 4723,
  "cados": 4724,
  "▁Ev": 4725,
  "▁estatu": 4726,
  "nto": 4727,
  "▁procesos": 4728,
  "asterio": 4729,
  "orado": 4730,
  "▁idioma": 4731,
  "jado": 4732,
  "burgo": 4733,
  "▁carreras": 4734,
  "▁Ib": 4735,
  "▁visit": 4736,
  "agr": 4737,
  "gena": 4738,
  "▁aspecto": 4739,
  "▁Bat": 4740,
  "▁Federaci": 4741,
  "▁Esp": 4742,
  "IA": 4743,
  "▁XV": 4744,
  "▁generales": 4745,
  "▁conocidos": 4746,
  "▁contempor": 4747,
  "▁identidad": 4748,
  "▁pais": 4749,
  "▁Richard": 4750,
  "▁ros": 4751,
  "turi": 4752,
  "▁vice": 4753,
  "▁forman": 4754,
  "▁incluido": 4755,
  "▁indica": 4756,
  "▁fel": 4757,
  "▁pies": 4758,
  "▁Pac": 4759,
  "▁Bea": 4760,
  "▁peru": 4761,
  "▁destaca": 4762,
  "▁Aug": 4763,
  "-201": 4764,
  "▁calific": 4765,
  "▁mexicano": 4766,
  "▁Vi": 4767,
  "▁rojo": 4768,
  "▁alimentos": 4769,
  "▁sali": 4770,
  "▁fol": 4771,
  "▁perder": 4772,
  "▁Arag": 4773,
  "▁Colegio": 4774,
  "▁colo": 4775,
  "▁consul": 4776,
  "▁pantalla": 4777,
  "▁capilla": 4778,
  "▁1990": 4779,
  "▁portugu": 4780,
  "iamente": 4781,
  "▁Cuba": 4782,
  "▁musicales": 4783,
  "▁Roy": 4784,
  "▁Estad": 4785,
  "ction": 4786,
  "▁utilizan": 4787,
  "▁ancho": 4788,
  "ertos": 4789,
  "▁2002": 4790,
  "▁familiar": 4791,
  "ndi": 4792,
  "nsula": 4793,
  "▁debajo": 4794,
  "▁complejo": 4795,
  "▁Hasta": 4796,
  "▁Trib": 4797,
  "7),": 4798,
  "▁vecinos": 4799,
  "ary": 4800,
  "▁palacio": 4801,
  "ides": 4802,
  "mens": 4803,
  "▁sean": 4804,
  "▁IN": 4805,
  "▁surg": 4806,
  "▁2001": 4807,
  "▁Hel": 4808,
  "rende": 4809,
  "▁expresi": 4810,
  "▁paral": 4811,
  "▁materia": 4812,
  "▁interpret": 4813,
  "culares": 4814,
  "▁reca": 4815,
  "▁Fundaci": 4816,
  "cy": 4817,
  "cimiento": 4818,
  "▁firma": 4819,
  "▁rango": 4820,
  "▁escla": 4821,
  "▁populares": 4822,
  "pes": 4823,
  "▁estrateg": 4824,
  "▁adi": 4825,
  "▁hablar": 4826,
  "▁Vill": 4827,
  "5),": 4828,
  "▁encarg": 4829,
  "▁estrellas": 4830,
  "▁gus": 4831,
  "▁hall": 4832,
  "▁fundador": 4833,
  "▁excepci": 4834,
  "▁exhib": 4835,
  "▁escala": 4836,
  "▁premios": 4837,
  "▁incendi": 4838,
  "▁Ari": 4839,
  "▁data": 4840,
  "licos": 4841,
  "▁pis": 4842,
  "▁despe": 4843,
  "EL": 4844,
  "▁tray": 4845,
  "▁2020,": 4846,
  "▁matem": 4847,
  "▁Medi": 4848,
  "▁Air": 4849,
  "rg": 4850,
  "enemos": 4851,
  "tive": 4852,
  "▁City": 4853,
  "▁Pin": 4854,
  "▁UN": 4855,
  "▁Aven": 4856,
  "▁179": 4857,
  "▁Internet": 4858,
  ".)": 4859,
  "▁Todos": 4860,
  "▁ofer": 4861,
  "iber": 4862,
  "▁recomend": 4863,
  "ons": 4864,
  "▁procl": 4865,
  "todos": 4866,
  "\":": 4867,
  "▁accidente": 4868,
  "▁resca": 4869,
  "▁habl": 4870,
  "▁teniendo": 4871,
  "guien": 4872,
  "▁limp": 4873,
  "▁recuer": 4874,
  "▁creada": 4875,
  "▁Media": 4876,
  "▁Derecho": 4877,
  "▁consumo": 4878,
  "▁ascenso": 4879,
  "▁refiere": 4880,
  "▁progres": 4881,
  "itales": 4882,
  "▁Aqu": 4883,
  "18": 4884,
  "▁Sebas": 4885,
  "ku": 4886,
  "rabe": 4887,
  "▁Asia": 4888,
  "▁Pers": 4889,
  "▁Bl": 4890,
  "▁cerem": 4891,
  "▁episodios": 4892,
  ":00": 4893,
  "▁humana": 4894,
  "</": 4895,
  "▁esas": 4896,
  "▁alber": 4897,
  "trol": 4898,
  "▁escol": 4899,
  "▁continuar": 4900,
  "▁descendi": 4901,
  "dol": 4902,
  "bus": 4903,
  "▁err": 4904,
  "px": 4905,
  "deras": 4906,
  "▁Cine": 4907,
  "▁Eduardo": 4908,
  "9),": 4909,
  "nchez": 4910,
  "▁Mic": 4911,
  "▁puedes": 4912,
  "uca": 4913,
  "ata": 4914,
  "osotros": 4915,
  "ftware": 4916,
  "▁nuestros": 4917,
  "▁2021": 4918,
  "▁colomb": 4919,
  "▁destino": 4920,
  "▁impacto": 4921,
  "deros": 4922,
  "▁Black": 4923,
  "▁Frank": 4924,
  "▁Torre": 4925,
  "ansi": 4926,
  "▁sosten": 4927,
  "enco": 4928,
  "▁Ric": 4929,
  "trop": 4930,
  "▁tem": 4931,
  "▁poten": 4932,
  "▁nad": 4933,
  "mitir": 4934,
  "▁conm": 4935,
  "▁dominio": 4936,
  "▁rebel": 4937,
  "teo": 4938,
  "ht": 4939,
  "▁Alejandro": 4940,
  "▁Guiller": 4941,
  "itaciones": 4942,
  "enaje": 4943,
  "▁proto": 4944,
  "ony": 4945,
  "isco": 4946,
  "▁evalu": 4947,
  "▁ger": 4948,
  "jeron": 4949,
  "▁aten": 4950,
  "▁contexto": 4951,
  "TV": 4952,
  "▁Ko": 4953,
  "lesc": 4954,
  "mith": 4955,
  "\";": 4956,
  "TA": 4957,
  "Re": 4958,
  "▁Martin": 4959,
  "▁otorg": 4960,
  "▁300": 4961,
  "▁dep": 4962,
  "▁Music": 4963,
  "▁von": 4964,
  "▁oriental": 4965,
  "cleo": 4966,
  "▁llegando": 4967,
  "▁enfo": 4968,
  "▁Neg": 4969,
  "▁Charles": 4970,
  "▁Plaza": 4971,
  "▁tengo": 4972,
  "▁precis": 4973,
  "▁hacerlo": 4974,
  "▁pasando": 4975,
  "▁dependi": 4976,
  "▁Tro": 4977,
  "▁geo": 4978,
  "▁puertas": 4979,
  "▁fracas": 4980,
  "▁traduc": 4981,
  "▁entrega": 4982,
  "oroeste": 4983,
  "▁mud": 4984,
  "▁directo": 4985,
  "arla": 4986,
  "▁profundi": 4987,
  "▁contaba": 4988,
  "ieran": 4989,
  "▁recibido": 4990,
  "▁tratar": 4991,
  "eas": 4992,
  "ltimas": 4993,
  "▁Thomas": 4994,
  "tisf": 4995,
  "▁human": 4996,
  "▁micro": 4997,
  "echas": 4998,
  "▁Catalu": 4999,
  "▁(17": 5000,
  "▁masa": 5001,
  "▁ataques": 5002,
  "▁retra": 5003,
  "▁implic": 5004,
  "▁medal": 5005,
  "▁Lan": 5006,
  "▁pasaj": 5007,
  "▁notable": 5008,
  "Los": 5009,
  "▁Desarro": 5010,
  "cord": 5011,
  "▁diplom": 5012,
  "redi": 5013,
  "alista": 5014,
  "▁ang": 5015,
  "ure": 5016,
  "▁Distr": 5017,
  "itados": 5018,
  "▁Banco": 5019,
  "▁producido": 5020,
  "San": 5021,
  "▁apenas": 5022,
  "brica": 5023,
  "▁hojas": 5024,
  "▁Domingo": 5025,
  "line": 5026,
  "ema": 5027,
  "▁nucle": 5028,
  "▁toc": 5029,
  "cticas": 5030,
  "▁ventas": 5031,
  "▁Poco": 5032,
  "▁abund": 5033,
  "▁pista": 5034,
  "▁film": 5035,
  "▁aparecen": 5036,
  "▁deja": 5037,
  "▁desconoci": 5038,
  "arte": 5039,
  "anes": 5040,
  "▁bras": 5041,
  "▁ciclo": 5042,
  "presi": 5043,
  "▁Clar": 5044,
  "▁Ecuador": 5045,
  "logos": 5046,
  "▁asesinato": 5047,
  "▁arreg": 5048,
  "▁finaliz": 5049,
  "▁musul": 5050,
  "smo": 5051,
  "xt": 5052,
  "SS": 5053,
  "▁impos": 5054,
  "▁estudiar": 5055,
  "▁Hern": 5056,
  "▁sexual": 5057,
  "quez": 5058,
  "▁proven": 5059,
  "▁sho": 5060,
  "▁Lou": 5061,
  "▁dios": 5062,
  "▁aspectos": 5063,
  "▁trayec": 5064,
  "▁ais": 5065,
  "▁elimin": 5066,
  "nima": 5067,
  "▁cent": 5068,
  "▁reforma": 5069,
  "BA": 5070,
  "▁suelen": 5071,
  "▁alemana": 5072,
  "▁Sebasti": 5073,
  "▁construc": 5074,
  "▁Guillermo": 5075,
  "▁ojos": 5076,
  "▁cercan": 5077,
  "▁Form": 5078,
  "▁entreg": 5079,
  "▁dejando": 5080,
  "▁cif": 5081,
  "▁registro": 5082,
  "▁diputado": 5083,
  "tri": 5084,
  "45": 5085,
  "▁due": 5086,
  "▁()": 5087,
  "▁agrup": 5088,
  "▁piloto": 5089,
  "▁embaj": 5090,
  "▁descubier": 5091,
  "▁abierto": 5092,
  "▁consiste": 5093,
  "▁competi": 5094,
  "▁Tw": 5095,
  "▁corto": 5096,
  "▁enla": 5097,
  "▁Naciones": 5098,
  "▁dolor": 5099,
  "ville": 5100,
  "▁excel": 5101,
  "▁Josep": 5102,
  "dea": 5103,
  "sk": 5104,
  "▁Mundo": 5105,
  "▁realmente": 5106,
  "▁griego": 5107,
  "▁presentar": 5108,
  "▁aves": 5109,
  "▁Gol": 5110,
  "▁anual": 5111,
  "guar": 5112,
  "▁alemanes": 5113,
  "▁apor": 5114,
  "▁2005,": 5115,
  "90": 5116,
  "▁publicada": 5117,
  "▁encabez": 5118,
  "▁concierto": 5119,
  "▁org": 5120,
  "▁Supre": 5121,
  "▁class": 5122,
  "->": 5123,
  "▁hip": 5124,
  "▁compuesta": 5125,
  "blo": 5126,
  "▁mantiene": 5127,
  "▁Guatem": 5128,
  "ow": 5129,
  "▁asociaci": 5130,
  "iner": 5131,
  "▁tran": 5132,
  "▁Corte": 5133,
  "▁Edad": 5134,
  "▁republic": 5135,
  "16": 5136,
  "▁45": 5137,
  "hol": 5138,
  "kin": 5139,
  "▁fas": 5140,
  "▁Cultura": 5141,
  "▁Estudi": 5142,
  "▁Investig": 5143,
  "▁cuarta": 5144,
  "▁cereb": 5145,
  "mbol": 5146,
  "sicas": 5147,
  "ass": 5148,
  "rboles": 5149,
  "▁Crist": 5150,
  "▁verdad": 5151,
  "▁informe": 5152,
  "▁cargos": 5153,
  "▁Vicente": 5154,
  "▁critic": 5155,
  "▁regresar": 5156,
  "▁desplaz": 5157,
  "▁tratado": 5158,
  "▁opini": 5159,
  "duce": 5160,
  "▁fuertes": 5161,
  "bana": 5162,
  "mun": 5163,
  "orio": 5164,
  "ctimas": 5165,
  "▁XI": 5166,
  "▁propias": 5167,
  "▁CD": 5168,
  "ncer": 5169,
  "▁Hoy": 5170,
  "▁tea": 5171,
  "tropolit": 5172,
  "ender": 5173,
  "got": 5174,
  "▁deleg": 5175,
  "▁5.": 5176,
  "▁Records": 5177,
  "▁euros": 5178,
  "▁clientes": 5179,
  "echos": 5180,
  "bio": 5181,
  "▁concluy": 5182,
  "▁ilustr": 5183,
  "bos": 5184,
  "▁32": 5185,
  "▁planes": 5186,
  "▁autoridad": 5187,
  "▁proteger": 5188,
  "▁acum": 5189,
  "▁fondos": 5190,
  "▁subs": 5191,
  "▁extin": 5192,
  "▁Facultad": 5193,
  "tiende": 5194,
  "▁1980": 5195,
  "▁comporta": 5196,
  "▁fir": 5197,
  "▁Boy": 5198,
  "▁mam": 5199,
  "▁Berl": 5200,
  "▁circuns": 5201,
  "▁Sco": 5202,
  "iviles": 5203,
  "▁papa": 5204,
  "▁comprar": 5205,
  "ibe": 5206,
  "▁psic": 5207,
  "putaci": 5208,
  "13": 5209,
  "▁adolesc": 5210,
  "▁espacios": 5211,
  "diendo": 5212,
  "▁mostrar": 5213,
  "▁famoso": 5214,
  "dencias": 5215,
  "▁publ": 5216,
  "ende": 5217,
  "▁ace": 5218,
  "Mar": 5219,
  "▁cumplir": 5220,
  "▁Escri": 5221,
  "▁Gil": 5222,
  "▁disposici": 5223,
  "▁Guatemala": 5224,
  "▁comunes": 5225,
  "▁Julio": 5226,
  "▁Nicol": 5227,
  "▁comisi": 5228,
  "▁coo": 5229,
  "▁tej": 5230,
  "▁archivo": 5231,
  "▁Vas": 5232,
  "▁dieron": 5233,
  "▁flores": 5234,
  "unt": 5235,
  "▁Les": 5236,
  "▁apertura": 5237,
  "▁1999": 5238,
  "▁bandas": 5239,
  "roso": 5240,
  "fera": 5241,
  "▁Leon": 5242,
  "▁altas": 5243,
  "▁atribu": 5244,
  "▁Organiz": 5245,
  "▁variable": 5246,
  "ndar": 5247,
  "▁Rol": 5248,
  "-6": 5249,
  "▁Temp": 5250,
  "▁renunci": 5251,
  "▁objetivos": 5252,
  "-5": 5253,
  "set": 5254,
  "tipo": 5255,
  "▁demanda": 5256,
  "▁Hi": 5257,
  "▁rue": 5258,
  "▁miner": 5259,
  "▁taller": 5260,
  "▁ocul": 5261,
  "nel": 5262,
  "▁celebra": 5263,
  "▁vent": 5264,
  "ezol": 5265,
  "▁licencia": 5266,
  "▁aconte": 5267,
  "rupci": 5268,
  "▁combusti": 5269,
  "▁aviones": 5270,
  "▁Il": 5271,
  "▁Rub": 5272,
  "▁regional": 5273,
  "sal": 5274,
  "domin": 5275,
  "▁aumentar": 5276,
  "▁Compa": 5277,
  "▁resolver": 5278,
  "▁Che": 5279,
  "▁tribu": 5280,
  "▁homenaje": 5281,
  "▁reserv": 5282,
  "▁global": 5283,
  "▁escas": 5284,
  "▁compra": 5285,
  "An": 5286,
  "▁jorn": 5287,
  "▁comprom": 5288,
  "▁letras": 5289,
  "▁requer": 5290,
  "▁extr": 5291,
  "▁(196": 5292,
  "▁new": 5293,
  "▁St": 5294,
  "▁duraci": 5295,
  "matogr": 5296,
  "▁invierno": 5297,
  "americano": 5298,
  "▁volumen": 5299,
  "▁pobl": 5300,
  "ultades": 5301,
  "▁Bolivia": 5302,
  "▁abogado": 5303,
  "div": 5304,
  "▁enf": 5305,
  "▁fras": 5306,
  "quilib": 5307,
  "▁poeta": 5308,
  "▁alguien": 5309,
  "▁coronel": 5310,
  "▁Hospital": 5311,
  "inast": 5312,
  "▁elig": 5313,
  "noma": 5314,
  "af": 5315,
  "▁mensaje": 5316,
  "▁Parque": 5317,
  "▁Dra": 5318,
  "14": 5319,
  "▁asenta": 5320,
  "▁Sovi": 5321,
  "▁atrac": 5322,
  "▁reempla": 5323,
  "▁ejer": 5324,
  "▁Austria": 5325,
  "▁digital": 5326,
  "▁practic": 5327,
  "▁Mis": 5328,
  "▁rein": 5329,
  "▁Sierra": 5330,
  "rillo": 5331,
  "▁Tre": 5332,
  "ritu": 5333,
  "lesias": 5334,
  "simo": 5335,
  "▁Fri": 5336,
  "▁franceses": 5337,
  "bado": 5338,
  "▁Mario": 5339,
  "▁Otro": 5340,
  "teles": 5341,
  "▁Grande": 5342,
  "▁plane": 5343,
  "mites": 5344,
  "▁grabaci": 5345,
  "mita": 5346,
  "▁usado": 5347,
  "ET": 5348,
  "amar": 5349,
  "dac": 5350,
  "iendas": 5351,
  "istema": 5352,
  "iares": 5353,
  "bilidad": 5354,
  "▁venezol": 5355,
  "▁pagar": 5356,
  "▁rit": 5357,
  "ajos": 5358,
  "▁qui": 5359,
  "▁concurso": 5360,
  "▁Sim": 5361,
  "▁pintor": 5362,
  "▁1920": 5363,
  "▁Rock": 5364,
  "umenta": 5365,
  "▁asisti": 5366,
  "▁Nuestra": 5367,
  "▁espera": 5368,
  "▁tenemos": 5369,
  "▁Gabri": 5370,
  "▁expansi": 5371,
  "▁Tour": 5372,
  "▁entidad": 5373,
  "▁fachada": 5374,
  "▁UU": 5375,
  "orro": 5376,
  "▁from": 5377,
  "ctrica": 5378,
  "▁planeta": 5379,
  "▁Stan": 5380,
  "▁pasajeros": 5381,
  "▁presu": 5382,
  "▁presentan": 5383,
  "▁Wa": 5384,
  "▁fundado": 5385,
  "tiendo": 5386,
  "viamente": 5387,
  "AP": 5388,
  "▁legisla": 5389,
  "▁Af": 5390,
  "▁PS": 5391,
  "▁diag": 5392,
  "▁arco": 5393,
  "ielo": 5394,
  "▁Europea": 5395,
  "▁momentos": 5396,
  "▁guard": 5397,
  "▁natal": 5398,
  "▁celeb": 5399,
  "▁llevado": 5400,
  "▁Aut": 5401,
  "▁Corea": 5402,
  "▁marqu": 5403,
  "▁mascul": 5404,
  "▁mezcla": 5405,
  "▁2012.": 5406,
  "▁American": 5407,
  "adr": 5408,
  "endido": 5409,
  "cola": 5410,
  "▁Georg": 5411,
  "▁Vall": 5412,
  "▁Mes": 5413,
  "elos": 5414,
  "rus": 5415,
  "uz": 5416,
  "pico": 5417,
  "▁Art": 5418,
  "▁bosque": 5419,
  "IT": 5420,
  "▁juntos": 5421,
  "▁televis": 5422,
  "-200": 5423,
  "▁Rel": 5424,
  "▁sit": 5425,
  "▁lados": 5426,
  "clo": 5427,
  "▁Superior": 5428,
  "▁Bon": 5429,
  "▁actos": 5430,
  "iernos": 5431,
  "▁estad": 5432,
  "▁corpor": 5433,
  "▁Gen": 5434,
  "▁plazo": 5435,
  "pida": 5436,
  "▁36": 5437,
  "▁Agr": 5438,
  "▁consolid": 5439,
  "▁sello": 5440,
  "▁acces": 5441,
  "▁asal": 5442,
  "▁2010.": 5443,
  "▁Saint": 5444,
  "viles": 5445,
  "▁comenzar": 5446,
  "▁mel": 5447,
  "▁XX": 5448,
  "ioso": 5449,
  "landes": 5450,
  "ntica": 5451,
  "▁tro": 5452,
  "tizar": 5453,
  "▁destacan": 5454,
  "▁enorme": 5455,
  "oras": 5456,
  "▁Park": 5457,
  "▁noticias": 5458,
  "itarios": 5459,
  "▁West": 5460,
  "▁conserva": 5461,
  "dito": 5462,
  "▁Far": 5463,
  "olina": 5464,
  "▁factores": 5465,
  "▁150": 5466,
  "▁Egip": 5467,
  "▁logra": 5468,
  "▁satisf": 5469,
  "▁escenas": 5470,
  "uelos": 5471,
  "ds": 5472,
  "▁diferenci": 5473,
  "xi": 5474,
  "▁esenci": 5475,
  "field": 5476,
  "--------": 5477,
  "jero": 5478,
  "▁costo": 5479,
  "▁civiles": 5480,
  "▁coinci": 5481,
  "▁corta": 5482,
  "▁comida": 5483,
  "▁posibles": 5484,
  "▁Phil": 5485,
  "inc": 5486,
  "Pro": 5487,
  "rue": 5488,
  "▁corriente": 5489,
  "jan": 5490,
  "▁Arch": 5491,
  "22": 5492,
  "dicial": 5493,
  "▁frag": 5494,
  "▁letra": 5495,
  "▁pregunta": 5496,
  "▁178": 5497,
  "▁tab": 5498,
  "▁juicio": 5499,
  "▁brasile": 5500,
  "▁duda": 5501,
  "▁Unidas": 5502,
  "▁federal": 5503,
  "▁inver": 5504,
  "▁Len": 5505,
  "▁Ahora": 5506,
  "curs": 5507,
  "▁fres": 5508,
  "tone": 5509,
  "▁Cro": 5510,
  "▁hotel": 5511,
  "▁dedicado": 5512,
  "▁solar": 5513,
  "▁negr": 5514,
  "▁miles": 5515,
  "▁suma": 5516,
  "35": 5517,
  "▁Agu": 5518,
  "▁1998": 5519,
  "▁sirvi": 5520,
  "▁urban": 5521,
  "▁1970": 5522,
  "▁viene": 5523,
  "▁invasi": 5524,
  "▁hos": 5525,
  "▁documento": 5526,
  "▁expuls": 5527,
  "▁Democr": 5528,
  "lement": 5529,
  "▁2011.": 5530,
  "▁negocio": 5531,
  "Un": 5532,
  "pero": 5533,
  "▁listas": 5534,
  "▁Stre": 5535,
  "pin": 5536,
  "▁Otra": 5537,
  "ronce": 5538,
  "▁series": 5539,
  "presidente": 5540,
  "▁adici": 5541,
  "▁Castillo": 5542,
  "▁AD": 5543,
  "▁exac": 5544,
  "ander": 5545,
  "▁software": 5546,
  "▁influy": 5547,
  "rmula": 5548,
  "didas": 5549,
  "▁arres": 5550,
  "▁religi": 5551,
  "▁Mejor": 5552,
  "▁Rod": 5553,
  "▁tus": 5554,
  "▁meta": 5555,
  "▁cierta": 5556,
  "urg": 5557,
  "▁precios": 5558,
  "aqu": 5559,
  "▁2021,": 5560,
  "▁pacientes": 5561,
  "uck": 5562,
  "▁gir": 5563,
  "cularmente": 5564,
  "oya": 5565,
  "iense": 5566,
  "grama": 5567,
  "mbo": 5568,
  "▁Victoria": 5569,
  "▁League": 5570,
  "hen": 5571,
  "▁Dol": 5572,
  "itch": 5573,
  "▁incluir": 5574,
  "▁ul": 5575,
  "▁electoral": 5576,
  "▁copias": 5577,
  "pers": 5578,
  "▁destacar": 5579,
  "▁razones": 5580,
  "▁arqueol": 5581,
  "▁expedici": 5582,
  "board": 5583,
  "▁Chica": 5584,
  "75": 5585,
  "▁ubicaci": 5586,
  "▁Clas": 5587,
  "▁bajas": 5588,
  "Car": 5589,
  "ieren": 5590,
  "▁Apar": 5591,
  "▁intelec": 5592,
  "▁afici": 5593,
  "bor": 5594,
  "poner": 5595,
  "▁clubes": 5596,
  "▁ingresos": 5597,
  "▁ciento": 5598,
  "uces": 5599,
  "▁sucedi": 5600,
  "tinos": 5601,
  "mba": 5602,
  "▁Viv": 5603,
  "▁filosof": 5604,
  "▁hal": 5605,
  "▁preci": 5606,
  "▁pieza": 5607,
  "▁pago": 5608,
  "//": 5609,
  "ua": 5610,
  "ferencias": 5611,
  "▁sectores": 5612,
  "▁mismas": 5613,
  "usos": 5614,
  "▁negocios": 5615,
  "▁estatal": 5616,
  "▁simp": 5617,
  "▁prol": 5618,
  "tl": 5619,
  "▁2000,": 5620,
  "▁escudo": 5621,
  "idal": 5622,
  "▁Scho": 5623,
  "▁ecl": 5624,
  "▁venci": 5625,
  "▁Canal": 5626,
  "▁normal": 5627,
  "tara": 5628,
  "ficamente": 5629,
  "▁senti": 5630,
  "▁comienzos": 5631,
  "▁barco": 5632,
  "▁noble": 5633,
  "cticamente": 5634,
  "imas": 5635,
  "▁Press": 5636,
  "▁Play": 5637,
  "alici": 5638,
  "▁anot": 5639,
  "fos": 5640,
  "minaci": 5641,
  "▁emerg": 5642,
  "estr": 5643,
  "▁return": 5644,
  "▁potencia": 5645,
  "▁moderna": 5646,
  "▁Egipto": 5647,
  "▁Esco": 5648,
  "▁Smith": 5649,
  "inal": 5650,
  "burg": 5651,
  "▁Hal": 5652,
  "top": 5653,
  "ginas": 5654,
  "lido": 5655,
  "▁Tribunal": 5656,
  "uera": 5657,
  "▁bosques": 5658,
  "▁afirma": 5659,
  "▁altitud": 5660,
  "▁sorp": 5661,
  "ube": 5662,
  "▁bases": 5663,
  "▁acceder": 5664,
  "▁line": 5665,
  "▁cosa": 5666,
  "▁Provincia": 5667,
  "▁Algunas": 5668,
  "▁directa": 5669,
  "▁by": 5670,
  "▁dul": 5671,
  "eco": 5672,
  "tador": 5673,
  "nia": 5674,
  "tificaci": 5675,
  "▁2004,": 5676,
  "omen": 5677,
  "De": 5678,
  "▁config": 5679,
  "▁resulta": 5680,
  "fono": 5681,
  "urgo": 5682,
  "onces": 5683,
  "egas": 5684,
  "▁lat": 5685,
  "▁abandonar": 5686,
  "▁pobre": 5687,
  "▁reinado": 5688,
  "▁Fuerza": 5689,
  "▁altos": 5690,
  "▁Granada": 5691,
  "▁Gir": 5692,
  "arago": 5693,
  "▁Polonia": 5694,
  "▁exam": 5695,
  "tique": 5696,
  "▁pocas": 5697,
  "▁alf": 5698,
  "▁parlam": 5699,
  "▁urbano": 5700,
  "▁actores": 5701,
  "▁catedral": 5702,
  "▁efici": 5703,
  "onos": 5704,
  "▁sep": 5705,
  "▁Constan": 5706,
  "▁ce": 5707,
  "24": 5708,
  "▁intenta": 5709,
  "▁King": 5710,
  "▁plano": 5711,
  "▁doce": 5712,
  "▁hogar": 5713,
  "mbres": 5714,
  "▁aquella": 5715,
  "oneros": 5716,
  "▁transmisi": 5717,
  "▁auton": 5718,
  "▁Conf": 5719,
  "▁funciona": 5720,
  "▁Bay": 5721,
  "▁bandera": 5722,
  "▁mandato": 5723,
  "cesis": 5724,
  "▁Pra": 5725,
  "▁Rica": 5726,
  "▁seguro": 5727,
  "mbolo": 5728,
  "▁exit": 5729,
  "key": 5730,
  "▁historias": 5731,
  "▁recorrido": 5732,
  "tall": 5733,
  "Man": 5734,
  "▁vino": 5735,
  "▁dro": 5736,
  "▁arriba": 5737,
  "▁bru": 5738,
  "▁cercano": 5739,
  "▁Muchos": 5740,
  "▁puestos": 5741,
  "▁Castro": 5742,
  "▁somb": 5743,
  "▁vege": 5744,
  "▁discos": 5745,
  "▁Ricardo": 5746,
  "▁quedar": 5747,
  "▁reacci": 5748,
  "▁muerto": 5749,
  "▁costu": 5750,
  "▁combin": 5751,
  "▁noroeste": 5752,
  "-8": 5753,
  "▁Ham": 5754,
  "▁mito": 5755,
  "▁Tres": 5756,
  "▁poderes": 5757,
  "▁4,": 5758,
  "▁2013.": 5759,
  "▁columna": 5760,
  "▁Administr": 5761,
  "▁argentina": 5762,
  "emas": 5763,
  "ani": 5764,
  "anti": 5765,
  "▁Salud": 5766,
  "▁consta": 5767,
  "▁proclam": 5768,
  "▁legal": 5769,
  "▁torm": 5770,
  "▁Mark": 5771,
  "▁vivi": 5772,
  "▁reales": 5773,
  "fun": 5774,
  "▁Hon": 5775,
  "\"),": 5776,
  "▁intereses": 5777,
  "▁audiencia": 5778,
  "▁Fon": 5779,
  "-20": 5780,
  "▁Tes": 5781,
  "▁Din": 5782,
  "viera": 5783,
  "▁Gracias": 5784,
  "▁Carta": 5785,
  "▁Entonces": 5786,
  "angel": 5787,
  "▁contras": 5788,
  "▁adaptaci": 5789,
  "Me": 5790,
  "▁Ferro": 5791,
  "▁Ant": 5792,
  "▁Vil": 5793,
  "dill": 5794,
  "uk": 5795,
  "raestruc": 5796,
  "▁Tec": 5797,
  "▁justicia": 5798,
  "hua": 5799,
  "▁Cuer": 5800,
  "▁agra": 5801,
  "▁Municipio": 5802,
  "uelta": 5803,
  "gadas": 5804,
  "har": 5805,
  "ls": 5806,
  "▁inicios": 5807,
  "▁Estudios": 5808,
  "grafo": 5809,
  "rito": 5810,
  "▁Javier": 5811,
  "▁dura": 5812,
  "▁tard": 5813,
  "▁justo": 5814,
  "▁motivos": 5815,
  "tain": 5816,
  "▁Torneo": 5817,
  "▁ox": 5818,
  "ume": 5819,
  "▁Estadio": 5820,
  "▁1996": 5821,
  "well": 5822,
  "▁1997": 5823,
  "▁sitios": 5824,
  "▁activo": 5825,
  "▁prove": 5826,
  "▁Lar": 5827,
  "▁2008.": 5828,
  "▁muertos": 5829,
  "▁drama": 5830,
  "▁dinast": 5831,
  "▁Mary": 5832,
  "▁puedan": 5833,
  "▁Municipal": 5834,
  "hat": 5835,
  "▁cabec": 5836,
  "▁Nin": 5837,
  "17": 5838,
  "iciones": 5839,
  "▁europeos": 5840,
  "▁enviado": 5841,
  "▁octa": 5842,
  "▁esfuerzos": 5843,
  "omina": 5844,
  "▁describe": 5845,
  "▁Lee": 5846,
  "▁Polic": 5847,
  "▁brin": 5848,
  "▁Guer": 5849,
  "RE": 5850,
  "▁geogr": 5851,
  "▁reconoc": 5852,
  "zob": 5853,
  "▁pec": 5854,
  "▁fiestas": 5855,
  "Lo": 5856,
  "▁hidro": 5857,
  "▁calor": 5858,
  "▁Pl": 5859,
  "▁Todo": 5860,
  "▁Sor": 5861,
  "▁ficci": 5862,
  "▁Va": 5863,
  "▁llevaron": 5864,
  "▁comprome": 5865,
  "▁agre": 5866,
  "▁ileg": 5867,
  "ius": 5868,
  "▁Industr": 5869,
  "IM": 5870,
  "▁cuerpos": 5871,
  "▁cerr": 5872,
  "▁utilizada": 5873,
  "▁Ara": 5874,
  "▁nor": 5875,
  "allero": 5876,
  "▁dedicada": 5877,
  "▁conquista": 5878,
  "▁matar": 5879,
  "▁llegado": 5880,
  "ndola": 5881,
  "▁peligro": 5882,
  "▁2022": 5883,
  "▁incluida": 5884,
  "▁guitarra": 5885,
  "iew": 5886,
  "▁inca": 5887,
  "amor": 5888,
  "||": 5889,
  "cript": 5890,
  "pus": 5891,
  "rante": 5892,
  "cipl": 5893,
  "ierto": 5894,
  "ienen": 5895,
  "▁antiguas": 5896,
  "dieron": 5897,
  "▁conexi": 5898,
  "Se": 5899,
  "▁2009.": 5900,
  "▁Mov": 5901,
  "▁Federico": 5902,
  "▁termina": 5903,
  "▁Greg": 5904,
  "▁empleados": 5905,
  "▁comuna": 5906,
  "▁anal": 5907,
  "▁Deportivo": 5908,
  "▁equival": 5909,
  "▁romano": 5910,
  "dicci": 5911,
  "tadura": 5912,
  "▁transpor": 5913,
  "▁(3": 5914,
  "omer": 5915,
  "▁cau": 5916,
  "mber": 5917,
  "▁presentes": 5918,
  "ogle": 5919,
  "▁abajo": 5920,
  "▁abre": 5921,
  "▁estoy": 5922,
  "▁recuperar": 5923,
  "adir": 5924,
  "▁muestran": 5925,
  "▁quinto": 5926,
  "▁Reci": 5927,
  "▁1995": 5928,
  "neros": 5929,
  "▁Frente": 5930,
  "▁delan": 5931,
  "▁vive": 5932,
  "▁sirve": 5933,
  "rida": 5934,
  "▁dieci": 5935,
  "▁cancel": 5936,
  "aragoza": 5937,
  "▁far": 5938,
  "▁rechaz": 5939,
  "▁Norm": 5940,
  "▁esfuerzo": 5941,
  "▁explos": 5942,
  "▁Glo": 5943,
  "ji": 5944,
  "▁400": 5945,
  "▁habitual": 5946,
  "iernes": 5947,
  "quilla": 5948,
  "▁Santos": 5949,
  "▁dens": 5950,
  "▁discogr": 5951,
  "tuvieron": 5952,
  "▁Defensa": 5953,
  "▁textos": 5954,
  "▁Doctor": 5955,
  "▁concep": 5956,
  "itando": 5957,
  "▁Bajo": 5958,
  "▁alumnos": 5959,
  "▁nadie": 5960,
  "▁33": 5961,
  "▁huel": 5962,
  "ystem": 5963,
  "▁carne": 5964,
  "▁festival": 5965,
  "ips": 5966,
  "tolog": 5967,
  "ualmente": 5968,
  "▁part": 5969,
  "▁Carmen": 5970,
  "▁rum": 5971,
  "crito": 5972,
  "▁ejecuci": 5973,
  "ngulo": 5974,
  "▁competici": 5975,
  "ald": 5976,
  "iver": 5977,
  "tuario": 5978,
  "▁1960": 5979,
  "▁dor": 5980,
  "▁Incl": 5981,
  "ze": 5982,
  "▁nosotros": 5983,
  "▁;": 5984,
  "▁comparaci": 5985,
  "▁cant": 5986,
  "-9": 5987,
  "▁bombar": 5988,
  "▁complic": 5989,
  "carse": 5990,
  "uma": 5991,
  "▁actuales": 5992,
  "▁Cha": 5993,
  "▁Alto": 5994,
  "▁tramo": 5995,
  "▁amplio": 5996,
  "bert": 5997,
  "mitido": 5998,
  "▁barro": 5999,
  "▁Distrito": 6000,
  "3).": 6001,
  "enzo": 6002,
  "ites": 6003,
  "▁detalles": 6004,
  "▁decreto": 6005,
  "onados": 6006,
  "▁trono": 6007,
  "▁descans": 6008,
  "igas": 6009,
  "▁ejercicio": 6010,
  "pano": 6011,
  "▁2014.": 6012,
  "▁eliminar": 6013,
  "CA": 6014,
  "onario": 6015,
  "▁contribu": 6016,
  "▁puedo": 6017,
  "▁requiere": 6018,
  "▁Pi": 6019,
  "▁Grecia": 6020,
  "▁castell": 6021,
  "▁apreci": 6022,
  "▁...": 6023,
  "▁formada": 6024,
  "▁comput": 6025,
  "▁semifin": 6026,
  "▁cubri": 6027,
  "1).": 6028,
  "the": 6029,
  "mpicos": 6030,
  "estre": 6031,
  "▁2007.": 6032,
  "▁ON": 6033,
  "▁tarea": 6034,
  "▁disput": 6035,
  "ium": 6036,
  "▁sobr": 6037,
  "▁tareas": 6038,
  "▁leer": 6039,
  "▁top": 6040,
  "ementerio": 6041,
  "▁artifici": 6042,
  "▁Seguridad": 6043,
  "▁bau": 6044,
  "edor": 6045,
  "▁reti": 6046,
  "▁ocurre": 6047,
  "landa": 6048,
  "▁mone": 6049,
  "▁ganador": 6050,
  "▁blanca": 6051,
  "▁Chicago": 6052,
  "▁Times": 6053,
  "win": 6054,
  "▁mexicana": 6055,
  "MS": 6056,
  "igraci": 6057,
  "▁Especi": 6058,
  "▁Sant": 6059,
  "Por": 6060,
  "▁cliente": 6061,
  "▁religiosa": 6062,
  "▁cubierta": 6063,
  "▁segundos": 6064,
  "▁marido": 6065,
  "igrantes": 6066,
  "▁equilib": 6067,
  "▁Dem": 6068,
  "▁pertenece": 6069,
  "▁met": 6070,
  "▁ascen": 6071,
  "uch": 6072,
  "▁comedia": 6073,
  "ister": 6074,
  "pica": 6075,
  "▁0.": 6076,
  "▁FC": 6077,
  "RA": 6078,
  "▁coche": 6079,
  "▁nacido": 6080,
  "sel": 6081,
  "▁circu": 6082,
  "▁1994": 6083,
  "ders": 6084,
  "▁redac": 6085,
  "▁tienda": 6086,
  "▁Pel": 6087,
  "▁Sie": 6088,
  "▁estreno": 6089,
  "hal": 6090,
  "▁teniente": 6091,
  "2).": 6092,
  "▁columnas": 6093,
  "▁PC": 6094,
  "quinas": 6095,
  "cav": 6096,
  "leza": 6097,
  "▁Blo": 6098,
  "▁Cur": 6099,
  "didos": 6100,
  "▁japon": 6101,
  "▁gig": 6102,
  "▁implem": 6103,
  "plic": 6104,
  "lbumes": 6105,
  "▁Jan": 6106,
  "▁Sala": 6107,
  "▁Televisi": 6108,
  "▁Tan": 6109,
  "▁Interna": 6110,
  "▁esque": 6111,
  "▁sosp": 6112,
  "▁celebraci": 6113,
  "▁ano": 6114,
  "▁circul": 6115,
  "tte": 6116,
  "▁abrir": 6117,
  "▁une": 6118,
  "cop": 6119,
  "▁poes": 6120,
  "▁2015.": 6121,
  "eval": 6122,
  "▁fiscal": 6123,
  "▁llamados": 6124,
  "▁abor": 6125,
  "▁privada": 6126,
  "ditos": 6127,
  "▁Cel": 6128,
  "▁italiana": 6129,
  "gues": 6130,
  "▁pasos": 6131,
  "▁servir": 6132,
  "▁trabaja": 6133,
  "▁lenguas": 6134,
  "▁Latino": 6135,
  "▁evidencia": 6136,
  "acu": 6137,
  "▁Navarra": 6138,
  "ited": 6139,
  "ben": 6140,
  "ild": 6141,
  "▁Brit": 6142,
  "▁Paraguay": 6143,
  "box": 6144,
  "urus": 6145,
  "▁explica": 6146,
  "▁sale": 6147,
  "▁diri": 6148,
  "▁Bob": 6149,
  "▁Profes": 6150,
  "▁Rosario": 6151,
  "uga": 6152,
  "▁Breta": 6153,
  "Co": 6154,
  "▁ocupaci": 6155,
  "quist": 6156,
  "▁Sy": 6157,
  "raban": 6158,
  "▁Inform": 6159,
  "nar": 6160,
  "cera": 6161,
  "▁Junto": 6162,
  "▁ciertos": 6163,
  "▁Henry": 6164,
  "▁designado": 6165,
  "▁gl": 6166,
  "camb": 6167,
  "▁2003,": 6168,
  "▁cuadro": 6169,
  "▁aparecer": 6170,
  "rup": 6171,
  "▁motores": 6172,
  "▁seguido": 6173,
  "▁Mujer": 6174,
  "nu": 6175,
  "lege": 6176,
  "mal": 6177,
  "▁hierro": 6178,
  "▁She": 6179,
  "▁terres": 6180,
  "▁Sobre": 6181,
  "▁establece": 6182,
  "▁cultivo": 6183,
  "cran": 6184,
  "▁Alfre": 6185,
  "To": 6186,
  "entre": 6187,
  "▁remon": 6188,
  "▁perdido": 6189,
  "iena": 6190,
  "▁Roberto": 6191,
  "▁Andal": 6192,
  "▁editor": 6193,
  "▁National": 6194,
  "▁ajus": 6195,
  "▁Inici": 6196,
  "▁Comerci": 6197,
  "lite": 6198,
  "▁arma": 6199,
  "▁piso": 6200,
  "king": 6201,
  "▁derrot": 6202,
  "▁Sun": 6203,
  "▁formando": 6204,
  "oreste": 6205,
  "▁terren": 6206,
  "▁absor": 6207,
  "▁ofrecer": 6208,
  "▁pic": 6209,
  "▁Za": 6210,
  "▁Militar": 6211,
  "fas": 6212,
  "▁moderno": 6213,
  "▁juris": 6214,
  "▁animal": 6215,
  "▁Cop": 6216,
  "▁pag": 6217,
  "▁oferta": 6218,
  "pany": 6219,
  "▁romana": 6220,
  "▁enemigos": 6221,
  "▁Rosa": 6222,
  "azz": 6223,
  "▁Sw": 6224,
  "▁archivos": 6225,
  "istad": 6226,
  "lora": 6227,
  "▁Mex": 6228,
  "▁Net": 6229,
  "sey": 6230,
  "▁Armada": 6231,
  "▁viviendas": 6232,
  "dows": 6233,
  "▁pone": 6234,
  "▁Mont": 6235,
  "oledo": 6236,
  "▁adultos": 6237,
  "▁Marina": 6238,
  "▁Ray": 6239,
  "7).": 6240,
  "guido": 6241,
  "▁modern": 6242,
  "▁asi": 6243,
  "▁contro": 6244,
  "▁consejo": 6245,
  "tag": 6246,
  "9).": 6247,
  "▁gratu": 6248,
  "▁sel": 6249,
  "▁Disney": 6250,
  "▁veinte": 6251,
  "▁Us": 6252,
  "rgano": 6253,
  "▁flota": 6254,
  "▁coron": 6255,
  "▁cultiv": 6256,
  "▁Hist": 6257,
  "Par": 6258,
  "▁Pier": 6259,
  "▁mural": 6260,
  "/0": 6261,
  "▁destacado": 6262,
  "▁editorial": 6263,
  "▁tocar": 6264,
  "0.000": 6265,
  "▁mezcl": 6266,
  "▁reserva": 6267,
  "▁factor": 6268,
  "▁llamar": 6269,
  "▁asumi": 6270,
  "inete": 6271,
  "▁recop": 6272,
  "roe": 6273,
  "▁Texas": 6274,
  "kov": 6275,
  "▁aprobaci": 6276,
  "▁prestig": 6277,
  "▁narra": 6278,
  "▁cong": 6279,
  "__": 6280,
  "reste": 6281,
  "ski": 6282,
  "▁potencial": 6283,
  "▁ingeniero": 6284,
  "▁Of": 6285,
  "▁Joaqu": 6286,
  "▁elegir": 6287,
  "▁</": 6288,
  "nolog": 6289,
  "▁medalla": 6290,
  "ique": 6291,
  "▁Existen": 6292,
  "▁hues": 6293,
  "▁cuenca": 6294,
  "8).": 6295,
  "▁tarje": 6296,
  "▁177": 6297,
  "eng": 6298,
  "▁cuyos": 6299,
  "ices": 6300,
  "▁here": 6301,
  "▁Enter": 6302,
  "▁barcos": 6303,
  "uega": 6304,
  "VD": 6305,
  "▁Cir": 6306,
  "▁ama": 6307,
  "▁Dich": 6308,
  "500": 6309,
  "▁Irlanda": 6310,
  "▁Parti": 6311,
  "▁(195": 6312,
  "▁acord": 6313,
  "▁perspec": 6314,
  "▁Florida": 6315,
  "▁siguiendo": 6316,
  "▁infantil": 6317,
  "▁asesinado": 6318,
  "▁embara": 6319,
  "▁Panam": 6320,
  "▁intentar": 6321,
  "dujeron": 6322,
  "▁espiri": 6323,
  "sin": 6324,
  "▁deseo": 6325,
  "▁Billboard": 6326,
  "reros": 6327,
  "\");": 6328,
  "rculo": 6329,
  "▁cabecera": 6330,
  "▁agente": 6331,
  "▁5,": 6332,
  "▁controlar": 6333,
  "▁Gabriel": 6334,
  "mpoco": 6335,
  "▁lide": 6336,
  "▁colegio": 6337,
  "23": 6338,
  "▁Cultural": 6339,
  "bia": 6340,
  "urt": 6341,
  "▁precip": 6342,
  "▁quedando": 6343,
  "▁basa": 6344,
  "▁permiten": 6345,
  "ridge": 6346,
  "▁debi": 6347,
  "▁asesin": 6348,
  "▁vul": 6349,
  "▁1992": 6350,
  "▁entender": 6351,
  "▁Zaragoza": 6352,
  "▁Campo": 6353,
  "acimiento": 6354,
  "▁deporte": 6355,
  "▁respal": 6356,
  "▁empleo": 6357,
  "PS": 6358,
  "▁tenga": 6359,
  "▁resoluci": 6360,
  "▁Suecia": 6361,
  "▁za": 6362,
  "▁aun": 6363,
  "▁Rog": 6364,
  "fal": 6365,
  "ort": 6366,
  "▁Oriente": 6367,
  "ndice": 6368,
  "▁ocupa": 6369,
  "▁edific": 6370,
  "')": 6371,
  "65": 6372,
  "venir": 6373,
  "sima": 6374,
  "▁tampoco": 6375,
  "rcel": 6376,
  "▁Ty": 6377,
  "▁alco": 6378,
  "▁caza": 6379,
  "▁Medio": 6380,
  "▁motiv": 6381,
  "▁School": 6382,
  "▁canales": 6383,
  "▁Luna": 6384,
  "▁enemigo": 6385,
  "▁Zel": 6386,
  "▁mala": 6387,
  "▁Otras": 6388,
  "▁cola": 6389,
  "▁reciente": 6390,
  "▁actuar": 6391,
  "▁ciertas": 6392,
  "▁instalaci": 6393,
  "▁interac": 6394,
  "▁chileno": 6395,
  "▁monumento": 6396,
  "▁investi": 6397,
  "▁Cri": 6398,
  "▁culto": 6399,
  "▁pronunci": 6400,
  "▁tasa": 6401,
  "▁ausencia": 6402,
  "▁declaraci": 6403,
  "▁perm": 6404,
  "▁interna": 6405,
  "▁inversi": 6406,
  "▁cocina": 6407,
  "▁quiz": 6408,
  "▁treinta": 6409,
  "eler": 6410,
  "▁Alb": 6411,
  "▁discu": 6412,
  "▁fotos": 6413,
  "6).": 6414,
  "▁organismo": 6415,
  "▁march": 6416,
  "tente": 6417,
  "▁cercana": 6418,
  "▁mand": 6419,
  "▁confianza": 6420,
  "▁fechas": 6421,
  "▁siguen": 6422,
  "EM": 6423,
  "landia": 6424,
  "Ex": 6425,
  "sas": 6426,
  "▁amenaza": 6427,
  "▁College": 6428,
  "4).": 6429,
  "tian": 6430,
  "▁Royal": 6431,
  "meno": 6432,
  "▁Hill": 6433,
  "▁piano": 6434,
  "rista": 6435,
  "▁Mosc": 6436,
  "▁cicl": 6437,
  "cus": 6438,
  "▁Ep": 6439,
  "ellido": 6440,
  "▁Joseph": 6441,
  "uero": 6442,
  "▁Pie": 6443,
  "▁Chan": 6444,
  "▁finalizar": 6445,
  "une": 6446,
  "lix": 6447,
  "▁lejos": 6448,
  "▁escapar": 6449,
  "ED": 6450,
  "tamiento": 6451,
  "▁colonia": 6452,
  "▁ocupar": 6453,
  "▁infancia": 6454,
  "▁borde": 6455,
  "▁Ign": 6456,
  "▁rol": 6457,
  "▁Love": 6458,
  "▁gub": 6459,
  "CI": 6460,
  "▁Latina": 6461,
  "▁horm": 6462,
  "unidades": 6463,
  "▁encargado": 6464,
  "▁1000": 6465,
  "▁defender": 6466,
  "remo": 6467,
  "▁Comunidad": 6468,
  "cilmente": 6469,
  "▁abierta": 6470,
  "▁llevan": 6471,
  "▁ferrovi": 6472,
  "ning": 6473,
  "▁denunci": 6474,
  "ernam": 6475,
  "▁cierre": 6476,
  "tegr": 6477,
  "▁primavera": 6478,
  "▁fusi": 6479,
  "▁viajes": 6480,
  "▁triunfo": 6481,
  "▁avance": 6482,
  "iversario": 6483,
  "▁pinturas": 6484,
  "▁Senado": 6485,
  "ee": 6486,
  "▁Regi": 6487,
  "▁neu": 6488,
  "▁alianza": 6489,
  "ificar": 6490,
  "US": 6491,
  "],": 6492,
  "▁go": 6493,
  "▁eje": 6494,
  "▁corona": 6495,
  "▁mue": 6496,
  "▁enfoque": 6497,
  "▁propa": 6498,
  "▁Toledo": 6499,
  "99": 6500,
  "▁ater": 6501,
  "▁dictadura": 6502,
  "▁caja": 6503,
  "▁ropa": 6504,
  "▁estrat": 6505,
  "▁secreto": 6506,
  "▁registros": 6507,
  "americanos": 6508,
  "▁ES": 6509,
  "▁sat": 6510,
  "▁revis": 6511,
  "vez": 6512,
  "rigo": 6513,
  "▁obliga": 6514,
  "vias": 6515,
  "ianas": 6516,
  "▁oficina": 6517,
  "▁VII": 6518,
  "scar": 6519,
  "▁verdadero": 6520,
  "oj": 6521,
  "▁producida": 6522,
  "▁discurso": 6523,
  "iy": 6524,
  "Com": 6525,
  "timo": 6526,
  "▁informa": 6527,
  "▁alar": 6528,
  "▁agentes": 6529,
  "▁escritura": 6530,
  "▁Rico": 6531,
  "▁austral": 6532,
  "▁cartas": 6533,
  "▁vender": 6534,
  "▁franqu": 6535,
  "tidas": 6536,
  "▁domingo": 6537,
  "▁post": 6538,
  "▁festiv": 6539,
  "ulado": 6540,
  "▁Street": 6541,
  "▁diciendo": 6542,
  "▁gar": 6543,
  "▁sexo": 6544,
  "▁Reyes": 6545,
  "▁Bajos": 6546,
  "▁realizan": 6547,
  "▁equip": 6548,
  "▁terrenos": 6549,
  "▁Hy": 6550,
  "▁2002,": 6551,
  "▁pelea": 6552,
  "▁latino": 6553,
  "tical": 6554,
  "ustin": 6555,
  "gs": 6556,
  "opol": 6557,
  "▁6.": 6558,
  "▁ceremonia": 6559,
  "UN": 6560,
  "▁elog": 6561,
  "-7": 6562,
  "▁Bir": 6563,
  "encio": 6564,
  "▁1991": 6565,
  "▁combinaci": 6566,
  "▁incluidos": 6567,
  "▁extrem": 6568,
  "▁Jane": 6569,
  "▁Ly": 6570,
  "trans": 6571,
  "▁juega": 6572,
  "amarca": 6573,
  "▁censo": 6574,
  "FC": 6575,
  "▁atraves": 6576,
  "▁minuto": 6577,
  "▁escrib": 6578,
  "nie": 6579,
  "▁Juven": 6580,
  "erte": 6581,
  "abora": 6582,
  "▁campes": 6583,
  "▁gobiernos": 6584,
  "▁coalici": 6585,
  "usieron": 6586,
  "As": 6587,
  "▁ritmo": 6588,
  "ach": 6589,
  "tificado": 6590,
  "Sta": 6591,
  "▁porta": 6592,
  "▁1990,": 6593,
  "▁2001,": 6594,
  "▁bronce": 6595,
  "▁legis": 6596,
  "▁Dentro": 6597,
  "100": 6598,
  "▁activa": 6599,
  "▁convento": 6600,
  "tomas": 6601,
  "ady": 6602,
  "▁Gas": 6603,
  "▁2006.": 6604,
  "▁realizaci": 6605,
  "▁Chi": 6606,
  "▁alcance": 6607,
  "▁punta": 6608,
  "▁declarado": 6609,
  "oncesto": 6610,
  "▁exter": 6611,
  "estro": 6612,
  "▁llan": 6613,
  "▁norma": 6614,
  "▁Lorenzo": 6615,
  "riles": 6616,
  "▁ejemplos": 6617,
  "tum": 6618,
  "▁34": 6619,
  "▁playa": 6620,
  "gura": 6621,
  "▁aca": 6622,
  "orden": 6623,
  "dez": 6624,
  "pens": 6625,
  "33": 6626,
  "video": 6627,
  "▁medicina": 6628,
  "▁Oriental": 6629,
  "▁recep": 6630,
  "dras": 6631,
  "▁Bellas": 6632,
  "ots": 6633,
  "tima": 6634,
  "▁1993": 6635,
  "▁hubiera": 6636,
  "!!": 6637,
  "rs": 6638,
  "▁Ucran": 6639,
  "▁Servicio": 6640,
  "▁Quin": 6641,
  "▁Max": 6642,
  "▁agres": 6643,
  "▁recog": 6644,
  "uco": 6645,
  "▁volc": 6646,
  "neamente": 6647,
  "▁viento": 6648,
  "▁nerv": 6649,
  "▁privado": 6650,
  "▁Tab": 6651,
  "ller": 6652,
  "EP": 6653,
  "▁destruy": 6654,
  "▁expor": 6655,
  "▁refor": 6656,
  "▁=>": 6657,
  "ally": 6658,
  "▁with": 6659,
  "▁leyenda": 6660,
  "▁acabar": 6661,
  "▁Gusta": 6662,
  "▁asuntos": 6663,
  "▁juez": 6664,
  "▁describi": 6665,
  "▁debate": 6666,
  "centa": 6667,
  "day": 6668,
  "▁repor": 6669,
  "▁unif": 6670,
  "▁ejecutivo": 6671,
  "▁Tok": 6672,
  "▁seres": 6673,
  "ison": 6674,
  "▁Marcel": 6675,
  "enciado": 6676,
  "ulg": 6677,
  "tilidad": 6678,
  "dell": 6679,
  "esper": 6680,
  "cionado": 6681,
  "▁jus": 6682,
  "▁intercamb": 6683,
  "▁dada": 6684,
  "▁ic": 6685,
  "tent": 6686,
  "▁humor": 6687,
  "▁Ry": 6688,
  "($": 6689,
  "enio": 6690,
  "▁generar": 6691,
  "▁reducci": 6692,
  "idu": 6693,
  "▁Web": 6694,
  "enti": 6695,
  "▁Ante": 6696,
  "▁discipl": 6697,
  "td": 6698,
  "▁negra": 6699,
  "▁Franco": 6700,
  "▁escon": 6701,
  "▁hacerse": 6702,
  "apia": 6703,
  "viendo": 6704,
  "▁Dec": 6705,
  "▁elenco": 6706,
  "▁definici": 6707,
  "▁traduci": 6708,
  "▁raci": 6709,
  "▁aux": 6710,
  "▁tendencia": 6711,
  "ms": 6712,
  "▁75": 6713,
  "▁2016.": 6714,
  "▁voto": 6715,
  "▁Bogot": 6716,
  "▁tienes": 6717,
  "▁tropical": 6718,
  "▁orquesta": 6719,
  "▁Mendo": 6720,
  "▁grabado": 6721,
  "▁noticia": 6722,
  "gui": 6723,
  "izados": 6724,
  "▁Pam": 6725,
  "▁hemos": 6726,
  "▁function": 6727,
  "▁titulada": 6728,
  "▁escritos": 6729,
  "▁clim": 6730,
  "▁show": 6731,
  "vado": 6732,
  "urales": 6733,
  "▁Serie": 6734,
  "hy": 6735,
  "▁femenino": 6736,
  "▁otom": 6737,
  "▁quiero": 6738,
  "▁fib": 6739,
  "▁noreste": 6740,
  "alizados": 6741,
  "▁fabricaci": 6742,
  "polis": 6743,
  "trocin": 6744,
  "endas": 6745,
  "▁Torres": 6746,
  "▁menciona": 6747,
  "▁Tratado": 6748,
  "▁minor": 6749,
  "▁Isla": 6750,
  "▁aeron": 6751,
  "bs": 6752,
  "▁(15": 6753,
  "▁Guadal": 6754,
  "▁Company": 6755,
  "▁Comp": 6756,
  "▁Av": 6757,
  "▁conces": 6758,
  "▁dram": 6759,
  "▁Solo": 6760,
  "▁caf": 6761,
  "lantes": 6762,
  "▁Maria": 6763,
  "▁viven": 6764,
  "▁empieza": 6765,
  "▁asegurar": 6766,
  "tiller": 6767,
  "▁predomin": 6768,
  "rilla": 6769,
  "▁Cin": 6770,
  "▁entra": 6771,
  "gran": 6772,
  "▁consulta": 6773,
  "▁fama": 6774,
  "▁margen": 6775,
  "▁Green": 6776,
  "▁Comenz": 6777,
  "▁posesi": 6778,
  "▁oraci": 6779,
  "▁fij": 6780,
  "▁victorias": 6781,
  "quin": 6782,
  "uts": 6783,
  "▁pref": 6784,
  "▁Windows": 6785,
  "iger": 6786,
  "▁lanzar": 6787,
  "onso": 6788,
  "umental": 6789,
  "pedia": 6790,
  "▁prede": 6791,
  "▁Econom": 6792,
  "▁Gobern": 6793,
  "▁desaf": 6794,
  "▁comarca": 6795,
  "▁prefer": 6796,
  "▁proviene": 6797,
  "taban": 6798,
  "▁moda": 6799,
  "▁ilum": 6800,
  "▁cuidado": 6801,
  "▁totalidad": 6802,
  "▁Dal": 6803,
  "▁fiel": 6804,
  "▁galard": 6805,
  "21": 6806,
  "▁labora": 6807,
  "▁difun": 6808,
  "lvarez": 6809,
  "▁Dur": 6810,
  "64": 6811,
  "▁riv": 6812,
  "▁cielo": 6813,
  "try": 6814,
  "▁fantas": 6815,
  "▁UE": 6816,
  "Ma": 6817,
  "▁act": 6818,
  "▁parecer": 6819,
  "ava": 6820,
  "▁mac": 6821,
  "vio": 6822,
  "▁Guardia": 6823,
  "amora": 6824,
  "▁Rio": 6825,
  "hr": 6826,
  "▁Aten": 6827,
  "▁Corona": 6828,
  "▁promover": 6829,
  "igna": 6830,
  "▁morir": 6831,
  "▁Suiza": 6832,
  "▁imperial": 6833,
  "▁llamadas": 6834,
  "tha": 6835,
  "▁Fab": 6836,
  "://": 6837,
  "▁Trabaj": 6838,
  "▁ram": 6839,
  "▁Lic": 6840,
  "xitos": 6841,
  "▁38": 6842,
  "ml": 6843,
  "-17": 6844,
  "▁ofens": 6845,
  "▁Regional": 6846,
  "Pa": 6847,
  "▁buenas": 6848,
  "▁Direcci": 6849,
  "▁normas": 6850,
  "oraz": 6851,
  "▁afric": 6852,
  "ntomas": 6853,
  "▁belleza": 6854,
  "▁dimens": 6855,
  "diz": 6856,
  "▁ganando": 6857,
  "/201": 6858,
  "ficio": 6859,
  "▁2022,": 6860,
  "▁Campe": 6861,
  "▁difusi": 6862,
  "▁Pic": 6863,
  "▁transici": 6864,
  "▁cuel": 6865,
  "tamento": 6866,
  "▁conocidas": 6867,
  "▁europeo": 6868,
  "entario": 6869,
  "tamientos": 6870,
  "▁avenida": 6871,
  "28": 6872,
  "eramente": 6873,
  "▁mejora": 6874,
  "▁Bran": 6875,
  "▁concedi": 6876,
  "▁Agust": 6877,
  "▁boca": 6878,
  "▁rival": 6879,
  "tecas": 6880,
  "▁hidr": 6881,
  "▁quedaron": 6882,
  "▁Exterior": 6883,
  "cimientos": 6884,
  "▁rural": 6885,
  "▁oficinas": 6886,
  "▁120": 6887,
  "▁1950": 6888,
  "▁enviar": 6889,
  "rich": 6890,
  "deos": 6891,
  "▁atribuy": 6892,
  "▁destrucci": 6893,
  "▁estall": 6894,
  "▁opciones": 6895,
  "istentes": 6896,
  "▁recaud": 6897,
  "▁Mendoza": 6898,
  "ilaci": 6899,
  "▁huy": 6900,
  "▁efectu": 6901,
  "▁cris": 6902,
  "▁Marvel": 6903,
  "▁revela": 6904,
  "▁Ignacio": 6905,
  "ule": 6906,
  "▁paque": 6907,
  "ken": 6908,
  "▁Carl": 6909,
  "caci": 6910,
  "▁sesi": 6911,
  "▁asesor": 6912,
  "▁revistas": 6913,
  "▁Camp": 6914,
  "▁pesos": 6915,
  "▁Vel": 6916,
  "▁atacar": 6917,
  "▁gris": 6918,
  "▁2018.": 6919,
  "uir": 6920,
  "▁chino": 6921,
  "▁Kir": 6922,
  "▁sing": 6923,
  "▁portada": 6924,
  "▁unirse": 6925,
  "▁emis": 6926,
  "unas": 6927,
  "fol": 6928,
  "▁Secretar": 6929,
  "▁Camb": 6930,
  "tizaci": 6931,
  "vileg": 6932,
  "xo": 6933,
  "ganos": 6934,
  "▁neo": 6935,
  "▁inund": 6936,
  "▁estan": 6937,
  "umentaci": 6938,
  "▁suger": 6939,
  "▁habitaci": 6940,
  "acos": 6941,
  "▁Ingenier": 6942,
  "▁Holly": 6943,
  "▁Ti": 6944,
  "▁iniciar": 6945,
  "▁excav": 6946,
  "▁descubre": 6947,
  "▁2017.": 6948,
  "▁vid": 6949,
  "▁be": 6950,
  "iosa": 6951,
  "▁Lis": 6952,
  "▁1989": 6953,
  "ges": 6954,
  "▁Ve": 6955,
  "arre": 6956,
  "▁suici": 6957,
  "till": 6958,
  "▁flujo": 6959,
  "▁anex": 6960,
  "▁Asturi": 6961,
  "▁medicam": 6962,
  "itter": 6963,
  "▁papeles": 6964,
  "▁frac": 6965,
  "ndr": 6966,
  "▁luchar": 6967,
  "▁Day": 6968,
  "▁Islas": 6969,
  "▁retor": 6970,
  "▁160": 6971,
  "▁encan": 6972,
  "ebo": 6973,
  "▁israel": 6974,
  "▁fom": 6975,
  "▁Brown": 6976,
  "▁tiro": 6977,
  "▁ges": 6978,
  "aste": 6979,
  "▁esposo": 6980,
  "▁Sac": 6981,
  "▁Bul": 6982,
  "▁cil": 6983,
  "27": 6984,
  "▁Concepci": 6985,
  "work": 6986,
  "▁reduci": 6987,
  "▁Google": 6988,
  "▁Orig": 6989,
  "▁retras": 6990,
  "▁Ucrania": 6991,
  "pp": 6992,
  "▁cruc": 6993,
  "uss": 6994,
  "▁dirigir": 6995,
  "▁expan": 6996,
  "▁apoyar": 6997,
  "▁Alonso": 6998,
  "iko": 6999,
  "▁bah": 7000,
  "▁fall": 7001,
  "tambi": 7002,
  "▁Cuenta": 7003,
  "idar": 7004,
  "junto": 7005,
  "▁Medici": 7006,
  "▁audio": 7007,
  "▁cinta": 7008,
  "▁mesa": 7009,
  "▁universo": 7010,
  "ionado": 7011,
  "▁mod": 7012,
  "▁iglesias": 7013,
  "▁Ambos": 7014,
  "▁Andaluc": 7015,
  "▁Fuerzas": 7016,
  "▁participa": 7017,
  "incl": 7018,
  "▁arquitect": 7019,
  "▁Sir": 7020,
  "oni": 7021,
  "ezas": 7022,
  "▁crimin": 7023,
  "▁>": 7024,
  "▁brill": 7025,
  "▁retirada": 7026,
  "▁AR": 7027,
  "▁cita": 7028,
  "▁mix": 7029,
  "▁Nar": 7030,
  "rabes": 7031,
  "▁ga": 7032,
  "▁usan": 7033,
  "▁sumin": 7034,
  "▁compro": 7035,
  "▁Avenida": 7036,
  "▁sonora": 7037,
  "▁virus": 7038,
  "▁pac": 7039,
  "▁South": 7040,
  "▁extiende": 7041,
  "zobispo": 7042,
  "pira": 7043,
  "▁jornada": 7044,
  "▁reglas": 7045,
  "eos": 7046,
  "▁testimon": 7047,
  "laga": 7048,
  "▁diver": 7049,
  "▁reper": 7050,
  "▁Ul": 7051,
  "▁inglesa": 7052,
  "▁relo": 7053,
  "tallas": 7054,
  "▁rique": 7055,
  "▁pena": 7056,
  "▁desf": 7057,
  "▁48": 7058,
  "▁famosa": 7059,
  "▁caer": 7060,
  "▁banco": 7061,
  "....": 7062,
  "▁partid": 7063,
  "Bo": 7064,
  "▁baile": 7065,
  "▁Alcal": 7066,
  "▁cursos": 7067,
  "▁hielo": 7068,
  "▁prior": 7069,
  "▁Top": 7070,
  "▁derrotar": 7071,
  "Ne": 7072,
  "daje": 7073,
  "nav": 7074,
  "inter": 7075,
  "jada": 7076,
  "uerta": 7077,
  "▁viernes": 7078,
  "▁patrocin": 7079,
  "▁Indi": 7080,
  "edades": 7081,
  "idez": 7082,
  "66": 7083,
  "▁mat": 7084,
  "▁salvar": 7085,
  "▁Dor": 7086,
  "▁Ejecu": 7087,
  "▁creciente": 7088,
  "MA": 7089,
  "uman": 7090,
  "▁lesi": 7091,
  "▁ido": 7092,
  "▁cad": 7093,
  "▁deportivo": 7094,
  "▁Margar": 7095,
  "▁Contin": 7096,
  "▁pese": 7097,
  "▁imperio": 7098,
  "▁amistad": 7099,
  "roes": 7100,
  "▁Sci": 7101,
  "▁Catedral": 7102,
  "▁impuestos": 7103,
  "▁llegan": 7104,
  "▁parroqui": 7105,
  "▁fortaleza": 7106,
  "48": 7107,
  "▁suro": 7108,
  "▁2019.": 7109,
  "▁Blanca": 7110,
  "▁sacerdote": 7111,
  "▁hipo": 7112,
  "▁pudieron": 7113,
  "fort": 7114,
  "▁quedan": 7115,
  "▁turismo": 7116,
  "▁Eug": 7117,
  "▁gubernam": 7118,
  "▁bailar": 7119,
  "▁innov": 7120,
  "Col": 7121,
  "▁pensar": 7122,
  "sitos": 7123,
  "eses": 7124,
  "▁hemb": 7125,
  "▁Caribe": 7126,
  "▁Cy": 7127,
  "▁explotaci": 7128,
  "▁horiz": 7129,
  "▁Reina": 7130,
  "onald": 7131,
  "uan": 7132,
  "▁excepto": 7133,
  "▁causas": 7134,
  "▁depende": 7135,
  "▁sureste": 7136,
  "▁lograron": 7137,
  "▁darle": 7138,
  "▁intr": 7139,
  "BS": 7140,
  "▁poca": 7141,
  "▁Gor": 7142,
  "▁descen": 7143,
  "oli": 7144,
  "▁religioso": 7145,
  "ariamente": 7146,
  "▁Alianza": 7147,
  "▁implica": 7148,
  "▁europea": 7149,
  "▁sencillos": 7150,
  "▁frase": 7151,
  "▁privileg": 7152,
  "▁voluntad": 7153,
  "▁producen": 7154,
  "▁(20": 7155,
  "▁Hugo": 7156,
  "▁departam": 7157,
  "▁escuch": 7158,
  "▁usted": 7159,
  "].": 7160,
  "▁Hall": 7161,
  "edores": 7162,
  "▁Sara": 7163,
  "lgica": 7164,
  "ball": 7165,
  "dolfo": 7166,
  "▁fues": 7167,
  "▁Jaime": 7168,
  "▁Bien": 7169,
  "ertura": 7170,
  "blemente": 7171,
  "cionario": 7172,
  "▁pudiera": 7173,
  "▁propuso": 7174,
  "▁traducci": 7175,
  "▁cumple": 7176,
  "▁rusa": 7177,
  "▁Bil": 7178,
  "▁obligado": 7179,
  "▁costos": 7180,
  "dicas": 7181,
  "▁pien": 7182,
  "▁rese": 7183,
  "▁Human": 7184,
  "▁educ": 7185,
  "▁etapas": 7186,
  "▁radi": 7187,
  "'.": 7188,
  "▁partida": 7189,
  "▁supone": 7190,
  "ets": 7191,
  "▁hol": 7192,
  "ody": 7193,
  "▁Jaco": 7194,
  "▁core": 7195,
  "▁completar": 7196,
  "-10": 7197,
  "▁2023": 7198,
  "▁ventaja": 7199,
  "▁millas": 7200,
  "▁Big": 7201,
  "▁ciencias": 7202,
  "▁filas": 7203,
  "▁conquist": 7204,
  "▁infec": 7205,
  "▁175": 7206,
  "▁suerte": 7207,
  "▁aprender": 7208,
  "▁Amaz": 7209,
  "▁37": 7210,
  "▁invi": 7211,
  "crata": 7212,
  "▁denomina": 7213,
  "▁supuesto": 7214,
  "▁oscuro": 7215,
  "▁irreg": 7216,
  "▁puesta": 7217,
  "habil": 7218,
  "▁directora": 7219,
  "▁Corpor": 7220,
  "5).": 7221,
  "▁Derechos": 7222,
  "▁consigue": 7223,
  "▁Dado": 7224,
  "icaci": 7225,
  "elle": 7226,
  "▁comit": 7227,
  "▁Adam": 7228,
  "▁7.": 7229,
  "▁hun": 7230,
  "ont": 7231,
  "▁Fox": 7232,
  "▁sentir": 7233,
  "icul": 7234,
  "▁aceite": 7235,
  "▁Fan": 7236,
  "▁sucesor": 7237,
  "▁socio": 7238,
  "medi": 7239,
  "dillera": 7240,
  "▁Nob": 7241,
  "▁lunes": 7242,
  "▁Andre": 7243,
  "▁separaci": 7244,
  "heim": 7245,
  "▁vigil": 7246,
  "▁derrotado": 7247,
  "core": 7248,
  "lamiento": 7249,
  "▁Brig": 7250,
  "▁Alta": 7251,
  "▁cho": 7252,
  "▁Ox": 7253,
  "▁emisi": 7254,
  "▁DVD": 7255,
  "usal": 7256,
  "▁rama": 7257,
  "ii": 7258,
  "▁adicional": 7259,
  "▁opon": 7260,
  "tenta": 7261,
  "ML": 7262,
  "▁Pes": 7263,
  "▁Tol": 7264,
  "▁lectura": 7265,
  "recci": 7266,
  "▁Selec": 7267,
  "▁inci": 7268,
  "▁gusta": 7269,
  "▁Award": 7270,
  "▁colonial": 7271,
  "▁carbono": 7272,
  "▁visitar": 7273,
  "▁diputados": 7274,
  "▁Audi": 7275,
  "AF": 7276,
  "▁cog": 7277,
  "▁Viena": 7278,
  "▁1980,": 7279,
  "▁primaria": 7280,
  "ormes": 7281,
  "▁instruc": 7282,
  "26": 7283,
  "▁Jour": 7284,
  "▁quinta": 7285,
  "▁judicial": 7286,
  "▁ediciones": 7287,
  "hel": 7288,
  "low": 7289,
  "▁Filip": 7290,
  "▁logrando": 7291,
  "tempor": 7292,
  "▁Dic": 7293,
  "▁Johan": 7294,
  "▁rema": 7295,
  "uerdos": 7296,
  "aves": 7297,
  "▁**": 7298,
  "▁vapor": 7299,
  "TO": 7300,
  "▁leche": 7301,
  "▁dorm": 7302,
  "▁Wol": 7303,
  "▁bueno": 7304,
  "▁Batalla": 7305,
  "▁hect": 7306,
  "▁retro": 7307,
  "▁tercero": 7308,
  "▁Negro": 7309,
  "guno": 7310,
  "isc": 7311,
  "lados": 7312,
  "▁ideal": 7313,
  "▁necesaria": 7314,
  "▁AC": 7315,
  "ring": 7316,
  "dista": 7317,
  "ade": 7318,
  "▁Presiden": 7319,
  "▁puntu": 7320,
  "▁Vene": 7321,
  "▁canad": 7322,
  "stas": 7323,
  "▁Dig": 7324,
  "▁North": 7325,
  "▁Nie": 7326,
  "▁aterri": 7327,
  "▁Premios": 7328,
  "▁obtiene": 7329,
  "tang": 7330,
  "▁superviv": 7331,
  "▁Nap": 7332,
  "▁bizan": 7333,
  "▁fueran": 7334,
  "▁superar": 7335,
  "▁Bio": 7336,
  "▁1999,": 7337,
  "▁incon": 7338,
  "▁AS": 7339,
  "quisici": 7340,
  "▁acept": 7341,
  "▁buscando": 7342,
  "▁noc": 7343,
  "▁Sistema": 7344,
  "▁High": 7345,
  "▁penal": 7346,
  "▁liberal": 7347,
  "▁Famil": 7348,
  "▁coord": 7349,
  "▁ali": 7350,
  "▁Coo": 7351,
  "cuenta": 7352,
  "▁Spor": 7353,
  "▁cens": 7354,
  "▁paredes": 7355,
  "▁lanza": 7356,
  "▁sul": 7357,
  "yer": 7358,
  "▁observar": 7359,
  "▁Caracas": 7360,
  "▁Edward": 7361,
  "▁ubica": 7362,
  "hor": 7363,
  "▁One": 7364,
  "dela": 7365,
  "▁Dre": 7366,
  "alda": 7367,
  "▁pareci": 7368,
  "▁Gri": 7369,
  "▁primo": 7370,
  "38": 7371,
  "▁System": 7372,
  "▁princesa": 7373,
  "▁defendi": 7374,
  "▁acon": 7375,
  "▁delante": 7376,
  "iki": 7377,
  "▁descenso": 7378,
  "gl": 7379,
  "antil": 7380,
  "▁misiones": 7381,
  "▁sierra": 7382,
  "▁Cuerpo": 7383,
  "▁aliados": 7384,
  "▁Louis": 7385,
  "▁preparaci": 7386,
  "nmente": 7387,
  "▁reformas": 7388,
  "tein": 7389,
  "▁graves": 7390,
  "▁jugando": 7391,
  "▁porcenta": 7392,
  "▁tormenta": 7393,
  "tto": 7394,
  "▁invitado": 7395,
  "▁disminuy": 7396,
  "▁pion": 7397,
  "▁cuentan": 7398,
  "lanos": 7399,
  "▁ADN": 7400,
  "▁monte": 7401,
  "chen": 7402,
  "▁romanos": 7403,
  "▁tesis": 7404,
  "▁surgi": 7405,
  "▁amarillo": 7406,
  "▁desper": 7407,
  "▁cuartos": 7408,
  "maras": 7409,
  "tier": 7410,
  "rist": 7411,
  "▁EP": 7412,
  "cialmente": 7413,
  "▁arras": 7414,
  "▁culmin": 7415,
  "▁ensay": 7416,
  "uj": 7417,
  "▁aer": 7418,
  "29": 7419,
  "▁Asturias": 7420,
  "▁ign": 7421,
  "▁Public": 7422,
  "▁pide": 7423,
  "▁estancia": 7424,
  "▁guerras": 7425,
  "phy": 7426,
  "▁tiendas": 7427,
  "▁ling": 7428,
  "▁terremo": 7429,
  "bro": 7430,
  "ilas": 7431,
  "▁Teresa": 7432,
  "▁manifies": 7433,
  "▁bordo": 7434,
  "Val": 7435,
  "▁temporal": 7436,
  "▁Gan": 7437,
  "▁medieval": 7438,
  "▁tonel": 7439,
  "▁WW": 7440,
  "▁disputa": 7441,
  "▁laterales": 7442,
  "grad": 7443,
  "trica": 7444,
  "mad": 7445,
  "▁poblado": 7446,
  "▁destinado": 7447,
  "67": 7448,
  "▁array": 7449,
  "▁sacri": 7450,
  "▁tecnol": 7451,
  "▁Mul": 7452,
  "ety": 7453,
  "▁femenina": 7454,
  "▁liberaci": 7455,
  "▁aceptar": 7456,
  "▁postu": 7457,
  "▁adelan": 7458,
  "▁galer": 7459,
  "▁acerc": 7460,
  "▁aquellas": 7461,
  "68": 7462,
  "▁oto": 7463,
  "ism": 7464,
  "▁Adri": 7465,
  "ervatorio": 7466,
  "▁aumenta": 7467,
  "▁pasaron": 7468,
  "▁noctur": 7469,
  "▁opin": 7470,
  "▁suroeste": 7471,
  "Le": 7472,
  "▁Ira": 7473,
  "▁Show": 7474,
  "▁novelas": 7475,
  "▁7,": 7476,
  "▁preserv": 7477,
  "▁libres": 7478,
  "▁petici": 7479,
  "34": 7480,
  "37": 7481,
  "▁Miss": 7482,
  "onduras": 7483,
  "▁perse": 7484,
  "unda": 7485,
  "▁Bau": 7486,
  "▁manz": 7487,
  "Mo": 7488,
  "gio": 7489,
  "▁etique": 7490,
  "tano": 7491,
  "▁raza": 7492,
  "▁1987": 7493,
  "gol": 7494,
  "▁esperanza": 7495,
  "▁once": 7496,
  "elec": 7497,
  "▁petr": 7498,
  "usiones": 7499,
  "▁marcas": 7500,
  "▁caballo": 7501,
  "▁recientes": 7502,
  "ricamente": 7503,
  "▁Princip": 7504,
  "▁Sk": 7505,
  "dientes": 7506,
  "▁Bene": 7507,
  "▁recinto": 7508,
  "denal": 7509,
  "▁Mill": 7510,
  "tillas": 7511,
  "▁escultura": 7512,
  "▁regul": 7513,
  "ificado": 7514,
  "▁peligros": 7515,
  "▁Kim": 7516,
  "▁reclam": 7517,
  "colas": 7518,
  "Mad": 7519,
  "▁recuerda": 7520,
  "▁1985": 7521,
  "undo": 7522,
  "▁espacial": 7523,
  "itor": 7524,
  "▁cambia": 7525,
  "▁disputar": 7526,
  "adolid": 7527,
  "▁pelo": 7528,
  "▁blancos": 7529,
  "▁trama": 7530,
  "dam": 7531,
  "▁techo": 7532,
  "▁clara": 7533,
  "amanca": 7534,
  "uciones": 7535,
  "▁Bah": 7536,
  "bios": 7537,
  "▁65": 7538,
  "▁juz": 7539,
  "▁recol": 7540,
  "ush": 7541,
  "ww": 7542,
  "▁soporte": 7543,
  "▁FI": 7544,
  "uelve": 7545,
  "▁previs": 7546,
  "▁Marcos": 7547,
  "▁barrios": 7548,
  "ecreto": 7549,
  "mond": 7550,
  "▁comer": 7551,
  "▁Jen": 7552,
  "▁argument": 7553,
  "▁pertenec": 7554,
  "▁Puede": 7555,
  "▁consagr": 7556,
  "trico": 7557,
  "▁1986": 7558,
  "▁descripci": 7559,
  "▁prolong": 7560,
  "quesa": 7561,
  "▁solitario": 7562,
  "▁mente": 7563,
  "▁bacter": 7564,
  "ptimo": 7565,
  "▁prece": 7566,
  "▁entidades": 7567,
  "dador": 7568,
  "ebra": 7569,
  "▁Produc": 7570,
  "▁impar": 7571,
  "▁alguno": 7572,
  "▁1988": 7573,
  "▁publicar": 7574,
  "egr": 7575,
  "▁deriva": 7576,
  "Bar": 7577,
  "▁end": 7578,
  "▁Jones": 7579,
  "▁Institu": 7580,
  "▁Galicia": 7581,
  "▁ermita": 7582,
  "organiz": 7583,
  "▁House": 7584,
  "▁United": 7585,
  "▁2005.": 7586,
  "▁verdadera": 7587,
  "uge": 7588,
  "▁apellido": 7589,
  "▁densidad": 7590,
  "▁hermos": 7591,
  "▁creando": 7592,
  "aven": 7593,
  "▁enfrentar": 7594,
  "▁Str": 7595,
  "▁Vo": 7596,
  "▁compartir": 7597,
  "▁Luci": 7598,
  "tainment": 7599,
  "▁impon": 7600,
  "▁protec": 7601,
  "▁regresa": 7602,
  "▁huevos": 7603,
  "▁autonom": 7604,
  "▁Particip": 7605,
  "▁estamos": 7606,
  "tta": 7607,
  "ciles": 7608,
  "▁potenci": 7609,
  "acen": 7610,
  "▁japonesa": 7611,
  "fia": 7612,
  "ars": 7613,
  "▁Virgin": 7614,
  "▁descubrir": 7615,
  "▁inmediato": 7616,
  "udal": 7617,
  "▁casco": 7618,
  "tures": 7619,
  "▁esperar": 7620,
  "▁Columb": 7621,
  "▁demo": 7622,
  "▁Dom": 7623,
  "▁Trin": 7624,
  "▁Iv": 7625,
  "▁enca": 7626,
  "▁Iz": 7627,
  "TE": 7628,
  "▁pico": 7629,
  "▁nutr": 7630,
  "▁biol": 7631,
  "▁Natural": 7632,
  "▁Sec": 7633,
  "tti": 7634,
  "▁detener": 7635,
  "▁Hollywood": 7636,
  "▁Fron": 7637,
  "▁tomando": 7638,
  "▁deca": 7639,
  "▁Hungr": 7640,
  "▁6,": 7641,
  "cara": 7642,
  "xa": 7643,
  "lim": 7644,
  "▁hin": 7645,
  "ject": 7646,
  "▁Scott": 7647,
  "ptim": 7648,
  "▁moral": 7649,
  "▁urbana": 7650,
  "▁Jackson": 7651,
  "cidentales": 7652,
  "▁peces": 7653,
  "▁viejo": 7654,
  "▁errores": 7655,
  "▁cristiana": 7656,
  "▁Honduras": 7657,
  "die": 7658,
  "▁600": 7659,
  "▁enlace": 7660,
  "RI": 7661,
  "▁empate": 7662,
  "▁(4": 7663,
  "32": 7664,
  "ionar": 7665,
  "▁aleg": 7666,
  "rie": 7667,
  "▁juventud": 7668,
  "▁Hit": 7669,
  "tnam": 7670,
  "))": 7671,
  "enario": 7672,
  "▁dirige": 7673,
  "▁supon": 7674,
  "-15": 7675,
  "▁modernos": 7676,
  "▁secuencia": 7677,
  "trato": 7678,
  "▁sacar": 7679,
  "idro": 7680,
  "▁chica": 7681,
  "mac": 7682,
  "▁cristal": 7683,
  "OE": 7684,
  "▁reyes": 7685,
  "▁vieron": 7686,
  "▁Champ": 7687,
  "razgo": 7688,
  "▁aceler": 7689,
  "ator": 7690,
  "▁Jerusal": 7691,
  "▁Rad": 7692,
  "▁1998,": 7693,
  "especi": 7694,
  "▁femin": 7695,
  "▁apropi": 7696,
  "▁capaces": 7697,
  "▁reparto": 7698,
  "fecto": 7699,
  "▁Sha": 7700,
  "▁rutas": 7701,
  "▁doctr": 7702,
  "▁Clau": 7703,
  "▁buque": 7704,
  "▁terra": 7705,
  "▁White": 7706,
  "▁estilos": 7707,
  "▁Ruiz": 7708,
  "LA": 7709,
  "▁mercados": 7710,
  "▁Night": 7711,
  "▁sugiere": 7712,
  "uelto": 7713,
  "elli": 7714,
  "▁Loc": 7715,
  "%.": 7716,
  "▁sorpres": 7717,
  "▁actitud": 7718,
  "▁Roc": 7719,
  "▁pared": 7720,
  "▁vivienda": 7721,
  "▁Merce": 7722,
  "▁Vis": 7723,
  "▁parec": 7724,
  "▁cuyas": 7725,
  "tors": 7726,
  "▁1970,": 7727,
  "row": 7728,
  "▁miedo": 7729,
  "▁olvid": 7730,
  "▁dulce": 7731,
  "▁grabar": 7732,
  "▁Tay": 7733,
  "tudes": 7734,
  "▁ingreso": 7735,
  "mu": 7736,
  "Las": 7737,
  "ederaci": 7738,
  "▁Vega": 7739,
  "▁pedir": 7740,
  "▁derri": 7741,
  "▁Oficina": 7742,
  "▁Hot": 7743,
  "▁hecha": 7744,
  "▁Sel": 7745,
  "▁Lim": 7746,
  "▁AP": 7747,
  "imp": 7748,
  "idel": 7749,
  "▁suspendi": 7750,
  "tieron": 7751,
  "▁dial": 7752,
  "▁cerebro": 7753,
  "ciente": 7754,
  "▁circuito": 7755,
  "▁pene": 7756,
  "▁correo": 7757,
  "▁divor": 7758,
  "▁primi": 7759,
  "▁egip": 7760,
  "▁grados": 7761,
  ".),": 7762,
  "▁buenos": 7763,
  "▁intentos": 7764,
  "roid": 7765,
  "mel": 7766,
  "▁renuncia": 7767,
  "▁paciente": 7768,
  "▁retab": 7769,
  "▁Libert": 7770,
  "▁habilidad": 7771,
  "rest": 7772,
  "ngar": 7773,
  "▁Lam": 7774,
  "▁nuclear": 7775,
  "ablemente": 7776,
  "ype": 7777,
  "▁Wood": 7778,
  "▁sopor": 7779,
  "ometraje": 7780,
  "▁galle": 7781,
  "▁decoraci": 7782,
  "▁1940": 7783,
  "lago": 7784,
  "▁set": 7785,
  "▁LA": 7786,
  "▁EN": 7787,
  "cidos": 7788,
  "icanas": 7789,
  "▁Muchas": 7790,
  "▁ces": 7791,
  "▁celebrar": 7792,
  "▁existi": 7793,
  "▁activos": 7794,
  "▁elegida": 7795,
  "95": 7796,
  "olvi": 7797,
  "▁cit": 7798,
  "sie": 7799,
  "▁Libro": 7800,
  "▁Dipu": 7801,
  "▁moneda": 7802,
  "▁1984": 7803,
  "ectos": 7804,
  "36": 7805,
  "oo": 7806,
  "▁narr": 7807,
  "ajas": 7808,
  "▁interf": 7809,
  "▁salas": 7810,
  "▁Cortes": 7811,
  "▁asociado": 7812,
  "▁Log": 7813,
  "▁Legisla": 7814,
  "▁relie": 7815,
  "▁trataba": 7816,
  "▁cerro": 7817,
  "▁bro": 7818,
  "onada": 7819,
  "▁Ce": 7820,
  "▁Ernes": 7821,
  "▁cientos": 7822,
  "▁Fuente": 7823,
  "▁informes": 7824,
  "licas": 7825,
  "▁reconocer": 7826,
  "ily": 7827,
  "gido": 7828,
  "▁formal": 7829,
  "▁Haw": 7830,
  "▁blog": 7831,
  "istos": 7832,
  "▁preguntas": 7833,
  "teor": 7834,
  "▁homos": 7835,
  "▁empezar": 7836,
  "bara": 7837,
  "▁1930": 7838,
  "▁rup": 7839,
  "▁confun": 7840,
  "▁Hotel": 7841,
  "piraci": 7842,
  "▁Hacia": 7843,
  "▁paisaje": 7844,
  "▁sobres": 7845,
  "▁(194": 7846,
  "ions": 7847,
  "ctima": 7848,
  "▁Igu": 7849,
  "▁dejado": 7850,
  "▁Moreno": 7851,
  "▁viajar": 7852,
  "ifa": 7853,
  "▁Flores": 7854,
  "gados": 7855,
  "▁incendio": 7856,
  "▁Sig": 7857,
  "ximos": 7858,
  "▁8.": 7859,
  "▁senador": 7860,
  "▁internet": 7861,
  "▁logrado": 7862,
  "▁10.": 7863,
  "▁extendi": 7864,
  "▁Jug": 7865,
  "zco": 7866,
  "▁buques": 7867,
  "▁descrito": 7868,
  "▁Bab": 7869,
  "▁Carolina": 7870,
  "name": 7871,
  "▁Steph": 7872,
  "▁rece": 7873,
  "▁canta": 7874,
  "▁tomado": 7875,
  "lash": 7876,
  "▁estric": 7877,
  "gram": 7878,
  "▁rebeldes": 7879,
  "▁Tanto": 7880,
  "▁homosex": 7881,
  "▁Comercio": 7882,
  "ved": 7883,
  "▁Williams": 7884,
  "▁1983": 7885,
  "▁Are": 7886,
  "▁brillante": 7887,
  "▁pendi": 7888,
  "onero": 7889,
  "▁excelente": 7890,
  "mej": 7891,
  "▁Haci": 7892,
  "▁depresi": 7893,
  "▁polici": 7894,
  "▁idiomas": 7895,
  "nis": 7896,
  "▁aplicar": 7897,
  "▁cron": 7898,
  "▁integrado": 7899,
  "▁flex": 7900,
  "▁introdujo": 7901,
  "▁embarc": 7902,
  "socia": 7903,
  "vido": 7904,
  "▁calcular": 7905,
  "tencias": 7906,
  "▁quince": 7907,
  "▁News": 7908,
  "▁perro": 7909,
  "▁lanzada": 7910,
  "▁Joe": 7911,
  "▁1982": 7912,
  "actos": 7913,
  "yecto": 7914,
  "ualidad": 7915,
  "▁Repres": 7916,
  "▁Pueblo": 7917,
  "▁Blanco": 7918,
  "▁Paulo": 7919,
  "▁Comunista": 7920,
  "igan": 7921,
  "▁cincuenta": 7922,
  "▁pistas": 7923,
  "▁naves": 7924,
  "▁sh": 7925,
  "▁Ak": 7926,
  "trales": 7927,
  "▁cuello": 7928,
  "▁competir": 7929,
  "prin": 7930,
  "ienta": 7931,
  "idae": 7932,
  "formas": 7933,
  "▁apos": 7934,
  "▁Marco": 7935,
  "▁transfer": 7936,
  "▁Ran": 7937,
  "▁encarcel": 7938,
  "▁Op": 7939,
  "banos": 7940,
  "▁bon": 7941,
  "ueras": 7942,
  "▁th": 7943,
  "▁llevaba": 7944,
  "▁tono": 7945,
  "tizado": 7946,
  "ped": 7947,
  "fel": 7948,
  "mandad": 7949,
  "▁caballer": 7950,
  "▁manip": 7951,
  "▁Game": 7952,
  "chester": 7953,
  "00,": 7954,
  "▁Trabajo": 7955,
  "==": 7956,
  "tea": 7957,
  "sto": 7958,
  "regaci": 7959,
  "entaciones": 7960,
  "iedades": 7961,
  "▁transmiti": 7962,
  "▁coro": 7963,
  "tronom": 7964,
  "denas": 7965,
  "▁vegetaci": 7966,
  "▁perfil": 7967,
  "▁disfrutar": 7968,
  "▁multitud": 7969,
  "jal": 7970,
  "red": 7971,
  "▁BBC": 7972,
  "▁respeto": 7973,
  "rug": 7974,
  "▁2023,": 7975,
  "yac": 7976,
  "▁trenes": 7977,
  "▁altar": 7978,
  "▁nuestras": 7979,
  "▁interrump": 7980,
  "vada": 7981,
  "▁alcanza": 7982,
  "▁vendido": 7983,
  "▁antig": 7984,
  "▁izquierdo": 7985,
  "act": 7986,
  "TC": 7987,
  "▁simult": 7988,
  "▁agencia": 7989,
  "▁submar": 7990,
  "▁laboral": 7991,
  "▁Long": 7992,
  "▁Interior": 7993,
  "▁animaci": 7994,
  "tible": 7995,
  "▁humanidad": 7996,
  "▁funer": 7997,
  "▁empleado": 7998,
  "▁contienen": 7999,
  "▁Memor": 8000,
  "▁alberga": 8001,
  "▁desac": 8002,
  "mirante": 8003,
  "▁explicar": 8004,
  "ntesis": 8005,
  "▁genera": 8006,
  "▁organizar": 8007,
  "▁acor": 8008,
  "▁jer": 8009,
  "▁hijas": 8010,
  "▁Sum": 8011,
  "▁55": 8012,
  "▁Gram": 8013,
  "▁gama": 8014,
  "▁Escocia": 8015,
  "yl": 8016,
  "▁elaboraci": 8017,
  "▁mecan": 8018,
  "▁aldea": 8019,
  "▁Tru": 8020,
  "▁imposible": 8021,
  "dismo": 8022,
  "▁griega": 8023,
  "▁claus": 8024,
  "▁Jur": 8025,
  "feros": 8026,
  "▁Mariano": 8027,
  "▁tripulaci": 8028,
  "deste": 8029,
  "39": 8030,
  "▁destruir": 8031,
  "▁reproduc": 8032,
  "▁fot": 8033,
  "▁nove": 8034,
  "▁acero": 8035,
  "ndal": 8036,
  "▁Bi": 8037,
  "ajara": 8038,
  "ext": 8039,
  "▁artiller": 8040,
  "▁voces": 8041,
  "▁Jr": 8042,
  "▁Pens": 8043,
  "sicamente": 8044,
  "▁manus": 8045,
  "▁Moder": 8046,
  "▁juvenil": 8047,
  "▁apun": 8048,
  "▁riqueza": 8049,
  "▁toneladas": 8050,
  "▁plas": 8051,
  "▁peruano": 8052,
  "▁individuo": 8053,
  "UL": 8054,
  "▁sexto": 8055,
  "IV": 8056,
  "▁salvo": 8057,
  "tigo": 8058,
  "▁americano": 8059,
  "oros": 8060,
  "▁restantes": 8061,
  "erta": 8062,
  "▁reconstru": 8063,
  "▁saque": 8064,
  "▁Ill": 8065,
  "▁asistente": 8066,
  "mera": 8067,
  "▁Estre": 8068,
  "rcitos": 8069,
  "▁hermanas": 8070,
  "▁Vasco": 8071,
  "▁creo": 8072,
  "▁39": 8073,
  "▁zar": 8074,
  "cidentes": 8075,
  "uguay": 8076,
  "▁perd": 8077,
  "▁Young": 8078,
  "ere": 8079,
  "▁define": 8080,
  "▁camis": 8081,
  "▁br": 8082,
  "▁2004.": 8083,
  "▁Grand": 8084,
  "▁Journal": 8085,
  "▁alas": 8086,
  "vol": 8087,
  "▁drogas": 8088,
  "xe": 8089,
  "▁Mah": 8090,
  "▁AN": 8091,
  "lav": 8092,
  "▁prepara": 8093,
  "▁EL": 8094,
  "▁arcos": 8095,
  "▁pesca": 8096,
  "quiera": 8097,
  "▁asalto": 8098,
  "▁Cristi": 8099,
  "▁It": 8100,
  "Ac": 8101,
  "▁Vin": 8102,
  "▁integraci": 8103,
  "▁pisos": 8104,
  "▁arran": 8105,
  "▁liderazgo": 8106,
  "tela": 8107,
  "▁abord": 8108,
  "▁supervis": 8109,
  "mburgo": 8110,
  "▁estima": 8111,
  "▁protestas": 8112,
  "▁siente": 8113,
  "▁Decreto": 8114,
  "utton": 8115,
  "▁emoci": 8116,
  "▁monedas": 8117,
  "▁revisi": 8118,
  "lida": 8119,
  "▁Nick": 8120,
  "▁Universal": 8121,
  "dilla": 8122,
  "▁vencer": 8123,
  "▁chilena": 8124,
  "ulsi": 8125,
  "▁char": 8126,
  "▁alcohol": 8127,
  "▁caballos": 8128,
  "▁embajador": 8129,
  "▁this": 8130,
  "Fran": 8131,
  "▁biblio": 8132,
  "pula": 8133,
  "entados": 8134,
  "▁(5": 8135,
  "▁expertos": 8136,
  "47": 8137,
  "▁(),": 8138,
  "▁1996,": 8139,
  "▁perci": 8140,
  "itarias": 8141,
  "▁2000.": 8142,
  "▁Tercera": 8143,
  "▁Salamanca": 8144,
  "▁Lucas": 8145,
  "▁hiper": 8146,
  "▁mono": 8147,
  "▁agrade": 8148,
  "▁refuer": 8149,
  "▁arena": 8150,
  "▁esclavos": 8151,
  "▁VIII": 8152,
  "▁1979": 8153,
  "▁dedi": 8154,
  "Id": 8155,
  "▁rebeli": 8156,
  "▁Europeo": 8157,
  "▁Zelanda": 8158,
  "▁estatua": 8159,
  "▁murieron": 8160,
  "mis": 8161,
  "▁especific": 8162,
  "menta": 8163,
  "Des": 8164,
  "▁Serg": 8165,
  "lidos": 8166,
  "▁fruto": 8167,
  "▁Honor": 8168,
  "▁culp": 8169,
  "▁desas": 8170,
  "▁und": 8171,
  "ctrico": 8172,
  "▁Bot": 8173,
  "▁entradas": 8174,
  "▁viu": 8175,
  "▁dispone": 8176,
  "str": 8177,
  "ugos": 8178,
  "nimos": 8179,
  "▁coste": 8180,
  "▁expon": 8181,
  "▁Noruega": 8182,
  "▁Medicina": 8183,
  "▁mecanismo": 8184,
  "▁IS": 8185,
  "alax": 8186,
  "▁naciones": 8187,
  "▁fracaso": 8188,
  "sfera": 8189,
  "▁Director": 8190,
  "▁temprana": 8191,
  "dom": 8192,
  "▁ecuaci": 8193,
  "▁uruguay": 8194,
  "▁Imper": 8195,
  "▁frecuente": 8196,
  "▁trabajado": 8197,
  "▁dibujos": 8198,
  "▁pilotos": 8199,
  "UC": 8200,
  "▁Unidad": 8201,
  "▁susp": 8202,
  "▁eclesi": 8203,
  "rganos": 8204,
  "rosoft": 8205,
  "cht": 8206,
  "▁1997,": 8207,
  "▁profesora": 8208,
  "▁NO": 8209,
  "▁2020.": 8210,
  "▁Contr": 8211,
  "▁profunda": 8212,
  "▁Pense": 8213,
  "▁impresion": 8214,
  "▁sentencia": 8215,
  "▁Rib": 8216,
  "▁cero": 8217,
  "▁mapa": 8218,
  "▁conquis": 8219,
  "▁mercan": 8220,
  "nombre": 8221,
  "▁carro": 8222,
  "▁AM": 8223,
  "▁obtenido": 8224,
  "▁indis": 8225,
  "▁cort": 8226,
  "▁poema": 8227,
  "▁Murcia": 8228,
  "▁teatral": 8229,
  "▁jam": 8230,
  "▁atm": 8231,
  "▁caminos": 8232,
  "egos": 8233,
  "▁amiga": 8234,
  "▁Pensemos": 8235,
  "umi": 8236,
  "▁casado": 8237,
  "▁duro": 8238,
  "▁relato": 8239,
  "▁vidas": 8240,
  "▁empezaron": 8241,
  "kins": 8242,
  "▁ahor": 8243,
  "▁rap": 8244,
  "▁lluvia": 8245,
  "uto": 8246,
  "▁Puebla": 8247,
  "tornos": 8248,
  "mol": 8249,
  "peonatos": 8250,
  "veda": 8251,
  "▁continua": 8252,
  "▁acos": 8253,
  "▁distritos": 8254,
  "▁Cra": 8255,
  "▁estatus": 8256,
  "▁Turqu": 8257,
  "▁roja": 8258,
  "▁captura": 8259,
  "imnas": 8260,
  "tendo": 8261,
  "▁escuchar": 8262,
  "alizadas": 8263,
  "▁pleno": 8264,
  "▁Frances": 8265,
  "ross": 8266,
  "▁exces": 8267,
  "▁reuniones": 8268,
  "▁deuda": 8269,
  "▁distribuy": 8270,
  "▁Simon": 8271,
  "▁regal": 8272,
  "ats": 8273,
  "▁esperaba": 8274,
  "▁formaron": 8275,
  "guardia": 8276,
  "▁argumento": 8277,
  "▁Tuc": 8278,
  "▁Pese": 8279,
  "▁Fel": 8280,
  "izas": 8281,
  "▁Ford": 8282,
  "▁1976": 8283,
  "▁arzobispo": 8284,
  "▁Pap": 8285,
  "▁sexuales": 8286,
  "▁Bell": 8287,
  "▁Supremo": 8288,
  "▁alej": 8289,
  "▁Programa": 8290,
  "▁poseen": 8291,
  "▁Gio": 8292,
  "▁lad": 8293,
  "▁aline": 8294,
  "Espa": 8295,
  "▁libras": 8296,
  "▁tensi": 8297,
  "▁heridos": 8298,
  "▁adquirir": 8299,
  "▁definir": 8300,
  "▁Empres": 8301,
  "▁it": 8302,
  "▁preocup": 8303,
  "▁cuarenta": 8304,
  "back": 8305,
  "▁semillas": 8306,
  "▁curs": 8307,
  "▁corrupci": 8308,
  "▁Rivera": 8309,
  "%,": 8310,
  "▁170": 8311,
  "▁Gib": 8312,
  "▁patio": 8313,
  "▁interno": 8314,
  "ient": 8315,
  "▁crimen": 8316,
  "▁sustituy": 8317,
  "▁Burgos": 8318,
  "▁fuese": 8319,
  "▁Society": 8320,
  "▁),": 8321,
  "▁veter": 8322,
  "▁1973": 8323,
  "cnicos": 8324,
  "▁Way": 8325,
  "▁Associa": 8326,
  "ory": 8327,
  "▁Quer": 8328,
  "▁manga": 8329,
  "tones": 8330,
  "▁lateral": 8331,
  "▁secuestr": 8332,
  "▁dientes": 8333,
  "Do": 8334,
  "▁ninguno": 8335,
  "▁Tie": 8336,
  "yth": 8337,
  "▁numer": 8338,
  "▁detenido": 8339,
  "▁parecen": 8340,
  "▁Todas": 8341,
  "sos": 8342,
  "▁ala": 8343,
  "▁Mauri": 8344,
  "▁peor": 8345,
  "▁brazo": 8346,
  "▁seman": 8347,
  "ndolos": 8348,
  "▁155": 8349,
  "▁inscri": 8350,
  "▁universal": 8351,
  "▁instituto": 8352,
  "▁Nu": 8353,
  "▁gras": 8354,
  "▁UR": 8355,
  "inger": 8356,
  "▁hered": 8357,
  "▁rocas": 8358,
  "▁ramas": 8359,
  "bao": 8360,
  "▁instancia": 8361,
  "▁paro": 8362,
  "▁negros": 8363,
  "▁Bach": 8364,
  "▁Hub": 8365,
  "▁danza": 8366,
  "▁gole": 8367,
  "▁indios": 8368,
  "▁ejecutar": 8369,
  "▁habiendo": 8370,
  "▁tax": 8371,
  "▁placa": 8372,
  "▁Fort": 8373,
  "▁incidente": 8374,
  "▁Mall": 8375,
  "OL": 8376,
  "▁Castell": 8377,
  "iser": 8378,
  "▁notas": 8379,
  "▁Hans": 8380,
  "44": 8381,
  "▁Comics": 8382,
  "▁limitada": 8383,
  "▁metro": 8384,
  "▁acusado": 8385,
  "▁Gold": 8386,
  "▁canto": 8387,
  "▁Joan": 8388,
  "▁tecl": 8389,
  "▁Esteban": 8390,
  "tidi": 8391,
  "▁erig": 8392,
  "▁Wat": 8393,
  "▁cuadrados": 8394,
  "▁2024": 8395,
  "▁permiso": 8396,
  "▁Orquesta": 8397,
  "ess": 8398,
  "▁sabor": 8399,
  "▁enga": 8400,
  "▁ofrecen": 8401,
  "als": 8402,
  "rrez": 8403,
  "ebook": 8404,
  "▁poemas": 8405,
  "Madrid": 8406,
  "▁1978": 8407,
  "▁Time": 8408,
  "▁maestros": 8409,
  "SA": 8410,
  "-199": 8411,
  "utas": 8412,
  "▁ham": 8413,
  "uez": 8414,
  "▁atle": 8415,
  "icaciones": 8416,
  "ieta": 8417,
  "▁supuso": 8418,
  "▁terminal": 8419,
  "▁Exp": 8420,
  "▁celebrado": 8421,
  "mic": 8422,
  "▁Puente": 8423,
  "▁Spider": 8424,
  "▁funcional": 8425,
  "▁Estatal": 8426,
  "onesa": 8427,
  "];": 8428,
  "▁Sr": 8429,
  "vila": 8430,
  "ology": 8431,
  "▁Padre": 8432,
  "▁tumba": 8433,
  "▁aflu": 8434,
  "▁vende": 8435,
  "orit": 8436,
  "kes": 8437,
  "▁McC": 8438,
  "▁empa": 8439,
  "▁provisi": 8440,
  "▁existente": 8441,
  "stru": 8442,
  "▁calend": 8443,
  "▁deportes": 8444,
  "▁Nintendo": 8445,
  "▁CON": 8446,
  "▁compiti": 8447,
  "▁1995,": 8448,
  "isos": 8449,
  "▁elevado": 8450,
  "▁ojo": 8451,
  "▁renta": 8452,
  "▁1975": 8453,
  "▁anci": 8454,
  "▁Harry": 8455,
  "▁Antigu": 8456,
  "▁firmado": 8457,
  "▁1981": 8458,
  "▁pobres": 8459,
  "jeros": 8460,
  "distas": 8461,
  "▁ascendi": 8462,
  "alleros": 8463,
  "IP": 8464,
  "▁cuentas": 8465,
  "▁llen": 8466,
  "▁mental": 8467,
  "onna": 8468,
  "▁Cle": 8469,
  "▁estrenada": 8470,
  "lv": 8471,
  "▁Tuvo": 8472,
  "▁ocupado": 8473,
  "VID": 8474,
  "▁deportiva": 8475,
  "▁anuncio": 8476,
  "boa": 8477,
  "▁pobreza": 8478,
  "▁Dinamarca": 8479,
  "enovela": 8480,
  "▁Guti": 8481,
  "rpre": 8482,
  "gaz": 8483,
  "diales": 8484,
  "▁divide": 8485,
  "▁perpe": 8486,
  "▁ben": 8487,
  "▁Apple": 8488,
  "▁perdiendo": 8489,
  "▁pase": 8490,
  "aragua": 8491,
  "85": 8492,
  "▁profundo": 8493,
  "▁piedras": 8494,
  "dadas": 8495,
  "▁1960,": 8496,
  "▁lenta": 8497,
  "▁Pat": 8498,
  "DA": 8499,
  "▁eliminaci": 8500,
  "orth": 8501,
  "▁mensajes": 8502,
  "▁choc": 8503,
  "▁Diario": 8504,
  "adra": 8505,
  "▁cobertura": 8506,
  "▁sospech": 8507,
  "▁vuelos": 8508,
  "▁tribunal": 8509,
  "▁Life": 8510,
  "zm": 8511,
  "▁pira": 8512,
  "▁coches": 8513,
  "▁solicit": 8514,
  "▁Mach": 8515,
  "▁nace": 8516,
  "▁costas": 8517,
  "▁DC": 8518,
  "UE": 8519,
  "▁Wes": 8520,
  "▁Jefe": 8521,
  "▁cifra": 8522,
  "entaria": 8523,
  "▁Tel": 8524,
  "▁elimina": 8525,
  "iada": 8526,
  "picos": 8527,
  "voz": 8528,
  "▁cooperaci": 8529,
  "UR": 8530,
  "ket": 8531,
  "cito": 8532,
  "ois": 8533,
  "▁beneficio": 8534,
  "NA": 8535,
  "▁Law": 8536,
  "pri": 8537,
  "▁colocar": 8538,
  "▁cultivos": 8539,
  "▁Ejecutivo": 8540,
  "▁sesiones": 8541,
  "cuen": 8542,
  "add": 8543,
  "▁gusto": 8544,
  "▁Bib": 8545,
  "▁facilitar": 8546,
  "▁Mara": 8547,
  "▁votaci": 8548,
  "▁brazos": 8549,
  "▁Rojo": 8550,
  "enses": 8551,
  "rcol": 8552,
  "mail": 8553,
  "icias": 8554,
  "vania": 8555,
  "▁Papa": 8556,
  "▁176": 8557,
  "▁retirarse": 8558,
  "▁impul": 8559,
  "▁circulaci": 8560,
  "▁publica": 8561,
  "▁Boston": 8562,
  "▁visual": 8563,
  "▁espada": 8564,
  "▁Song": 8565,
  "▁1994,": 8566,
  "entaba": 8567,
  "▁nombrada": 8568,
  "▁Capit": 8569,
  "▁conservan": 8570,
  "▁firme": 8571,
  "▁escolar": 8572,
  "▁rig": 8573,
  "frad": 8574,
  "▁fic": 8575,
  "▁gab": 8576,
  "▁tomaron": 8577,
  "▁Augusto": 8578,
  "▁centrales": 8579,
  "▁Cuatro": 8580,
  "▁ventana": 8581,
  "▁1992,": 8582,
  "▁plu": 8583,
  "▁Gustavo": 8584,
  "▁desen": 8585,
  "▁Microsoft": 8586,
  "▁coordin": 8587,
  "iero": 8588,
  "▁Andes": 8589,
  "arlos": 8590,
  "▁estando": 8591,
  "▁muros": 8592,
  "▁Nik": 8593,
  "ilan": 8594,
  "Bu": 8595,
  "▁Monta": 8596,
  "▁bajos": 8597,
  "▁precisi": 8598,
  "▁misterios": 8599,
  "cimo": 8600,
  "zquez": 8601,
  "quido": 8602,
  "▁irregular": 8603,
  "ori": 8604,
  "▁orientaci": 8605,
  "▁Verde": 8606,
  "▁plena": 8607,
  "▁America": 8608,
  "▁Naz": 8609,
  "▁complet": 8610,
  "▁variables": 8611,
  "pur": 8612,
  "▁ventanas": 8613,
  "▁Fun": 8614,
  "▁repi": 8615,
  "▁funcionar": 8616,
  "▁retom": 8617,
  "▁Independi": 8618,
  "▁Hijo": 8619,
  "▁42": 8620,
  "▁zo": 8621,
  "tifica": 8622,
  "▁Hacienda": 8623,
  "▁desh": 8624,
  "▁Atlan": 8625,
  "▁Mediterr": 8626,
  "▁afili": 8627,
  "IL": 8628,
  "cismo": 8629,
  "▁Miami": 8630,
  "▁separado": 8631,
  "▁haberse": 8632,
  "kar": 8633,
  "▁Live": 8634,
  "▁descrita": 8635,
  "vino": 8636,
  "andra": 8637,
  "▁entreten": 8638,
  "ejas": 8639,
  "▁Up": 8640,
  "▁Kong": 8641,
  "hem": 8642,
  "▁Johnson": 8643,
  "amentos": 8644,
  "▁Oh": 8645,
  "▁siguieron": 8646,
  "▁diagn": 8647,
  "▁vag": 8648,
  "▁obis": 8649,
  "▁daba": 8650,
  "entalmente": 8651,
  "▁invas": 8652,
  "▁novia": 8653,
  "▁conceptos": 8654,
  "▁muestras": 8655,
  "abeth": 8656,
  "▁torres": 8657,
  "ipi": 8658,
  "▁junta": 8659,
  "▁exilio": 8660,
  "▁Mike": 8661,
  "quita": 8662,
  "ou": 8663,
  "▁Emb": 8664,
  "▁naran": 8665,
  "▁sta": 8666,
  "tander": 8667,
  "isbol": 8668,
  "izadas": 8669,
  "▁reconoce": 8670,
  "zona": 8671,
  "▁estrecho": 8672,
  "▁terrestre": 8673,
  "▁siglas": 8674,
  "▁aspir": 8675,
  "▁Alexander": 8676,
  "▁crey": 8677,
  "▁mover": 8678,
  "▁lluvias": 8679,
  "istrativa": 8680,
  "▁Silva": 8681,
  "▁ped": 8682,
  "▁muro": 8683,
  "▁horizon": 8684,
  "▁tamb": 8685,
  "▁1991,": 8686,
  "▁Alfredo": 8687,
  "trada": 8688,
  "▁deterior": 8689,
  "▁tram": 8690,
  "▁articul": 8691,
  "quen": 8692,
  "▁eliminado": 8693,
  "out": 8694,
  "▁10,": 8695,
  "▁port": 8696,
  "▁800": 8697,
  "nado": 8698,
  "['": 8699,
  "▁sucesi": 8700,
  "ECT": 8701,
  "▁1977": 8702,
  "lis": 8703,
  "▁8,": 8704,
  "of": 8705,
  ".).": 8706,
  "mira": 8707,
  "tolom": 8708,
  "▁amenaz": 8709,
  "▁habita": 8710,
  "▁adecuado": 8711,
  "jam": 8712,
  "▁sujeto": 8713,
  "thur": 8714,
  "▁Book": 8715,
  "▁Georgia": 8716,
  "▁ruedas": 8717,
  "▁culturas": 8718,
  "▁caz": 8719,
  "▁Jord": 8720,
  "dri": 8721,
  "tanos": 8722,
  "usk": 8723,
  "▁seno": 8724,
  "31": 8725,
  "ancias": 8726,
  "lando": 8727,
  "▁Wilson": 8728,
  "▁Pach": 8729,
  "▁Semana": 8730,
  "▁Filipinas": 8731,
  "inalmente": 8732,
  "▁cria": 8733,
  "▁1936": 8734,
  "▁1974": 8735,
  "▁jazz": 8736,
  "▁rar": 8737,
  "▁saga": 8738,
  "▁manejo": 8739,
  "▁asistir": 8740,
  "zz": 8741,
  "');": 8742,
  "▁largas": 8743,
  "▁Siria": 8744,
  "▁dichos": 8745,
  "▁ejercer": 8746,
  "xido": 8747,
  "▁Junior": 8748,
  "▁Kn": 8749,
  "ionalmente": 8750,
  "▁Tengo": 8751,
  "lle": 8752,
  "TS": 8753,
  "urac": 8754,
  "TP": 8755,
  "▁causar": 8756,
  "▁Philip": 8757,
  "tabilidad": 8758,
  "▁demostrar": 8759,
  "▁movil": 8760,
  "▁absoluta": 8761,
  "▁64": 8762,
  "▁privadas": 8763,
  "ctico": 8764,
  "▁Incluso": 8765,
  "mil": 8766,
  "▁Walter": 8767,
  "▁Arturo": 8768,
  "▁elector": 8769,
  "▁Fla": 8770,
  "▁comienzan": 8771,
  "▁terremoto": 8772,
  "▁Ze": 8773,
  "▁emisiones": 8774,
  "ildo": 8775,
  "pul": 8776,
  "rtico": 8777,
  "iguaci": 8778,
  "▁Cerro": 8779,
  "▁abuelo": 8780,
  "▁concreto": 8781,
  "anta": 8782,
  "▁Oxford": 8783,
  "▁rasgos": 8784,
  "▁Humanos": 8785,
  "adilla": 8786,
  "▁Hitler": 8787,
  "▁noven": 8788,
  "▁optim": 8789,
  "▁2003.": 8790,
  "▁gastos": 8791,
  "amba": 8792,
  "loria": 8793,
  "gicamente": 8794,
  "▁vulner": 8795,
  "MP": 8796,
  "hum": 8797,
  "▁44": 8798,
  "▁Jac": 8799,
  "▁Sky": 8800,
  "▁47": 8801,
  "▁Asuntos": 8802,
  "▁ambiental": 8803,
  "▁subterr": 8804,
  "ondo": 8805,
  "▁copia": 8806,
  "less": 8807,
  "▁Libre": 8808,
  "utar": 8809,
  "▁Rodrigo": 8810,
  "▁Terri": 8811,
  "▁vital": 8812,
  "▁exitosa": 8813,
  "▁colonias": 8814,
  "▁Inc": 8815,
  "▁Jas": 8816,
  "▁acredi": 8817,
  "iw": 8818,
  "▁Acci": 8819,
  "▁Muri": 8820,
  "▁naval": 8821,
  "▁asumir": 8822,
  "▁print": 8823,
  "▁circular": 8824,
  "▁necesitan": 8825,
  "▁limita": 8826,
  "cenas": 8827,
  "▁Herrera": 8828,
  "▁cortes": 8829,
  "▁Stone": 8830,
  "▁2:": 8831,
  "tinas": 8832,
  "▁num": 8833,
  "lova": 8834,
  "▁Ministro": 8835,
  "▁Dub": 8836,
  "hos": 8837,
  "▁cirug": 8838,
  "▁secciones": 8839,
  "▁Mid": 8840,
  "arr": 8841,
  "▁conocen": 8842,
  "vich": 8843,
  "▁ingresar": 8844,
  "▁Escu": 8845,
  "▁Habana": 8846,
  "▁invitados": 8847,
  "▁PP": 8848,
  "▁talleres": 8849,
  "▁Suprema": 8850,
  "▁1968": 8851,
  "▁Poder": 8852,
  "titudes": 8853,
  "remos": 8854,
  "bel": 8855,
  "DE": 8856,
  "tena": 8857,
  "▁algorit": 8858,
  "▁conmemor": 8859,
  "▁requis": 8860,
  "▁Anna": 8861,
  "▁Sergio": 8862,
  "tics": 8863,
  "▁notables": 8864,
  "▁agrupaci": 8865,
  "▁inscripci": 8866,
  "▁Raci": 8867,
  "▁ortodo": 8868,
  "▁verse": 8869,
  "▁Estaci": 8870,
  "▁vientos": 8871,
  "▁Teo": 8872,
  "▁operativo": 8873,
  "last": 8874,
  "ader": 8875,
  "▁ofensiva": 8876,
  "▁Via": 8877,
  "▁ple": 8878,
  "gia": 8879,
  "▁Esa": 8880,
  "▁cubrir": 8881,
  "▁Bernardo": 8882,
  "::": 8883,
  "▁Ky": 8884,
  "▁talento": 8885,
  "▁vocal": 8886,
  "▁Columbia": 8887,
  "▁Morales": 8888,
  "▁Robin": 8889,
  "▁Venecia": 8890,
  "▁rurales": 8891,
  "▁Nicaragua": 8892,
  "▁iban": 8893,
  "▁Catalina": 8894,
  "GB": 8895,
  "rcoles": 8896,
  "▁procesi": 8897,
  "▁condenado": 8898,
  "ambiguaci": 8899,
  "▁peregr": 8900,
  "▁Tony": 8901,
  "▁italianos": 8902,
  "▁Pierre": 8903,
  "▁podido": 8904,
  "▁correg": 8905,
  "chus": 8906,
  "▁Twitter": 8907,
  "iemb": 8908,
  "▁Dun": 8909,
  "▁COVID": 8910,
  "▁luc": 8911,
  "ganda": 8912,
  "▁Zona": 8913,
  "▁Guzm": 8914,
  "▁Oeste": 8915,
  "▁inspec": 8916,
  "▁utilizaci": 8917,
  "▁jardines": 8918,
  "▁abad": 8919,
  "▁sensaci": 8920,
  "▁cercanos": 8921,
  "Jo": 8922,
  "▁celular": 8923,
  "▁Christian": 8924,
  "▁ador": 8925,
  "▁marav": 8926,
  "▁Kal": 8927,
  "▁});": 8928,
  "▁bomba": 8929,
  "▁om": 8930,
  "aso": 8931,
  "▁Steve": 8932,
  "▁adv": 8933,
  "minario": 8934,
  "▁pierde": 8935,
  "san": 8936,
  "▁china": 8937,
  "▁largos": 8938,
  "▁aventura": 8939,
  "▁parecido": 8940,
  "ming": 8941,
  "▁igualdad": 8942,
  "▁Republic": 8943,
  "▁infanter": 8944,
  "▁traici": 8945,
  "▁Guerrero": 8946,
  "▁astr": 8947,
  "▁escribe": 8948,
  "▁evidente": 8949,
  "▁clic": 8950,
  "▁Harris": 8951,
  "▁literaria": 8952,
  "ION": 8953,
  "View": 8954,
  "▁fusion": 8955,
  "▁perju": 8956,
  "▁asociados": 8957,
  "▁mig": 8958,
  "▁1972": 8959,
  "▁reducido": 8960,
  "▁Brian": 8961,
  "▁CN": 8962,
  "tamen": 8963,
  "▁depos": 8964,
  "esu": 8965,
  "▁volvieron": 8966,
  "quera": 8967,
  "▁Latinoam": 8968,
  "▁unir": 8969,
  "▁admir": 8970,
  "▁Pala": 8971,
  "▁correcto": 8972,
  "▁Navidad": 8973,
  "▁Baja": 8974,
  "▁retablo": 8975,
  "▁och": 8976,
  "▁lla": 8977,
  "quero": 8978,
  "▁XIII": 8979,
  "ttp": 8980,
  "elly": 8981,
  "▁debil": 8982,
  "more": 8983,
  "ation": 8984,
  "▁250": 8985,
  "▁Ear": 8986,
  "ompe": 8987,
  "▁pade": 8988,
  "▁Libertad": 8989,
  "▁impro": 8990,
  "▁has": 8991,
  "▁adh": 8992,
  "reos": 8993,
  "▁Metro": 8994,
  "▁Blue": 8995,
  "ango": 8996,
  "▁positivo": 8997,
  "▁comprende": 8998,
  "▁enterrado": 8999,
  "▁encom": 9000,
  "▁radic": 9001,
  "▁Virginia": 9002,
  "▁empresar": 9003,
  "▁ara": 9004,
  "ueve": 9005,
  "▁quem": 9006,
  "▁Argentino": 9007,
  "▁Oscar": 9008,
  "▁ves": 9009,
  "▁?": 9010,
  "▁Cerv": 9011,
  "▁negativa": 9012,
  "▁(190": 9013,
  "▁Calle": 9014,
  "umas": 9015,
  "▁aman": 9016,
  "▁desemboc": 9017,
  "98": 9018,
  "▁pir": 9019,
  "▁perros": 9020,
  "canes": 9021,
  "▁hoja": 9022,
  "▁sufrir": 9023,
  "chan": 9024,
  "orca": 9025,
  "▁ruinas": 9026,
  "▁radical": 9027,
  "▁forz": 9028,
  "▁hosp": 9029,
  "▁rusos": 9030,
  "){": 9031,
  "doc": 9032,
  "▁apre": 9033,
  "▁bici": 9034,
  "▁cuan": 9035,
  "oph": 9036,
  "far": 9037,
  "▁asunto": 9038,
  "Tube": 9039,
  "▁Eric": 9040,
  "▁Batman": 9041,
  "▁meridi": 9042,
  "war": 9043,
  "▁Ann": 9044,
  "stein": 9045,
  "▁Cristina": 9046,
  "▁europeas": 9047,
  "▁Bilbao": 9048,
  "▁Ima": 9049,
  "▁cable": 9050,
  "▁Auto": 9051,
  "▁157": 9052,
  "▁cump": 9053,
  "▁semej": 9054,
  "▁Bautista": 9055,
  "▁Stra": 9056,
  "▁entregar": 9057,
  "acion": 9058,
  "▁perdieron": 9059,
  "▁fla": 9060,
  "▁cadenas": 9061,
  "▁Emilio": 9062,
  "▁adver": 9063,
  "Gu": 9064,
  "▁adopt": 9065,
  "▁tejido": 9066,
  "▁cha": 9067,
  "▁hallaz": 9068,
  "▁pandemia": 9069,
  "▁previsto": 9070,
  "▁resal": 9071,
  "▁suble": 9072,
  "▁Nan": 9073,
  "toras": 9074,
  "▁combates": 9075,
  "abell": 9076,
  "▁2024,": 9077,
  "▁matriz": 9078,
  "aunque": 9079,
  "▁aventuras": 9080,
  "chel": 9081,
  "▁Colonia": 9082,
  "▁parejas": 9083,
  "▁Chil": 9084,
  "▁2021.": 9085,
  "▁1:": 9086,
  "▁agregar": 9087,
  "**": 9088,
  "▁minas": 9089,
  "▁cardenal": 9090,
  "enar": 9091,
  "▁estrecha": 9092,
  "ptima": 9093,
  "▁rell": 9094,
  "▁cerv": 9095,
  "▁Albert": 9096,
  "acruz": 9097,
  "▁santo": 9098,
  "▁observa": 9099,
  "▁Sto": 9100,
  "▁japoneses": 9101,
  "ss": 9102,
  "▁pedido": 9103,
  "▁efectivo": 9104,
  ",\"": 9105,
  "▁1993,": 9106,
  "▁coleg": 9107,
  "▁Mujeres": 9108,
  "▁bancos": 9109,
  "▁tribus": 9110,
  "▁suave": 9111,
  "▁(16": 9112,
  "▁lleno": 9113,
  "▁Zo": 9114,
  "▁esquina": 9115,
  "▁Medina": 9116,
  "▁Lew": 9117,
  "▁publici": 9118,
  "▁Magdal": 9119,
  "▁Juana": 9120,
  "lvaro": 9121,
  "▁rin": 9122,
  "▁Broad": 9123,
  "▁fronteras": 9124,
  "▁trabajaba": 9125,
  "kh": 9126,
  "▁ingleses": 9127,
  "Su": 9128,
  "▁Lit": 9129,
  "▁legales": 9130,
  "bido": 9131,
  "▁cambiado": 9132,
  "▁fauna": 9133,
  "▁usada": 9134,
  "▁retorno": 9135,
  "sea": 9136,
  "▁SS": 9137,
  "▁aloj": 9138,
  "▁Comple": 9139,
  "▁empe": 9140,
  "▁1969": 9141,
  "▁Canarias": 9142,
  "▁leal": 9143,
  "▁tengan": 9144,
  "▁Gin": 9145,
  "▁zapa": 9146,
  "▁torneos": 9147,
  "▁dioses": 9148,
  "▁Imperial": 9149,
  "▁escritora": 9150,
  "▁disminuci": 9151,
  "▁ele": 9152,
  "▁==": 9153,
  "▁import": 9154,
  "▁inspiraci": 9155,
  "ucar": 9156,
  "▁enamor": 9157,
  "▁respondi": 9158,
  "▁subcam": 9159,
  "dita": 9160,
  "▁rebo": 9161,
  "OC": 9162,
  "▁acepta": 9163,
  "derson": 9164,
  "▁Cabe": 9165,
  "gers": 9166,
  "▁caballero": 9167,
  "▁demon": 9168,
  "▁griegos": 9169,
  "▁escultor": 9170,
  "▁Existe": 9171,
  "ors": 9172,
  "▁marcado": 9173,
  "▁argent": 9174,
  "▁jurado": 9175,
  "Si": 9176,
  "▁River": 9177,
  "jera": 9178,
  "▁9.": 9179,
  "rend": 9180,
  "▁acuerdos": 9181,
  "pista": 9182,
  "▁Chap": 9183,
  "▁Asunci": 9184,
  "cro": 9185,
  "▁provoca": 9186,
  "▁Spe": 9187,
  "▁variante": 9188,
  "▁dicen": 9189,
  "▁impe": 9190,
  "▁confi": 9191,
  "▁adquisici": 9192,
  "▁Gregorio": 9193,
  "gida": 9194,
  "▁simbol": 9195,
  "▁aden": 9196,
  "▁mejoras": 9197,
  "▁dibujo": 9198,
  "▁otorgado": 9199,
  "▁acumul": 9200,
  "▁Conde": 9201,
  "ugosla": 9202,
  "▁docente": 9203,
  "▁tratando": 9204,
  "▁solicitud": 9205,
  "▁brig": 9206,
  "▁cima": 9207,
  "▁Arquitec": 9208,
  "▁ficti": 9209,
  "▁crearon": 9210,
  "▁neuro": 9211,
  "▁marcador": 9212,
  "andr": 9213,
  "▁cotidi": 9214,
  "OM": 9215,
  "▁memb": 9216,
  "▁ocurrido": 9217,
  "▁History": 9218,
  "entada": 9219,
  "▁oposi": 9220,
  "▁doctorado": 9221,
  "▁Stor": 9222,
  "▁Ku": 9223,
  "▁Pascu": 9224,
  "▁centra": 9225,
  "onto": 9226,
  "▁Vers": 9227,
  "▁salto": 9228,
  "▁Group": 9229,
  "▁ensayo": 9230,
  "▁Ruta": 9231,
  "▁Agencia": 9232,
  "▁renomb": 9233,
  "data": 9234,
  "▁apa": 9235,
  "direc": 9236,
  "▁Santander": 9237,
  "▁combatir": 9238,
  "▁acaba": 9239,
  "▁Apo": 9240,
  "▁String": 9241,
  "▁visitas": 9242,
  "▁ecos": 9243,
  "▁dieta": 9244,
  "▁165": 9245,
  "ucran": 9246,
  "▁Vide": 9247,
  "▁Flo": 9248,
  "tua": 9249,
  "PD": 9250,
  "▁soy": 9251,
  "py": 9252,
  "▁compone": 9253,
  "▁Facebook": 9254,
  "▁delito": 9255,
  "ax": 9256,
  "▁roca": 9257,
  "▁Comb": 9258,
  "▁kg": 9259,
  "▁romper": 9260,
  "▁impidi": 9261,
  "gata": 9262,
  "▁Cho": 9263,
  "▁adecuada": 9264,
  "lculo": 9265,
  "▁muere": 9266,
  "▁discre": 9267,
  "▁simb": 9268,
  "▁49": 9269,
  "▁YouTube": 9270,
  "▁jefes": 9271,
  "▁Oficial": 9272,
  "▁espe": 9273,
  "olla": 9274,
  "mpico": 9275,
  "▁Valenci": 9276,
  "▁Mayo": 9277,
  "▁discri": 9278,
  "▁evacu": 9279,
  "now": 9280,
  "▁Cham": 9281,
  "cano": 9282,
  "haus": 9283,
  "▁traspas": 9284,
  "▁digitales": 9285,
  "pacidad": 9286,
  "▁Napole": 9287,
  "ector": 9288,
  "colo": 9289,
  "escri": 9290,
  "▁artesan": 9291,
  "▁Eliz": 9292,
  "▁conclusi": 9293,
  "siles": 9294,
  "▁emprendi": 9295,
  "▁Isa": 9296,
  "▁Jard": 9297,
  "▁advers": 9298,
  "▁simpl": 9299,
  "▁fusil": 9300,
  "▁consist": 9301,
  "▁neer": 9302,
  "▁lesiones": 9303,
  "▁rodaje": 9304,
  "▁Mans": 9305,
  "▁cabe": 9306,
  "ruecos": 9307,
  "▁indican": 9308,
  "▁Ala": 9309,
  "this": 9310,
  "time": 9311,
  "pr": 9312,
  "▁compens": 9313,
  "▁limitado": 9314,
  "rti": 9315,
  "bitat": 9316,
  "▁IX": 9317,
  "udas": 9318,
  "▁monarca": 9319,
  "▁amistos": 9320,
  "▁sindica": 9321,
  "ulario": 9322,
  "▁rumbo": 9323,
  "tens": 9324,
  "▁correcta": 9325,
  "▁contraste": 9326,
  "▁ecol": 9327,
  "ref": 9328,
  "▁sustan": 9329,
  "BI": 9330,
  "▁Informaci": 9331,
  "▁terminado": 9332,
  "▁WWE": 9333,
  "▁Taylor": 9334,
  "▁Estoy": 9335,
  "▁Rojas": 9336,
  "▁demol": 9337,
  "▁halla": 9338,
  "▁llena": 9339,
  "▁Tokio": 9340,
  "▁Vietnam": 9341,
  "▁soberan": 9342,
  "▁1967": 9343,
  "▁Ok": 9344,
  "▁nobleza": 9345,
  "▁Romero": 9346,
  "▁Varios": 9347,
  "▁impresi": 9348,
  "inea": 9349,
  "▁string": 9350,
  "▁protesta": 9351,
  "▁flam": 9352,
  "▁Esper": 9353,
  "▁retiro": 9354,
  "nol": 9355,
  "guas": 9356,
  "▁2002.": 9357,
  "Station": 9358,
  "▁Fra": 9359,
  "▁ago": 9360,
  "▁Trad": 9361,
  "▁Doug": 9362,
  "▁nativos": 9363,
  "▁Angel": 9364,
  "▁correr": 9365,
  "iev": 9366,
  "▁Rick": 9367,
  "▁legislaci": 9368,
  "▁cerrado": 9369,
  "▁Mercedes": 9370,
  "▁Fig": 9371,
  "▁rub": 9372,
  "▁figur": 9373,
  "▁videos": 9374,
  "▁esencial": 9375,
  "▁delitos": 9376,
  "▁multiplic": 9377,
  "▁1971": 9378,
  "▁jueves": 9379,
  "rdidas": 9380,
  "▁2001.": 9381,
  "▁Cabo": 9382,
  "▁Island": 9383,
  "▁Primero": 9384,
  "EG": 9385,
  "▁Bow": 9386,
  "▁rehabil": 9387,
  "▁liberales": 9388,
  "query": 9389,
  "▁Palma": 9390,
  "▁parcial": 9391,
  "arle": 9392,
  "js": 9393,
  "uido": 9394,
  "▁Lev": 9395,
  "▁ampliaci": 9396,
  "▁Revista": 9397,
  "▁jesu": 9398,
  "▁Deportes": 9399,
  "▁larg": 9400,
  "▁Tig": 9401,
  "rente": 9402,
  "▁Bun": 9403,
  "zy": 9404,
  "▁Grandes": 9405,
  "tant": 9406,
  ".;": 9407,
  "▁Yan": 9408,
  "▁renovaci": 9409,
  "▁God": 9410,
  "rimir": 9411,
  "▁subir": 9412,
  "▁cantar": 9413,
  "ae": 9414,
  "ette": 9415,
  "ganza": 9416,
  "▁evaluaci": 9417,
  "▁haga": 9418,
  "▁hayan": 9419,
  "radas": 9420,
  "▁infecci": 9421,
  "▁estatales": 9422,
  "fonos": 9423,
  "▁seco": 9424,
  "-,": 9425,
  "▁peda": 9426,
  "▁anuales": 9427,
  "▁restring": 9428,
  "▁sorpresa": 9429,
  "49": 9430,
  "▁orillas": 9431,
  "-),": 9432,
  "Cal": 9433,
  "▁famosos": 9434,
  "▁reloj": 9435,
  "▁dejaron": 9436,
  "▁lum": 9437,
  "▁positiva": 9438,
  "PC": 9439,
  "cess": 9440,
  "itadas": 9441,
  "▁anillo": 9442,
  "▁isl": 9443,
  "▁Hong": 9444,
  "▁psicol": 9445,
  "▁Obs": 9446,
  "▁desv": 9447,
  "▁electro": 9448,
  "$.": 9449,
  "▁predic": 9450,
  "▁Clo": 9451,
  "▁probar": 9452,
  "here": 9453,
  "▁anime": 9454,
  "▁sober": 9455,
  "▁cerrar": 9456,
  "esas": 9457,
  "▁persecuci": 9458,
  "▁llevando": 9459,
  "TR": 9460,
  "▁Pir": 9461,
  "▁introduci": 9462,
  "tituy": 9463,
  "▁bin": 9464,
  "▁Fies": 9465,
  "▁fort": 9466,
  "parte": 9467,
  "▁hogares": 9468,
  "▁tantos": 9469,
  "▁tens": 9470,
  "▁condujo": 9471,
  "▁Editorial": 9472,
  "▁expec": 9473,
  "entarias": 9474,
  "rad": 9475,
  "istrativo": 9476,
  "usia": 9477,
  "▁Extre": 9478,
  "▁Infan": 9479,
  "▁158": 9480,
  "▁desple": 9481,
  "▁visible": 9482,
  "deas": 9483,
  "▁boda": 9484,
  "▁sugiri": 9485,
  "▁pulgadas": 9486,
  "▁1945": 9487,
  "▁sesenta": 9488,
  "▁calcul": 9489,
  "▁discusi": 9490,
  "AA": 9491,
  "▁Irak": 9492,
  "alar": 9493,
  "tren": 9494,
  "IB": 9495,
  "▁nobles": 9496,
  "▁ester": 9497,
  "▁previo": 9498,
  "cionada": 9499,
  "▁refleja": 9500,
  "▁Cuar": 9501,
  "▁moto": 9502,
  "▁Nos": 9503,
  "▁heredero": 9504,
  "▁rod": 9505,
  "fan": 9506,
  "▁distingu": 9507,
  "nan": 9508,
  "nen": 9509,
  "▁Bomb": 9510,
  "▁cura": 9511,
  "hl": 9512,
  "▁85": 9513,
  "QL": 9514,
  "▁flan": 9515,
  "▁blancas": 9516,
  "▁Land": 9517,
  "▁tron": 9518,
  "▁eligi": 9519,
  "non": 9520,
  "▁glaci": 9521,
  "ecos": 9522,
  "▁ABC": 9523,
  "▁habil": 9524,
  "▁sinti": 9525,
  "▁tarjeta": 9526,
  "ucado": 9527,
  "▁dosis": 9528,
  "▁rayos": 9529,
  "▁cuentos": 9530,
  "▁convoca": 9531,
  "▁Condado": 9532,
  "▁priva": 9533,
  "ilvania": 9534,
  "▁Selecci": 9535,
  "▁basados": 9536,
  "clopedia": 9537,
  "landesa": 9538,
  "gente": 9539,
  "ship": 9540,
  "poles": 9541,
  "▁Team": 9542,
  "▁dedica": 9543,
  "▁implement": 9544,
  "▁desierto": 9545,
  "imb": 9546,
  "▁integral": 9547,
  "▁Magdalena": 9548,
  "▁navegaci": 9549,
  "▁debemos": 9550,
  "▁uniforme": 9551,
  "▁aparte": 9552,
  "▁Jeff": 9553,
  "▁PR": 9554,
  "than": 9555,
  "onarios": 9556,
  "▁pur": 9557,
  "▁mide": 9558,
  "▁batallas": 9559,
  "▁abarca": 9560,
  "▁sufrido": 9561,
  "▁ucran": 9562,
  "▁arroz": 9563,
  "▁conduce": 9564,
  "▁rectang": 9565,
  "▁Jal": 9566,
  "lace": 9567,
  "▁Tiempo": 9568,
  "liz": 9569,
  "▁filial": 9570,
  "▁Convenci": 9571,
  "▁Fueron": 9572,
  "▁reemplazo": 9573,
  "▁London": 9574,
  "tograf": 9575,
  "▁Capital": 9576,
  "▁previa": 9577,
  "▁altamente": 9578,
  "nich": 9579,
  "▁premi": 9580,
  "▁Jar": 9581,
  "Can": 9582,
  "ptica": 9583,
  "▁hard": 9584,
  "▁quieres": 9585,
  "▁solista": 9586,
  ".-": 9587,
  "nomo": 9588,
  "-16": 9589,
  "▁Ash": 9590,
  "▁colonos": 9591,
  "▁gabinete": 9592,
  "▁ber": 9593,
  "▁ganader": 9594,
  "cura": 9595,
  "▁curva": 9596,
  "oman": 9597,
  "▁fallecido": 9598,
  "▁aclar": 9599,
  "▁batall": 9600,
  "▁profesi": 9601,
  "▁pasan": 9602,
  "▁marina": 9603,
  "▁dup": 9604,
  "▁Viejo": 9605,
  "▁Tener": 9606,
  "▁catalog": 9607,
  "▁168": 9608,
  "▁aplica": 9609,
  "▁Ath": 9610,
  "▁Ever": 9611,
  "▁monstru": 9612,
  "▁mortal": 9613,
  "▁even": 9614,
  "▁atravi": 9615,
  "idalgo": 9616,
  "▁Pales": 9617,
  "▁automo": 9618,
  "▁cuadros": 9619,
  "▁quedado": 9620,
  "▁conc": 9621,
  "km": 9622,
  "▁dudas": 9623,
  "▁examen": 9624,
  "▁1989,": 9625,
  "uerte": 9626,
  "▁Gam": 9627,
  "sch": 9628,
  "▁boliv": 9629,
  "▁Diputados": 9630,
  "lanes": 9631,
  "▁Hard": 9632,
  "uble": 9633,
  "▁But": 9634,
  "▁arre": 9635,
  "nec": 9636,
  "▁paralelo": 9637,
  "▁organiza": 9638,
  "text": 9639,
  "▁Cav": 9640,
  "gri": 9641,
  "▁relieve": 9642,
  "▁marr": 9643,
  "▁bando": 9644,
  "▁magnitud": 9645,
  "trar": 9646,
  "▁radiaci": 9647,
  "▁Liv": 9648,
  "hara": 9649,
  "▁restable": 9650,
  "▁iniciales": 9651,
  "ntos": 9652,
  "▁alcanzado": 9653,
  "▁pat": 9654,
  "String": 9655,
  "▁creador": 9656,
  "izaciones": 9657,
  "▁enfoc": 9658,
  "medio": 9659,
  "▁onda": 9660,
  "▁cae": 9661,
  "▁Marruecos": 9662,
  "▁gigante": 9663,
  "▁ensayos": 9664,
  "ufici": 9665,
  "▁sostiene": 9666,
  "-198": 9667,
  "▁transcur": 9668,
  "▁cro": 9669,
  "▁llevada": 9670,
  "jeras": 9671,
  "▁describir": 9672,
  "▁Giovan": 9673,
  "emora": 9674,
  "▁socios": 9675,
  "▁Atenas": 9676,
  "▁sucede": 9677,
  "▁recorri": 9678,
  "▁preparar": 9679,
  "▁desn": 9680,
  "▁Gales": 9681,
  "▁cobre": 9682,
  "▁Miranda": 9683,
  "▁permitido": 9684,
  "▁rico": 9685,
  "▁ignor": 9686,
  "ierro": 9687,
  "▁restric": 9688,
  "▁servidor": 9689,
  "▁tranqu": 9690,
  "▁Maj": 9691,
  "▁Kenne": 9692,
  "▁disoluci": 9693,
  "▁filme": 9694,
  "▁recordar": 9695,
  "▁cercanas": 9696,
  "▁Gonzalo": 9697,
  "▁Alan": 9698,
  "▁Romano": 9699,
  "▁firmar": 9700,
  "▁monarqu": 9701,
  "▁asisten": 9702,
  "▁46": 9703,
  "▁suspensi": 9704,
  "▁refugio": 9705,
  "ndrome": 9706,
  "▁entero": 9707,
  "▁rescate": 9708,
  "▁recurso": 9709,
  "tega": 9710,
  "▁verdes": 9711,
  "▁1939": 9712,
  "▁afro": 9713,
  "gencia": 9714,
  "▁barra": 9715,
  "▁guarda": 9716,
  "▁rostro": 9717,
  "PA": 9718,
  "▁1990.": 9719,
  "vent": 9720,
  "trie": 9721,
  "▁opiniones": 9722,
  "▁Zamora": 9723,
  "▁By": 9724,
  "▁Cob": 9725,
  "izca": 9726,
  "▁provocar": 9727,
  "▁bis": 9728,
  "lib": 9729,
  "▁frutos": 9730,
  "▁puertos": 9731,
  "▁Debut": 9732,
  "▁Femen": 9733,
  "▁efectiva": 9734,
  "▁avances": 9735,
  "ground": 9736,
  "▁espalda": 9737,
  "cambi": 9738,
  "▁sar": 9739,
  "bren": 9740,
  "bury": 9741,
  "▁cubre": 9742,
  "igi": 9743,
  "▁masas": 9744,
  "▁inac": 9745,
  "▁1964": 9746,
  "▁crucero": 9747,
  "▁plazas": 9748,
  "ulla": 9749,
  "▁alquil": 9750,
  "▁cabello": 9751,
  "00.": 9752,
  "▁masculino": 9753,
  "▁responder": 9754,
  "▁Cartagena": 9755,
  "▁martes": 9756,
  "▁vistas": 9757,
  "▁Suc": 9758,
  "tella": 9759,
  "ules": 9760,
  "▁lis": 9761,
  "▁serp": 9762,
  "abilidades": 9763,
  "▁Ciencia": 9764,
  "▁descanso": 9765,
  "▁ov": 9766,
  "penden": 9767,
  "46": 9768,
  "▁Racing": 9769,
  "▁heb": 9770,
  "▁traslado": 9771,
  "EF": 9772,
  "▁reservas": 9773,
  "▁anunciado": 9774,
  "ducto": 9775,
  "▁conductor": 9776,
  "ugby": 9777,
  "menos": 9778,
  "▁Ernesto": 9779,
  "dical": 9780,
  "▁peg": 9781,
  "bec": 9782,
  "▁privados": 9783,
  "▁cedi": 9784,
  "▁conducir": 9785,
  "lista": 9786,
  "▁Roger": 9787,
  "▁custo": 9788,
  "▁unieron": 9789,
  "▁heridas": 9790,
  "▁Proyecto": 9791,
  "▁not": 9792,
  "uki": 9793,
  "▁reorganiz": 9794,
  "▁citado": 9795,
  "itt": 9796,
  "▁extinci": 9797,
  "▁rica": 9798,
  "Te": 9799,
  "▁aprobado": 9800,
  "carriles": 9801,
  "enia": 9802,
  "▁propuesto": 9803,
  "▁Control": 9804,
  "▁extensa": 9805,
  "▁pretend": 9806,
  "▁lanzaron": 9807,
  "puso": 9808,
  "▁Anth": 9809,
  "▁proxim": 9810,
  "▁antece": 9811,
  "untamente": 9812,
  "▁permanece": 9813,
  "▁void": 9814,
  "▁ed": 9815,
  "▁sobrino": 9816,
  "▁neutr": 9817,
  "▁Termin": 9818,
  "By": 9819,
  "▁medir": 9820,
  "iego": 9821,
  "liga": 9822,
  "ql": 9823,
  "▁asimismo": 9824,
  "▁Ron": 9825,
  "acios": 9826,
  "▁explosi": 9827,
  "stamo": 9828,
  "▁extremos": 9829,
  "▁vidrio": 9830,
  "▁pecho": 9831,
  "▁exitos": 9832,
  "wan": 9833,
  "▁Energ": 9834,
  "risto": 9835,
  "▁9,": 9836,
  "▁Ross": 9837,
  "▁herido": 9838,
  "▁virtud": 9839,
  "▁herencia": 9840,
  "▁Lab": 9841,
  "iter": 9842,
  "▁soldado": 9843,
  "▁delantero": 9844,
  "▁Aran": 9845,
  "▁Alma": 9846,
  "▁puntuaci": 9847,
  "trices": 9848,
  "▁Filosof": 9849,
  "ROM": 9850,
  "▁Bad": 9851,
  "▁Java": 9852,
  "▁colap": 9853,
  "▁1966": 9854,
  "▁Nas": 9855,
  "istemas": 9856,
  "vieran": 9857,
  "bes": 9858,
  "restling": 9859,
  "▁elegidos": 9860,
  "▁Vlad": 9861,
  "eres": 9862,
  "raba": 9863,
  "▁pales": 9864,
  "▁simples": 9865,
  "78": 9866,
  "usas": 9867,
  "▁chinos": 9868,
  "abal": 9869,
  "▁Molina": 9870,
  "▁incluidas": 9871,
  "▁Janeiro": 9872,
  "▁Android": 9873,
  "▁detalle": 9874,
  "▁ingen": 9875,
  "▁interacci": 9876,
  "tifici": 9877,
  "▁configur": 9878,
  "▁vigor": 9879,
  "cripciones": 9880,
  "▁logo": 9881,
  "▁siquiera": 9882,
  "▁Pun": 9883,
  "iebre": 9884,
  "▁Sony": 9885,
  "▁fores": 9886,
  "▁dichas": 9887,
  "▁Trinidad": 9888,
  "▁reciben": 9889,
  "geo": 9890,
  "rmol": 9891,
  "▁tin": 9892,
  "▁Jam": 9893,
  "▁ave": 9894,
  "▁transpar": 9895,
  "ladas": 9896,
  "▁impulso": 9897,
  "▁Sing": 9898,
  "▁sucedido": 9899,
  "▁Out": 9900,
  "▁armado": 9901,
  "▁43": 9902,
  "▁Awards": 9903,
  "mbolos": 9904,
  "▁Rena": 9905,
  "▁supues": 9906,
  "▁Autor": 9907,
  "▁Sici": 9908,
  "▁dividido": 9909,
  "imal": 9910,
  "▁sonidos": 9911,
  "▁riesgos": 9912,
  "▁integrada": 9913,
  "▁Paso": 9914,
  "▁Bru": 9915,
  "▁secuela": 9916,
  "venciones": 9917,
  "▁helic": 9918,
  "vir": 9919,
  "▁East": 9920,
  "▁perfecto": 9921,
  "▁ec": 9922,
  "▁huesos": 9923,
  "▁Josef": 9924,
  "▁XII": 9925,
  "▁Exposici": 9926,
  "▁Dy": 9927,
  "▁Claus": 9928,
  "▁inspirado": 9929,
  "▁1965": 9930,
  "▁Karl": 9931,
  "▁vecino": 9932,
  "▁emplaz": 9933,
  "▁capas": 9934,
  "▁vamos": 9935,
  "▁manio": 9936,
  "▁armada": 9937,
  "▁ONU": 9938,
  "▁incons": 9939,
  "▁Veracruz": 9940,
  "▁viuda": 9941,
  "ej": 9942,
  "ansas": 9943,
  "▁fle": 9944,
  "▁gem": 9945,
  "▁insectos": 9946,
  "▁valenci": 9947,
  "▁Guardi": 9948,
  "▁implan": 9949,
  "ijo": 9950,
  "odos": 9951,
  "▁presa": 9952,
  "leto": 9953,
  "▁Margarita": 9954,
  "▁pudieran": 9955,
  "▁Arthur": 9956,
  "▁ideolog": 9957,
  "▁Campeones": 9958,
  "▁Quito": 9959,
  "mus": 9960,
  "ensis": 9961,
  "▁Michel": 9962,
  "42": 9963,
  "▁supre": 9964,
  "uria": 9965,
  "▁feliz": 9966,
  "Sal": 9967,
  "▁Ub": 9968,
  "▁desvi": 9969,
  "▁paseo": 9970,
  "▁alimento": 9971,
  "▁Foot": 9972,
  "lice": 9973,
  "▁promin": 9974,
  "▁creen": 9975,
  "▁gratuita": 9976,
  "▁usos": 9977,
  "▁regla": 9978,
  "▁pares": 9979,
  "Ph": 9980,
  "▁separa": 9981,
  "asas": 9982,
  "▁extens": 9983,
  "▁Brook": 9984,
  "pocas": 9985,
  "▁trece": 9986,
  "▁conjuntos": 9987,
  "▁ida": 9988,
  "▁autos": 9989,
  "▁Raw": 9990,
  "contin": 9991,
  "iese": 9992,
  "▁absoluto": 9993,
  "▁Lleg": 9994,
  "▁Good": 9995,
  "▁Hidalgo": 9996,
  "▁concesi": 9997,
  "▁neur": 9998,
  "▁ornam": 9999,
  "entarios": 10000,
  "▁Final": 10001,
  "▁emitir": 10002,
  "▁him": 10003,
  "▁XVI": 10004,
  "▁cruce": 10005,
  "▁gravedad": 10006,
  "▁mantienen": 10007,
  "▁relatos": 10008,
  "▁95": 10009,
  "▁Montes": 10010,
  "▁tercio": 10011,
  "▁traje": 10012,
  "▁inex": 10013,
  "▁Roja": 10014,
  "cida": 10015,
  "▁vestido": 10016,
  "▁Vida": 10017,
  "▁plato": 10018,
  "▁Falleci": 10019,
  "tream": 10020,
  "sur": 10021,
  "drich": 10022,
  "').": 10023,
  "▁Canci": 10024,
  "▁Post": 10025,
  "▁vuelto": 10026,
  "▁Mira": 10027,
  "torce": 10028,
  "▁expl": 10029,
  "▁patrones": 10030,
  "▁emitido": 10031,
  "▁mencionar": 10032,
  "medo": 10033,
  "▁cortos": 10034,
  "▁hero": 10035,
  "▁fronter": 10036,
  "▁Kaz": 10037,
  "▁drag": 10038,
  "▁elevada": 10039,
  "thy": 10040,
  "▁Cambridge": 10041,
  "idaci": 10042,
  "gy": 10043,
  "▁marcar": 10044,
  "▁vocalista": 10045,
  "▁Luz": 10046,
  "rbita": 10047,
  "▁Lara": 10048,
  "ather": 10049,
  "▁imag": 10050,
  "▁melod": 10051,
  "▁0;": 10052,
  "uestro": 10053,
  "▁virtual": 10054,
  "/19": 10055,
  "▁armon": 10056,
  "onamiento": 10057,
  "tn": 10058,
  "▁avis": 10059,
  "▁Sof": 10060,
  "undamente": 10061,
  "▁159": 10062,
  "iosos": 10063,
  "▁Samuel": 10064,
  "▁abol": 10065,
  "▁sumar": 10066,
  "▁efic": 10067,
  "▁type": 10068,
  "▁Kan": 10069,
  "▁afecta": 10070,
  "▁inyec": 10071,
  "▁talla": 10072,
  "▁domici": 10073,
  "▁Inte": 10074,
  "▁represi": 10075,
  "ttps": 10076,
  "▁1999.": 10077,
  "▁doctrina": 10078,
  "▁impuesto": 10079,
  "▁huir": 10080,
  "▁Vargas": 10081,
  "▁progreso": 10082,
  "nculo": 10083,
  "▁Lord": 10084,
  "▁pastor": 10085,
  "▁glob": 10086,
  "▁nieve": 10087,
  "ness": 10088,
  "▁desci": 10089,
  "▁empu": 10090,
  "▁Victor": 10091,
  "▁franco": 10092,
  "conoci": 10093,
  "▁portal": 10094,
  "ceres": 10095,
  "▁indicar": 10096,
  "ximas": 10097,
  "▁cristiano": 10098,
  "▁Avi": 10099,
  "atl": 10100,
  "izos": 10101,
  "condado": 10102,
  "tiza": 10103,
  "▁Aun": 10104,
  "▁Hom": 10105,
  "▁asegura": 10106,
  "▁postura": 10107,
  "▁Evangel": 10108,
  "iliar": 10109,
  "▁orilla": 10110,
  "▁cubierto": 10111,
  "bras": 10112,
  "▁ceb": 10113,
  "▁Perman": 10114,
  "▁propone": 10115,
  "▁Indias": 10116,
  "▁Marie": 10117,
  "▁Muse": 10118,
  "▁contemp": 10119,
  "77": 10120,
  "▁supl": 10121,
  "▁Elena": 10122,
  "▁console": 10123,
  "▁paquete": 10124,
  "▁156": 10125,
  "▁destacada": 10126,
  "▁mercanc": 10127,
  "▁Cort": 10128,
  "▁che": 10129,
  "▁Valent": 10130,
  "▁telef": 10131,
  "▁Benito": 10132,
  "▁UEFA": 10133,
  "▁embal": 10134,
  "nsito": 10135,
  "▁Realiz": 10136,
  "▁plen": 10137,
  "▁cuidados": 10138,
  "▁surge": 10139,
  "▁llamarse": 10140,
  "igual": 10141,
  "▁meteor": 10142,
  "▁capturado": 10143,
  "▁Operaci": 10144,
  "▁Eso": 10145,
  "▁Medalla": 10146,
  "▁ganaron": 10147,
  "arch": 10148,
  "▁darse": 10149,
  "EA": 10150,
  "▁margin": 10151,
  "CD": 10152,
  "uevas": 10153,
  "▁temprano": 10154,
  "▁arter": 10155,
  "feo": 10156,
  "▁Hispano": 10157,
  "▁finalidad": 10158,
  "▁poderoso": 10159,
  "yd": 10160,
  "▁Studios": 10161,
  "▁guionista": 10162,
  "41": 10163,
  "ficaz": 10164,
  "▁encargada": 10165,
  "med": 10166,
  "rqu": 10167,
  "▁masac": 10168,
  "▁Apertura": 10169,
  "▁frutas": 10170,
  "ivin": 10171,
  "▁(6": 10172,
  "▁necesito": 10173,
  "▁Nacido": 10174,
  "▁(,": 10175,
  "▁colectivo": 10176,
  "date": 10177,
  "▁decidir": 10178,
  "quest": 10179,
  "▁exitoso": 10180,
  "ede": 10181,
  "▁cuartel": 10182,
  "▁cuento": 10183,
  "inosa": 10184,
  "▁(10": 10185,
  "▁psico": 10186,
  "▁observaci": 10187,
  "▁wh": 10188,
  "▁pi": 10189,
  "▁consola": 10190,
  "▁imagin": 10191,
  "▁ciudadan": 10192,
  "osh": 10193,
  "▁1963": 10194,
  "▁Prado": 10195,
  "▁Pak": 10196,
  "▁Lewis": 10197,
  "▁Ball": 10198,
  "▁diarios": 10199,
  "▁prevenir": 10200,
  "▁rueda": 10201,
  "▁desin": 10202,
  "▁literario": 10203,
  "▁Geo": 10204,
  "▁trazado": 10205,
  "▁sorprendi": 10206,
  "▁jub": 10207,
  "▁Naval": 10208,
  "▁Tecnolog": 10209,
  "▁rean": 10210,
  "▁Ali": 10211,
  "etales": 10212,
  "fice": 10213,
  "▁log": 10214,
  "▁irre": 10215,
  "▁estrech": 10216,
  "▁recepci": 10217,
  "▁mediterr": 10218,
  "press": 10219,
  "iladel": 10220,
  "▁sof": 10221,
  "▁1962": 10222,
  "pher": 10223,
  "▁vertical": 10224,
  "▁eficaz": 10225,
  "etts": 10226,
  "▁Dise": 10227,
  "▁rosa": 10228,
  "▁Sob": 10229,
  "▁educativo": 10230,
  "▁sencilla": 10231,
  "▁Power": 10232,
  "▁minerales": 10233,
  "▁41": 10234,
  "▁animada": 10235,
  "lins": 10236,
  "▁polaco": 10237,
  "▁Open": 10238,
  "▁Network": 10239,
  "ASA": 10240,
  "▁demuestra": 10241,
  "UU": 10242,
  "▁Vera": 10243,
  "▁excep": 10244,
  "▁).": 10245,
  "▁Servicios": 10246,
  "▁complejos": 10247,
  "llan": 10248,
  "▁bicicle": 10249,
  "▁52": 10250,
  "▁vence": 10251,
  "uni": 10252,
  "▁muertes": 10253,
  "pat": 10254,
  "turaci": 10255,
  "olution": 10256,
  "dros": 10257,
  "▁chicas": 10258,
  "43": 10259,
  "▁manual": 10260,
  "icismo": 10261,
  "▁federales": 10262,
  "gru": 10263,
  "▁Ll": 10264,
  "▁futur": 10265,
  "▁costumbre": 10266,
  "▁casarse": 10267,
  "rededor": 10268,
  "▁Monter": 10269,
  "guila": 10270,
  "▁adquirido": 10271,
  "itudes": 10272,
  "▁Foro": 10273,
  "▁Hip": 10274,
  "▁pretende": 10275,
  "▁Luisa": 10276,
  "▁conducta": 10277,
  "▁requieren": 10278,
  "▁predeces": 10279,
  "▁bloques": 10280,
  "▁caliente": 10281,
  "frac": 10282,
  "plan": 10283,
  "▁naz": 10284,
  "ement": 10285,
  "wski": 10286,
  "ecas": 10287,
  "rile": 10288,
  "▁electo": 10289,
  "▁remonta": 10290,
  "▁enz": 10291,
  "▁labores": 10292,
  "hoy": 10293,
  "▁luna": 10294,
  "wick": 10295,
  "▁AL": 10296,
  "sky": 10297,
  "▁Sigu": 10298,
  "redientes": 10299,
  "▁infin": 10300,
  "▁1950,": 10301,
  "▁pasi": 10302,
  "▁aparecido": 10303,
  "ierta": 10304,
  "ificada": 10305,
  "ize": 10306,
  "...]": 10307,
  "enza": 10308,
  "▁dividida": 10309,
  "▁Massa": 10310,
  "utica": 10311,
  "▁reduce": 10312,
  "▁Toda": 10313,
  "▁tap": 10314,
  "▁1/": 10315,
  "buses": 10316,
  "▁Camino": 10317,
  "▁orgul": 10318,
  "▁Apol": 10319,
  "▁Thea": 10320,
  "hard": 10321,
  "▁let": 10322,
  "▁Series": 10323,
  "▁copro": 10324,
  "▁conecta": 10325,
  "▁unido": 10326,
  "▁dividir": 10327,
  "▁Dark": 10328,
  "▁confes": 10329,
  "▁Hil": 10330,
  "▁Digital": 10331,
  "▁ans": 10332,
  "▁card": 10333,
  "plona": 10334,
  "▁Tech": 10335,
  "▁rechazo": 10336,
  "tid": 10337,
  "▁58": 10338,
  "acidad": 10339,
  "▁1941": 10340,
  "▁Laura": 10341,
  "▁iguales": 10342,
  "▁Liberal": 10343,
  "▁Barb": 10344,
  "▁Pob": 10345,
  "▁Reich": 10346,
  "cleos": 10347,
  "▁analizar": 10348,
  "▁57": 10349,
  "▁crecer": 10350,
  "estado": 10351,
  "nell": 10352,
  "▁cedido": 10353,
  "sy": 10354,
  "sticamente": 10355,
  "▁ochenta": 10356,
  "▁blin": 10357,
  "fu": 10358,
  "▁planos": 10359,
  "▁Especial": 10360,
  "▁Film": 10361,
  "▁Finlandia": 10362,
  "delo": 10363,
  "▁comprensi": 10364,
  "pidos": 10365,
  "viedo": 10366,
  "▁sufrag": 10367,
  "apar": 10368,
  "▁ira": 10369,
  "▁fases": 10370,
  "ngaro": 10371,
  "ester": 10372,
  "apro": 10373,
  "lyn": 10374,
  "▁1944": 10375,
  "▁Alic": 10376,
  "▁polvo": 10377,
  "nici": 10378,
  "▁comunista": 10379,
  "▁trabajan": 10380,
  "Per": 10381,
  "paz": 10382,
  "▁Jersey": 10383,
  "▁Armadas": 10384,
  "▁ceremon": 10385,
  "▁aerol": 10386,
  "▁camar": 10387,
  "cir": 10388,
  "tif": 10389,
  "▁debes": 10390,
  "▁1958": 10391,
  "▁distinci": 10392,
  "▁lan": 10393,
  "▁get": 10394,
  "▁francesas": 10395,
  "▁toler": 10396,
  "atos": 10397,
  "▁Davis": 10398,
  "bon": 10399,
  "▁avanzar": 10400,
  "▁otorga": 10401,
  "▁existir": 10402,
  "▁singular": 10403,
  "plica": 10404,
  "▁Laguna": 10405,
  "▁Pur": 10406,
  "▁separados": 10407,
  "▁cuerdas": 10408,
  "▁iniciaron": 10409,
  "▁Port": 10410,
  "▁sexta": 10411,
  "▁petrol": 10412,
  "lula": 10413,
  "▁Ortiz": 10414,
  "▁Segundo": 10415,
  "MI": 10416,
  "obili": 10417,
  "▁amante": 10418,
  "▁convoc": 10419,
  "▁Madre": 10420,
  "▁Mora": 10421,
  "tificar": 10422,
  "▁horario": 10423,
  "tense": 10424,
  "▁legado": 10425,
  "▁setenta": 10426,
  "▁130": 10427,
  "▁Sudam": 10428,
  "mics": 10429,
  "▁tall": 10430,
  "▁usados": 10431,
  "▁tejidos": 10432,
  "versia": 10433,
  "head": 10434,
  "ndoles": 10435,
  "▁consejos": 10436,
  "/200": 10437,
  "erba": 10438,
  "inio": 10439,
  "▁frustr": 10440,
  "▁dato": 10441,
  "input": 10442,
  "▁templos": 10443,
  "▁garant": 10444,
  "▁Norteam": 10445,
  "▁nazi": 10446,
  "nticos": 10447,
  "iff": 10448,
  "irman": 10449,
  "▁catedr": 10450,
  "▁Mexicana": 10451,
  "▁sustituci": 10452,
  "▁Wrestling": 10453,
  "Po": 10454,
  "▁panor": 10455,
  "▁Fred": 10456,
  "▁Biblia": 10457,
  "▁quedarse": 10458,
  "▁Cala": 10459,
  "']": 10460,
  "Ca": 10461,
  "▁Jon": 10462,
  "▁archipi": 10463,
  "▁retirado": 10464,
  "▁reputaci": 10465,
  "ete": 10466,
  "▁pintores": 10467,
  "ELECT": 10468,
  "play": 10469,
  "▁catorce": 10470,
  "▁emplea": 10471,
  "▁Hermandad": 10472,
  "▁ecuator": 10473,
  "▁Maxim": 10474,
  "▁bille": 10475,
  "▁cohe": 10476,
  "eto": 10477,
  "▁cifras": 10478,
  "▁mont": 10479,
  "▁espon": 10480,
  "▁sufre": 10481,
  "▁incre": 10482,
  "▁Cuenca": 10483,
  "▁Christo": 10484,
  "▁retrato": 10485,
  "▁relativa": 10486,
  "▁Kra": 10487,
  "▁abundante": 10488,
  "▁bienestar": 10489,
  "▁combati": 10490,
  "▁Armen": 10491,
  "▁incurs": 10492,
  "▁mata": 10493,
  "▁Squ": 10494,
  "▁sedi": 10495,
  "sol": 10496,
  "elia": 10497,
  "▁celebrada": 10498,
  "Res": 10499,
  "sub": 10500,
  "▁ilegal": 10501,
  "▁turistas": 10502,
  "▁recuerdo": 10503,
  "▁Canta": 10504,
  "keting": 10505,
  "▁MTV": 10506,
  "CE": 10507,
  "▁Nov": 10508,
  "▁prestigio": 10509,
  "▁1988,": 10510,
  "fri": 10511,
  "▁ministros": 10512,
  "Sa": 10513,
  "▁sobresal": 10514,
  "▁iluminaci": 10515,
  "▁arbi": 10516,
  "Text": 10517,
  "duras": 10518,
  "▁variantes": 10519,
  "▁Kon": 10520,
  "▁eficiente": 10521,
  "96": 10522,
  "urrecci": 10523,
  "55": 10524,
  "▁fri": 10525,
  "▁ret": 10526,
  "▁Crea": 10527,
  "▁tablas": 10528,
  "▁tratados": 10529,
  "▁Elizabeth": 10530,
  "entando": 10531,
  "▁evangel": 10532,
  "▁Lle": 10533,
  "▁Wolf": 10534,
  "▁reunir": 10535,
  "ucci": 10536,
  "▁Pho": 10537,
  "▁rector": 10538,
  "▁Carlo": 10539,
  "▁Bang": 10540,
  "▁Bernard": 10541,
  "Or": 10542,
  "clip": 10543,
  "▁maneras": 10544,
  "▁copa": 10545,
  "quie": 10546,
  "ython": 10547,
  "▁Paris": 10548,
  "▁delim": 10549,
  "▁abaste": 10550,
  "▁fila": 10551,
  "▁cruzar": 10552,
  "▁arreglo": 10553,
  "▁Nel": 10554,
  "}{": 10555,
  "▁1948": 10556,
  "▁Madonna": 10557,
  "▁modificar": 10558,
  "teto": 10559,
  "blicamente": 10560,
  "omor": 10561,
  "▁1980.": 10562,
  "tusias": 10563,
  "▁esquema": 10564,
  "▁decidido": 10565,
  "▁Sher": 10566,
  "▁rotaci": 10567,
  "▁Tob": 10568,
  "▁1986,": 10569,
  "▁rodeado": 10570,
  "▁Bartolom": 10571,
  "▁modos": 10572,
  "▁simil": 10573,
  "iten": 10574,
  "cat": 10575,
  "ione": 10576,
  "▁comis": 10577,
  "onato": 10578,
  "▁cuch": 10579,
  "▁adquier": 10580,
  "LE": 10581,
  "▁Ri": 10582,
  "actual": 10583,
  "97": 10584,
  "Ins": 10585,
  "▁santuario": 10586,
  "andos": 10587,
  "▁Stephen": 10588,
  "▁56": 10589,
  "cientos": 10590,
  "▁Alicante": 10591,
  "▁caudal": 10592,
  "▁filos": 10593,
  "fran": 10594,
  "▁Mars": 10595,
  "▁huelga": 10596,
  "▁Benjam": 10597,
  "▁Shin": 10598,
  "▁Fondo": 10599,
  "onesia": 10600,
  "▁Ele": 10601,
  "▁Colorado": 10602,
  "alupe": 10603,
  "▁metodo": 10604,
  "traci": 10605,
  "▁platos": 10606,
  "▁barroco": 10607,
  "▁conversi": 10608,
  "▁valles": 10609,
  "▁hechas": 10610,
  "gend": 10611,
  "▁concur": 10612,
  "rillos": 10613,
  "▁escar": 10614,
  "-12": 10615,
  "tipos": 10616,
  "▁Germ": 10617,
  "▁conmemora": 10618,
  "▁comando": 10619,
  "▁Simp": 10620,
  "▁Rin": 10621,
  "▁gigantes": 10622,
  "▁creer": 10623,
  "▁impedir": 10624,
  "▁descrip": 10625,
  "▁hispano": 10626,
  "▁internos": 10627,
  "cili": 10628,
  "▁sop": 10629,
  "▁peruana": 10630,
  "▁tanques": 10631,
  "▁Dolores": 10632,
  "▁Giovanni": 10633,
  "▁asociada": 10634,
  "▁Claudio": 10635,
  "cionan": 10636,
  "▁Recibi": 10637,
  "vard": 10638,
  "▁quiso": 10639,
  "▁quieren": 10640,
  "▁2025": 10641,
  "▁Medell": 10642,
  "▁suelos": 10643,
  "izando": 10644,
  "▁adju": 10645,
  "▁Lisboa": 10646,
  "▁detectar": 10647,
  "▁Boca": 10648,
  "dere": 10649,
  "▁mantenido": 10650,
  "etti": 10651,
  "▁propon": 10652,
  "▁degrad": 10653,
  "piro": 10654,
  "▁ascendido": 10655,
  "▁denuncia": 10656,
  "micamente": 10657,
  "▁incorpora": 10658,
  "▁vs": 10659,
  "tillos": 10660,
  "▁Champion": 10661,
  "▁inclusi": 10662,
  "vento": 10663,
  "▁hembras": 10664,
  "++": 10665,
  "▁Carre": 10666,
  "unales": 10667,
  "▁Fol": 10668,
  "▁Antio": 10669,
  "▁dominante": 10670,
  "▁Forma": 10671,
  "▁(193": 10672,
  "▁dispuesto": 10673,
  "▁ambici": 10674,
  "▁Represent": 10675,
  "▁Mauricio": 10676,
  "▁exploraci": 10677,
  "▁expresa": 10678,
  "▁Florencia": 10679,
  "iblemente": 10680,
  "ding": 10681,
  "ecut": 10682,
  "▁dibuj": 10683,
  "▁atractivo": 10684,
  "▁sublev": 10685,
  "▁segmento": 10686,
  "▁1982,": 10687,
  "▁SE": 10688,
  "▁Turismo": 10689,
  "▁maestra": 10690,
  "▁genes": 10691,
  "▁dirigente": 10692,
  "itaron": 10693,
  "glo": 10694,
  "▁convocado": 10695,
  "cusi": 10696,
  "▁apres": 10697,
  "▁nieto": 10698,
  "grada": 10699,
  "copa": 10700,
  "▁externa": 10701,
  "▁instalar": 10702,
  "▁q": 10703,
  "▁casada": 10704,
  "▁PD": 10705,
  "AB": 10706,
  "▁inus": 10707,
  "▁traer": 10708,
  "ision": 10709,
  "▁ruptura": 10710,
  "▁Dream": 10711,
  "▁humedad": 10712,
  "ejo": 10713,
  "▁aver": 10714,
  "▁Beat": 10715,
  "▁Sex": 10716,
  "▁Road": 10717,
  "▁Arro": 10718,
  "▁piensa": 10719,
  "▁Alc": 10720,
  "▁cueva": 10721,
  "▁destruido": 10722,
  "obo": 10723,
  "▁Warner": 10724,
  "▁ine": 10725,
  "▁asedio": 10726,
  "▁continuo": 10727,
  "▁entusias": 10728,
  "▁Azul": 10729,
  "udos": 10730,
  "▁detenidos": 10731,
  "gener": 10732,
  "▁Saj": 10733,
  "▁1961": 10734,
  "▁1985,": 10735,
  "▁Paran": 10736,
  "▁gases": 10737,
  "tish": 10738,
  "▁reivin": 10739,
  "gor": 10740,
  "▁Conserv": 10741,
  "▁incu": 10742,
  "▁Caballero": 10743,
  "▁Ci": 10744,
  "▁giras": 10745,
  "tedra": 10746,
  "▁criterios": 10747,
  "▁else": 10748,
  "▁repos": 10749,
  "▁misiles": 10750,
  "led": 10751,
  "▁creencias": 10752,
  "▁humanas": 10753,
  "▁rivales": 10754,
  "▁Berg": 10755,
  "ett": 10756,
  "▁dim": 10757,
  "▁Electoral": 10758,
  "▁\".": 10759,
  "▁carg": 10760,
  "▁Ker": 10761,
  "ligencia": 10762,
  "▁(8": 10763,
  "▁1942": 10764,
  "▁1987,": 10765,
  "▁detenci": 10766,
  "econ": 10767,
  "▁procede": 10768,
  "untry": 10769,
  "▁responde": 10770,
  "▁140": 10771,
  "▁sistem": 10772,
  "▁monitor": 10773,
  "▁entera": 10774,
  "▁Templo": 10775,
  "▁referente": 10776,
  "rik": 10777,
  "▁vivos": 10778,
  "▁jugue": 10779,
  "▁machos": 10780,
  "▁verti": 10781,
  "▁prosper": 10782,
  "▁Ramos": 10783,
  "▁operar": 10784,
  "▁residu": 10785,
  "eller": 10786,
  "tizada": 10787,
  "0)": 10788,
  "▁inj": 10789,
  "▁Occidente": 10790,
  "▁aparato": 10791,
  "▁creencia": 10792,
  "lao": 10793,
  "cima": 10794,
  "▁lujo": 10795,
  "ced": 10796,
  "▁alegr": 10797,
  "▁Antiguo": 10798,
  "▁Juli": 10799,
  "▁Oviedo": 10800,
  "onaria": 10801,
  "▁codific": 10802,
  "▁Pav": 10803,
  "▁Mana": 10804,
  "▁1946": 10805,
  "inato": 10806,
  "▁camin": 10807,
  "ndares": 10808,
  "▁comenzado": 10809,
  "ierras": 10810,
  "▁segura": 10811,
  "▁Dam": 10812,
  "▁magistr": 10813,
  "▁1956": 10814,
  "▁Infanter": 10815,
  "gaci": 10816,
  "▁Fiscal": 10817,
  "▁extender": 10818,
  "asia": 10819,
  "▁Guadalupe": 10820,
  "▁Alba": 10821,
  "▁Kevin": 10822,
  "▁magia": 10823,
  "▁negras": 10824,
  "▁Reforma": 10825,
  "▁obst": 10826,
  "▁compuso": 10827,
  "▁Peters": 10828,
  "▁exhibici": 10829,
  "▁expecta": 10830,
  "mm": 10831,
  "▁campus": 10832,
  "Ro": 10833,
  "▁asesino": 10834,
  "copio": 10835,
  "▁laguna": 10836,
  "aver": 10837,
  "▁1998.": 10838,
  "▁aque": 10839,
  "▁1983,": 10840,
  "▁pian": 10841,
  "onista": 10842,
  "▁700": 10843,
  "▁amenazas": 10844,
  "teur": 10845,
  "▁osci": 10846,
  "IO": 10847,
  "▁bl": 10848,
  "garia": 10849,
  "▁ampliar": 10850,
  "▁Metal": 10851,
  "php": 10852,
  "▁1937": 10853,
  "rales": 10854,
  "▁1957": 10855,
  "▁conducci": 10856,
  "▁Hur": 10857,
  "inarias": 10858,
  "Ad": 10859,
  "▁porte": 10860,
  "wen": 10861,
  "▁alumno": 10862,
  "tarlo": 10863,
  "Sh": 10864,
  "▁trato": 10865,
  "▁Guy": 10866,
  "▁redi": 10867,
  "▁Bruce": 10868,
  "▁abandono": 10869,
  "▁atribuye": 10870,
  "▁Brus": 10871,
  "uertos": 10872,
  "▁oral": 10873,
  "naval": 10874,
  "▁biograf": 10875,
  "▁Adolfo": 10876,
  "rabia": 10877,
  "▁arroyo": 10878,
  "▁desea": 10879,
  "tah": 10880,
  "▁llamaba": 10881,
  "tie": 10882,
  "▁embarazo": 10883,
  "▁camiseta": 10884,
  "tricos": 10885,
  "▁virrey": 10886,
  "▁ances": 10887,
  "▁alfabe": 10888,
  "▁asignado": 10889,
  "▁iniciado": 10890,
  "▁1959": 10891,
  "istido": 10892,
  "▁fotogr": 10893,
  "▁visitante": 10894,
  "▁queso": 10895,
  "▁conviv": 10896,
  "▁placas": 10897,
  "▁2025,": 10898,
  "▁capturar": 10899,
  "stos": 10900,
  "▁liberado": 10901,
  "▁modernas": 10902,
  "▁consejero": 10903,
  "▁FIFA": 10904,
  "▁tarjetas": 10905,
  "▁masiva": 10906,
  "tarias": 10907,
  "▁Emil": 10908,
  "▁Shak": 10909,
  "▁Hizo": 10910,
  "▁ricos": 10911,
  "▁editado": 10912,
  "trieved": 10913,
  "CH": 10914,
  "▁Estuvo": 10915,
  "▁antrop": 10916,
  "omp": 10917,
  "▁pendiente": 10918,
  "▁insign": 10919,
  "▁flora": 10920,
  "▁reflex": 10921,
  "▁echo": 10922,
  "town": 10923,
  "user": 10924,
  "▁ocupada": 10925,
  "▁aprobada": 10926,
  "▁regulares": 10927,
  "▁disca": 10928,
  "chusetts": 10929,
  "▁congreso": 10930,
  "▁elogi": 10931,
  "quisi": 10932,
  "▁extrema": 10933,
  "20,": 10934,
  "▁Pamplona": 10935,
  "▁agrad": 10936,
  "▁UFC": 10937,
  "worth": 10938,
  "▁Campos": 10939,
  "▁moles": 10940,
  "▁signos": 10941,
  "▁Borb": 10942,
  "▁policial": 10943,
  "▁12,": 10944,
  "▁Calder": 10945,
  "▁Gall": 10946,
  "▁consigo": 10947,
  "▁chico": 10948,
  "▁1931": 10949,
  "▁intensa": 10950,
  "▁declarada": 10951,
  "▁ejecut": 10952,
  "▁facilidad": 10953,
  "▁Clara": 10954,
  "rma": 10955,
  "▁mineral": 10956,
  "▁ape": 10957,
  "▁Tucum": 10958,
  "▁167": 10959,
  "▁Kid": 10960,
  "▁Exper": 10961,
  "▁dividi": 10962,
  "critos": 10963,
  "iental": 10964,
  "▁1943": 10965,
  "▁1955": 10966,
  "▁ventajas": 10967,
  "▁refiri": 10968,
  "ashi": 10969,
  "lema": 10970,
  "sofo": 10971,
  "Di": 10972,
  "grafos": 10973,
  "▁aceptaci": 10974,
  "▁Velas": 10975,
  "▁explicaci": 10976,
  "▁licenci": 10977,
  "rat": 10978,
  "adic": 10979,
  "▁definido": 10980,
  "▁insufici": 10981,
  "▁reduc": 10982,
  "▁distinto": 10983,
  "▁bancar": 10984,
  "▁testigo": 10985,
  "jug": 10986,
  "▁Guinea": 10987,
  "▁conforme": 10988,
  "trado": 10989,
  "▁tubo": 10990,
  "tebr": 10991,
  "▁Obras": 10992,
  "▁divis": 10993,
  "berto": 10994,
  "▁Coraz": 10995,
  "▁sangu": 10996,
  "▁condena": 10997,
  "▁folcl": 10998,
  "▁dispers": 10999,
  "▁alemanas": 11000,
  "▁logros": 11001,
  "▁vigente": 11002,
  "▁CE": 11003,
  "▁trasera": 11004,
  "▁triste": 11005,
  "▁Mallorca": 11006,
  "terno": 11007,
  "Cl": 11008,
  "ali": 11009,
  "▁68": 11010,
  "▁Reserva": 11011,
  "▁aconse": 11012,
  "cita": 11013,
  "▁porci": 11014,
  "▁125": 11015,
  "▁orques": 11016,
  "IR": 11017,
  "ager": 11018,
  "lot": 11019,
  "▁Eng": 11020,
  "▁Uri": 11021,
  "▁inhib": 11022,
  "▁molec": 11023,
  "▁hisp": 11024,
  "▁Bet": 11025,
  "▁Hero": 11026,
  "▁mari": 11027,
  "▁Tenerife": 11028,
  "presiden": 11029,
  "▁nub": 11030,
  "▁Fantas": 11031,
  "▁Douglas": 11032,
  "▁turb": 11033,
  "andy": 11034,
  "iembro": 11035,
  "▁Dead": 11036,
  "▁alz": 11037,
  "▁Corri": 11038,
  "camiento": 11039,
  "▁Manz": 11040,
  "▁trajo": 11041,
  "▁(7": 11042,
  "▁formaba": 11043,
  "▁diagnos": 11044,
  "scara": 11045,
  "▁gato": 11046,
  "adido": 11047,
  "▁false": 11048,
  "▁fortuna": 11049,
  "▁defici": 11050,
  "▁presidi": 11051,
  "▁escasa": 11052,
  "▁hem": 11053,
  "▁auge": 11054,
  "▁devolver": 11055,
  "▁1938": 11056,
  "wig": 11057,
  "▁12.": 11058,
  "▁playas": 11059,
  "▁54": 11060,
  "valo": 11061,
  "UM": 11062,
  "▁reinos": 11063,
  "▁asim": 11064,
  "▁despl": 11065,
  "92": 11066,
  "▁med": 11067,
  "▁Valpara": 11068,
  "▁delegaci": 11069,
  "▁March": 11070,
  "▁voy": 11071,
  "▁51": 11072,
  "▁derivados": 11073,
  "▁Gian": 11074,
  "tine": 11075,
  "▁Continu": 11076,
  "▁encarga": 11077,
  "▁Marc": 11078,
  "▁vieja": 11079,
  "▁racional": 11080,
  "▁Perio": 11081,
  "tinopla": 11082,
  "▁Kam": 11083,
  "▁mitolog": 11084,
  "▁Nombre": 11085,
  "▁ciudadano": 11086,
  "▁Galer": 11087,
  "dura": 11088,
  "▁Fis": 11089,
  "ndalo": 11090,
  "▁ayer": 11091,
  "▁aero": 11092,
  "▁Justo": 11093,
  "▁afectar": 11094,
  "▁guardia": 11095,
  "▁Letras": 11096,
  "▁ef": 11097,
  "▁Ceci": 11098,
  "ineros": 11099,
  "abo": 11100,
  "▁sirven": 11101,
  "▁inmue": 11102,
  "▁comparti": 11103,
  "▁frontal": 11104,
  "▁directiva": 11105,
  "▁cartu": 11106,
  "dicion": 11107,
  "▁1933": 11108,
  "▁Agua": 11109,
  "entenario": 11110,
  "doro": 11111,
  "▁Cic": 11112,
  "▁1940,": 11113,
  "illera": 11114,
  "▁Little": 11115,
  "▁interro": 11116,
  "uelva": 11117,
  "rand": 11118,
  "▁recoge": 11119,
  "dif": 11120,
  "▁fos": 11121,
  "▁Som": 11122,
  "ights": 11123,
  "picas": 11124,
  "▁fisc": 11125,
  "▁bolsa": 11126,
  "▁roj": 11127,
  "▁enviados": 11128,
  "▁patriar": 11129,
  "▁adyac": 11130,
  "▁positivas": 11131,
  "▁11.": 11132,
  "cap": 11133,
  "▁basadas": 11134,
  "▁afectados": 11135,
  "▁prohibici": 11136,
  "▁invent": 11137,
  "▁Serbia": 11138,
  "UP": 11139,
  "▁asamblea": 11140,
  "▁viviendo": 11141,
  "▁Abd": 11142,
  "rculos": 11143,
  "▁1984,": 11144,
  "▁[...]": 11145,
  "vial": 11146,
  "▁Archivo": 11147,
  "▁Frie": 11148,
  "alado": 11149,
  "tonia": 11150,
  "▁vegetales": 11151,
  "ierte": 11152,
  "irst": 11153,
  "▁procur": 11154,
  "▁Miller": 11155,
  "▁afueras": 11156,
  "tienda": 11157,
  "▁1930,": 11158,
  "▁cerrada": 11159,
  "parti": 11160,
  "▁Mateo": 11161,
  "ondas": 11162,
  "▁especta": 11163,
  "▁intenso": 11164,
  "omun": 11165,
  "▁luces": 11166,
  "▁Sociales": 11167,
  "▁Yuca": 11168,
  "▁ines": 11169,
  "▁declara": 11170,
  "▁plantilla": 11171,
  "▁PSOE": 11172,
  "vey": 11173,
  "▁avanzada": 11174,
  "ayas": 11175,
  "▁Argel": 11176,
  "▁buscan": 11177,
  "▁Matt": 11178,
  "▁delic": 11179,
  "cratas": 11180,
  "▁solicitar": 11181,
  "▁Rose": 11182,
  "▁1973,": 11183,
  "▁1979,": 11184,
  "▁Parte": 11185,
  "▁sueco": 11186,
  "▁back": 11187,
  "▁Lang": 11188,
  "▁Brigada": 11189,
  "▁oscur": 11190,
  "▁--": 11191,
  "ambi": 11192,
  "▁toros": 11193,
  "▁suyo": 11194,
  "▁Amp": 11195,
  "bricas": 11196,
  "asis": 11197,
  "▁Rum": 11198,
  "▁Russ": 11199,
  "▁Siempre": 11200,
  "tamos": 11201,
  "▁Fire": 11202,
  "▁Nad": 11203,
  "▁joy": 11204,
  "▁1997.": 11205,
  "▁enmar": 11206,
  "▁inters": 11207,
  "▁tos": 11208,
  "▁ame": 11209,
  "▁contamin": 11210,
  "Cor": 11211,
  "▁mur": 11212,
  "▁Coru": 11213,
  "▁Gord": 11214,
  "▁concejo": 11215,
  "talia": 11216,
  "mundo": 11217,
  "IG": 11218,
  "▁poniendo": 11219,
  "▁cav": 11220,
  "▁tramos": 11221,
  "CC": 11222,
  "bach": 11223,
  "ika": 11224,
  "wich": 11225,
  "▁indirec": 11226,
  "▁resultar": 11227,
  "▁Lago": 11228,
  "nio": 11229,
  "minas": 11230,
  "▁Pino": 11231,
  "▁Rap": 11232,
  "▁mexicanos": 11233,
  "▁1947": 11234,
  "▁noches": 11235,
  "rell": 11236,
  "nova": 11237,
  "▁Juventud": 11238,
  "▁Marta": 11239,
  "vestre": 11240,
  "TML": 11241,
  "▁naranja": 11242,
  "ptico": 11243,
  "▁pisto": 11244,
  "▁dimensi": 11245,
  "rro": 11246,
  "▁Chur": 11247,
  "ink": 11248,
  "▁asientos": 11249,
  "▁Amar": 11250,
  "▁descarga": 11251,
  "utiliz": 11252,
  "▁Andrew": 11253,
  "▁fieles": 11254,
  "▁celebran": 11255,
  "▁Magn": 11256,
  "mulo": 11257,
  "▁Morris": 11258,
  "▁cumbre": 11259,
  "guirre": 11260,
  "▁clandes": 11261,
  "▁Carol": 11262,
  "▁innovaci": 11263,
  "aldo": 11264,
  "▁Oliv": 11265,
  "pool": 11266,
  "▁patas": 11267,
  "test": 11268,
  "igg": 11269,
  "ombres": 11270,
  "▁name": 11271,
  "▁Estaba": 11272,
  "▁silencio": 11273,
  "▁sabemos": 11274,
  "▁bombas": 11275,
  "▁Llo": 11276,
  "encial": 11277,
  "ganist": 11278,
  "▁recre": 11279,
  "▁impuso": 11280,
  "▁sombra": 11281,
  "/1": 11282,
  "ose": 11283,
  "-197": 11284,
  "▁166": 11285,
  "He": 11286,
  "incu": 11287,
  "▁violaci": 11288,
  "▁Blas": 11289,
  "▁Feria": 11290,
  "▁cartel": 11291,
  "▁sustituir": 11292,
  "inois": 11293,
  "▁internas": 11294,
  "▁(188": 11295,
  "▁redujo": 11296,
  "▁certamen": 11297,
  "HP": 11298,
  "▁suministr": 11299,
  "toriales": 11300,
  "▁seguida": 11301,
  "ells": 11302,
  "▁contratos": 11303,
  "cilio": 11304,
  "▁interfaz": 11305,
  "▁viajeros": 11306,
  "▁criminal": 11307,
  "▁cama": 11308,
  "▁latina": 11309,
  "▁fortific": 11310,
  "▁ordenador": 11311,
  "▁jueces": 11312,
  "▁mediano": 11313,
  "▁llaman": 11314,
  "▁medias": 11315,
  "ute": 11316,
  "▁1996.": 11317,
  "▁futura": 11318,
  "%)": 11319,
  "▁legend": 11320,
  "mentaci": 11321,
  "▁apoder": 11322,
  "▁contactos": 11323,
  "▁gor": 11324,
  "▁2-1": 11325,
  "▁Lyn": 11326,
  "▁escritas": 11327,
  "▁2022.": 11328,
  "▁puentes": 11329,
  "▁vib": 11330,
  "▁inoc": 11331,
  "▁Ces": 11332,
  "▁fallo": 11333,
  "ctricos": 11334,
  "▁limpieza": 11335,
  "▁contando": 11336,
  "▁anuncia": 11337,
  "tez": 11338,
  "▁abstr": 11339,
  "▁Velasco": 11340,
  "▁desconoce": 11341,
  "sider": 11342,
  "▁masco": 11343,
  "▁giro": 11344,
  "▁evaluar": 11345,
  "eira": 11346,
  "quierda": 11347,
  "▁redacci": 11348,
  "oleta": 11349,
  "▁chicos": 11350,
  "▁Ton": 11351,
  "▁tumb": 11352,
  "▁gimnas": 11353,
  "▁actuando": 11354,
  "▁aeronave": 11355,
  "▁reen": 11356,
  "xis": 11357,
  "▁conforman": 11358,
  "Pe": 11359,
  "bl": 11360,
  "dro": 11361,
  "▁Apro": 11362,
  "lebre": 11363,
  "▁migra": 11364,
  "off": 11365,
  "cilla": 11366,
  "▁1978,": 11367,
  "▁coopera": 11368,
  "tosa": 11369,
  "▁tripul": 11370,
  "▁favorable": 11371,
  "▁Amor": 11372,
  "▁Ras": 11373,
  "▁periodos": 11374,
  "tentr": 11375,
  "ecto": 11376,
  "▁Cant": 11377,
  "▁destinada": 11378,
  "▁Bank": 11379,
  "▁armados": 11380,
  "▁mostrando": 11381,
  "lculos": 11382,
  "▁gerente": 11383,
  ":30": 11384,
  "▁resid": 11385,
  "▁Maestro": 11386,
  "▁Eva": 11387,
  "▁Football": 11388,
  "loga": 11389,
  "▁Diputaci": 11390,
  "▁destruc": 11391,
  "trio": 11392,
  "▁NBA": 11393,
  "▁Brad": 11394,
[...]
