<unk>	0
<s>	0
</s>	0
<PAD>	0
<OOV>	0
<USR>	0
<SYS>	0
<FIN>	0
[IDEA]	0
[TENSION]	0
[PROP]	0
[DUDA]	0
[FIX]	0
[FALLO]	0
¿	0
¡	0
á	0
é	0
í	0
ó	0
ú	0
ü	0
ñ	0
Á	0
É	0
Í	0
Ó	0
Ú	0
Ñ	0
de	-0
▁de	-1
▁e	-2
▁l	-3
▁c	-4
os	-5
▁p	-6
er	-7
▁a	-8
en	-9
on	-10
ar	-11
es	-12
▁s	-13
as	-14
ci	-15
an	-16
or	-17
▁la	-18
ad	-19
▁en	-20
al	-21
ue	-22
in	-23
un	-24
re	-25
▁m	-26
▁el	-27
te	-28
▁y	-29
ti	-30
tr	-31
que	-32
ta	-33
▁es	-34
om	-35
▁con	-36
▁un	-37
di	-38
▁que	-39
to	-40
▁f	-41
▁E	-42
do	-43
ic	-44
is	-45
▁se	-46
▁h	-47
▁C	-48
ro	-49
▁n	-50
▁del	-51
▁su	-52
aci	-53
▁los	-54
▁S	-55
ol	-56
am	-57
▁A	-58
▁v	-59
▁re	-60
ri	-61
le	-62
▁L	-63
▁in	-64
▁com	-65
▁1	-66
▁o	-67
ado	-68
tu	-69
▁par	-70
▁M	-71
ra	-72
▁P	-73
▁por	-74
▁al	-75
ab	-76
▁g	-77
id	-78
ente	-79
ter	-80
res	-81
il	-82
▁las	-83
▁una	-84
▁d	-85
ul	-86
▁di	-87
▁b	-88
▁(	-89
ec	-90
ien	-91
▁2	-92
io	-93
el	-94
us	-95
mp	-96
ada	-97
▁D	-98
▁T	-99
ia	-100
▁pro	-101
▁B	-102
▁para	-103
la	-104
▁t	-105
ig	-106
▁R	-107
▁des	-108
ur	-109
▁tr	-110
ent	-111
ones	-112
ch	-113
qu	-114
▁como	-115
da	-116
lo	-117
mb	-118
ici	-119
tor	-120
▁F	-121
▁G	-122
▁El	-123
▁per	-124
it	-125
ca	-126
iz	-127
▁En	-128
ma	-129
▁cu	-130
ir	-131
▁19	-132
▁20	-133
co	-134
go	-135
▁no	-136
tos	-137
ales	-138
▁I	-139
▁N	-140
▁Es	-141
cia	-142
ando	-143
ac	-144
▁"	-145
▁La	-146
uer	-147
▁H	-148
im	-149
▁ac	-150
▁j	-151
ran	-152
▁J	-153
ica	-154
▁lo	-155
ados	-156
den	-157
ier	-158
ie	-159
ob	-160
▁fue	-161
tiv	-162
▁ex	-163
▁an	-164
se	-165
ante	-166
mer	-167
tes	-168
iv	-169
mente	-170
aj	-171
ib	-172
dad	-173
tro	-174
ay	-175
▁me	-176
idad	-177
pa	-178
▁U	-179
mo	-180
ten	-181
▁V	-182
▁est	-183
po	-184
uc	-185
um	-186
pe	-187
▁ti	-188
tra	-189
ido	-190
tre	-191
▁ser	-192
gu	-193
ico	-194
▁r	-195
▁cons	-196
cu	-197
tas	-198
▁sus	-199
▁i	-200
ce	-201
ador	-202
▁te	-203
▁to	-204
▁ar	-205
▁O	-206
der	-207
des	-208
per	-209
▁pri	-210
▁esta	-211
pu	-212
▁pr	-213
ios	-214
ida	-215
par	-216
▁res	-217
oci	-218
▁mu	-219
▁ca	-220
▁as	-221
onal	-222
tal	-223
tar	-224
00	-225
▁le	-226
dos	-227
orm	-228
▁Un	-229
ano	-230
ero	-231
ub	-232
),	-233
▁dis	-234
▁hab	-235
ers	-236
▁po	-237
iento	-238
▁ob	-239
▁primer	-240
ez	-241
ug	-242
ina	-243
cul	-244
▁or	-245
▁201	-246
gr	-247
vo	-248
gun	-249
omb	-250
cl	-251
ana	-252
▁entre	-253
▁ta	-254
▁car	-255
adas	-256
aron	-257
con	-258
ces	-259
era	-260
▁Se	-261
lan	-262
les	-263
av	-264
▁pa	-265
amente	-266
ino	-267
las	-268
▁pres	-269
▁Al	-270
).	-271
ras	-272
▁pue	-273
za	-274
los	-275
ru	-276
▁In	-277
enta	-278
▁W	-279
▁K	-280
ciones	-281
aciones	-282
encia	-283
almente	-284
ista	-285
▁Re	-286
ba	-287
fer	-288
mbi	-289
cip	-290
▁parti	-291
ne	-292
▁imp	-293
lic	-294
▁inter	-295
▁Con	-296
por	-297
▁sob	-298
▁cam	-299
▁ab	-300
he	-301
tic	-302
aliz	-303
▁200	-304
▁pre	-305
ga	-306
▁cas	-307
ior	-308
tros	-309
fic	-310
no	-311
▁si	-312
▁mo	-313
ona	-314
▁3	-315
▁qu	-316
▁mar	-317
ens	-318
ento	-319
tin	-320
vi	-321
▁fin	-322
pos	-323
▁can	-324
▁San	-325
▁fuer	-326
ara	-327
▁man	-328
▁tambi	-329
jo	-330
emp	-331
▁esc	-332
▁sobre	-333
va	-334
▁Mar	-335
isi	-336
▁lle	-337
urante	-338
▁este	-339
ismo	-340
tura	-341
duc	-342
ener	-343
til	-344
asta	-345
ble	-346
▁pos	-347
▁son	-348
▁pero	-349
fici	-350
▁col	-351
▁may	-352
min	-353
tan	-354
▁ma	-355
man	-356
▁dos	-357
▁cor	-358
ene	-359
bi	-360
tado	-361
▁Los	-362
▁18	-363
▁medi	-364
▁ha	-365
tras	-366
▁Ch	-367
ario	-368
iu	-369
onde	-370
entes	-371
ton	-372
▁An	-373
ing	-374
tica	-375
▁ter	-376
▁sol	-377
qui	-378
▁deb	-379
▁pers	-380
enci	-381
▁comp	-382
igu	-383
▁cre	-384
▁reg	-385
▁parte	-386
▁hasta	-387
em	-388
▁nue	-389
ias	-390
▁gran	-391
uci	-392
das	-393
▁pas	-394
tur	-395
aba	-396
mbre	-397
▁donde	-398
▁Ar	-399
▁ap	-400
acional	-401
▁De	-402
ores	-403
▁emp	-404
lam	-405
og	-406
iden	-407
eg	-408
▁for	-409
car	-410
ajo	-411
iudad	-412
rec	-413
▁desde	-414
▁prin	-415
ech	-416
▁inf	-417
na	-418
▁var	-419
▁fun	-420
▁Su	-421
ill	-422
▁au	-423
titu	-424
▁Y	-425
▁ins	-426
tivo	-427
ues	-428
".	-429
unto	-430
▁princip	-431
me	-432
▁durante	-433
ve	-434
uy	-435
tico	-436
▁nomb	-437
mi	-438
ver	-439
▁us	-440
ans	-441
ven	-442
at	-443
cho	-444
▁4	-445
gos	-446
miento	-447
dem	-448
ora	-449
▁hac	-450
▁Com	-451
▁estu	-452
▁sin	-453
",	-454
idos	-455
je	-456
▁mun	-457
ares	-458
endo	-459
▁pol	-460
iendo	-461
▁era	-462
gen	-463
▁sal	-464
pres	-465
▁(1	-466
▁trab	-467
▁-	-468
zo	-469
terior	-470
▁oc	-471
gan	-472
▁ej	-473
mas	-474
oc	-475
▁ciudad	-476
dr	-477
endi	-478
▁5	-479
▁incl	-480
eb	-481
pon	-482
peci	-483
▁ten	-484
▁ya	-485
anz	-486
uel	-487
▁199	-488
argo	-489
▁mayor	-490
eron	-491
tados	-492
▁Car	-493
▁contra	-494
▁despu	-495
mos	-496
ito	-497
esti	-498
▁tu	-499
uego	-500
if	-501
th	-502
▁cuando	-503
cha	-504
ja	-505
▁cual	-506
ist	-507
▁of	-508
▁cl	-509
ud	-510
▁form	-511
▁cap	-512
ivers	-513
▁Las	-514
toria	-515
▁puede	-516
iste	-517
antes	-518
ge	-519
laci	-520
▁gener	-521
arse	-522
▁u	-523
▁lib	-524
▁inv	-525
icos	-526
▁cer	-527
idades	-528
▁temp	-529
▁especi	-530
adores	-531
arro	-532
▁primera	-533
ide	-534
ena	-535
pec	-536
▁Des	-537
▁ad	-538
▁emb	-539
▁pe	-540
entos	-541
▁tan	-542
▁prop	-543
op	-544
▁*	-545
all	-546
ine	-547
eces	-548
▁realiz	-549
▁cal	-550
ros	-551
ll	-552
▁ver	-553
▁Par	-554
cal	-555
itar	-556
ugar	-557
▁do	-558
▁ro	-559
▁Le	-560
ama	-561
▁hi	-562
▁As	-563
▁forma	-564
embre	-565
▁llam	-566
▁tras	-567
lti	-568
▁person	-569
anos	-570
▁mismo	-571
▁cr	-572
tiva	-573
▁produc	-574
▁algun	-575
eci	-576
tante	-577
▁estudi	-578
▁reci	-579
▁otros	-580
▁fueron	-581
ard	-582
cion	-583
and	-584
ed	-585
▁tiene	-586
truc	-587
ern	-588
▁actu	-589
▁den	-590
▁vez	-591
▁6	-592
▁encu	-593
iones	-594
ap	-595
..	-596
▁gru	-597
20	-598
▁Por	-599
▁uno	-600
pues	-601
▁bas	-602
tir	-603
▁muy	-604
▁rec	-605
ita	-606
▁equi	-607
▁mon	-608
▁pel	-609
▁men	-610
ion	-611
lica	-612
omin	-613
▁tiemp	-614
▁Ma	-615
tis	-616
▁direc	-617
ut	-618
▁nombre	-619
tiliz	-620
so	-621
▁cen	-622
▁am	-623
▁segun	-624
▁apar	-625
et	-626
cos	-627
▁her	-628
▁conoci	-629
▁impor	-630
▁gob	-631
▁lleg	-632
▁trans	-633
▁deci	-634
▁198	-635
-1	-636
▁encuen	-637
▁da	-638
ierno	-639
▁edi	-640
uro	-641
unque	-642
▁co	-643
▁lugar	-644
fec	-645
icas	-646
▁fam	-647
▁Fran	-648
▁conv	-649
ich	-650
▁tres	-651
▁sig	-652
ord	-653
cri	-654
▁estado	-655
▁utiliz	-656
▁Z	-657
ip	-658
acia	-659
▁todo	-660
▁quien	-661
▁conf	-662
▁cab	-663
ital	-664
aje	-665
gua	-666
▁mej	-667
▁tra	-668
dia	-669
▁pub	-670
▁his	-671
▁escri	-672
istas	-673
eo	-674
nica	-675
▁tiempo	-676
▁7	-677
▁super	-678
▁desarro	-679
erv	-680
iente	-681
▁ch	-682
ticas	-683
▁plan	-684
eno	-685
▁=	-686
llo	-687
ientras	-688
oy	-689
▁Pa	-690
▁sigu	-691
ial	-692
rig	-693
amiento	-694
▁inici	-695
▁Me	-696
0,	-697
eros	-698
tores	-699
▁contr	-700
taci	-701
▁mil	-702
▁15	-703
▁cos	-704
ific	-705
able	-706
chos	-707
▁fr	-708
▁8	-709
tion	-710
▁soci	-711
▁z	-712
▁comun	-713
atro	-714
uerra	-715
▁sido	-716
▁trabaj	-717
▁vol	-718
▁sec	-719
illa	-720
▁han	-721
▁197	-722
▁nov	-723
▁The	-724
▁embargo	-725
ular	-726
▁min	-727
vin	-728
rica	-729
orte	-730
▁orig	-731
▁difer	-732
▁mis	-733
▁[	-734
▁def	-735
bre	-736
▁cada	-737
contr	-738
▁pla	-739
▁rev	-740
cer	-741
▁exp	-742
nico	-743
ril	-744
▁pes	-745
▁ban	-746
▁No	-747
tido	-748
▁cul	-749
▁17	-750
▁anti	-751
arios	-752
▁Univers	-753
ustr	-754
uso	-755
aban	-756
tivos	-757
▁ba	-758
▁todos	-759
icip	-760
▁val	-761
▁Ju	-762
▁prof	-763
ieron	-764
▁public	-765
▁Gu	-766
▁Col	-767
▁famil	-768
▁solo	-769
▁ni	-770
▁pob	-771
rab	-772
▁k	-773
▁encontr	-774
▁Sin	-775
▁ev	-776
lig	-777
cias	-778
▁ne	-779
enz	-780
lu	-781
▁llev	-782
dic	-783
dio	-784
▁Tam	-785
▁tempor	-786
li	-787
▁div	-788
oma	-789
ele	-790
▁esp	-791
▁gan	-792
▁Espa	-793
pti	-794
ola	-795
▁(19	-796
▁ese	-797
▁9	-798
▁elec	-799
▁repres	-800
cula	-801
▁espa	-802
gres	-803
▁ref	-804
▁siste	-805
adre	-806
jer	-807
▁vida	-808
tac	-809
▁grupo	-810
▁gr	-811
▁junto	-812
▁tanto	-813
▁serie	-814
▁entr	-815
ot	-816
mero	-817
▁Cas	-818
▁equipo	-819
ientos	-820
si	-821
▁10	-822
▁Pro	-823
▁tar	-824
quier	-825
ala	-826
▁sub	-827
tec	-828
▁,	-829
idente	-830
▁16	-831
▁mientras	-832
▁serv	-833
▁Cu	-834
▁na	-835
▁bajo	-836
▁nuevo	-837
gar	-838
▁comple	-839
▁antes	-840
ticos	-841
▁Co	-842
▁196	-843
ganiz	-844
▁hacer	-845
2,	-846
▁jun	-847
uela	-848
erci	-849
und	-850
000	-851
bol	-852
▁Mon	-853
pre	-854
▁resul	-855
duci	-856
teg	-857
ber	-858
▁Estados	-859
▁Q	-860
▁contin	-861
▁hay	-862
1,	-863
▁Tambi	-864
unci	-865
du	-866
▁mejor	-867
yec	-868
dades	-869
▁neces	-870
jos	-871
▁Bar	-872
▁viv	-873
▁ra	-874
▁progr	-875
▁Fue	-876
aria	-877
▁segu	-878
olog	-879
ome	-880
▁final	-881
ible	-882
ile	-883
cel	-884
ban	-885
▁mie	-886
▁Unidos	-887
▁aunque	-888
▁Nacional	-889
▁X	-890
▁pues	-891
▁hacia	-892
CO	-893
▁Cor	-894
▁muer	-895
▁clas	-896
▁Jo	-897
▁otras	-898
sica	-899
▁Jos	-900
▁sur	-901
▁ay	-902
▁inform	-903
od	-904
▁ofici	-905
▁Este	-906
ies	-907
ques	-908
tamente	-909
ulio	-910
▁Para	-911
▁.	-912
▁jug	-913
ang	-914
ren	-915
▁mes	-916
▁siendo	-917
▁tor	-918
▁general	-919
lec	-920
▁af	-921
▁Esta	-922
▁bien	-923
▁gu	-924
▁municip	-925
ider	-926
3,	-927
▁lu	-928
▁comenz	-929
▁Cam	-930
▁gobierno	-931
osa	-932
▁personas	-933
yo	-934
cep	-935
oso	-936
cen	-937
▁estaba	-938
torio	-939
5,	-940
ndos	-941
0.	-942
rea	-943
▁miemb	-944
cas	-945
);	-946
4,	-947
▁fran	-948
ell	-949
▁trav	-950
▁lanz	-951
ura	-952
▁tien	-953
ndose	-954
tonces	-955
▁202	-956
▁historia	-957
ima	-958
tural	-959
▁the	-960
ece	-961
DI	-962
▁hech	-963
▁Ca	-964
gra	-965
▁pueden	-966
▁mundo	-967
istr	-968
▁194	-969
▁dici	-970
▁apro	-971
lor	-972
ris	-973
inas	-974
son	-975
ilidad	-976
tru	-977
xim	-978
tad	-979
rero	-980
che	-981
alidad	-982
nos	-983
▁peque	-984
▁Mun	-985
ceso	-986
isten	-987
▁incluy	-988
▁mom	-989
▁12	-990
▁Lu	-991
gent	-992
zas	-993
▁fal	-994
▁is	-995
▁proyec	-996
ag	-997
▁empres	-998
9,	-999
▁organiz	-1000
▁Man	-1001
irm	-1002
▁situ	-1003
8,	-1004
6,	-1005
ex	-1006
▁amb	-1007
▁bu	-1008
▁estable	-1009
lb	-1010
▁$	-1011
▁ale	-1012
▁temporada	-1013
▁ri	-1014
izo	-1015
▁Sh	-1016
tubre	-1017
▁debido	-1018
▁doc	-1019
▁bar	-1020
▁mujer	-1021
ses	-1022
▁obje	-1023
▁inc	-1024
ptiembre	-1025
imiento	-1026
▁fund	-1027
▁mus	-1028
▁hum	-1029
▁Ro	-1030
idas	-1031
GO	-1032
▁recon	-1033
▁total	-1034
iel	-1035
▁varios	-1036
can	-1037
▁otro	-1038
cis	-1039
▁195	-1040
bo	-1041
7,	-1042
▁particip	-1043
▁vis	-1044
▁sistema	-1045
▁ejemp	-1046
▁mayo	-1047
nea	-1048
▁Juan	-1049
▁activ	-1050
lbum	-1051
dor	-1052
ya	-1053
▁octubre	-1054
▁pal	-1055
▁encuentra	-1056
▁nuev	-1057
▁dere	-1058
▁Per	-1059
▁193	-1060
▁luego	-1061
▁Si	-1062
▁relaci	-1063
▁algunos	-1064
▁naci	-1065
ke	-1066
▁present	-1067
II	-1068
tam	-1069
▁julio	-1070
▁entonces	-1071
▁tuvo	-1072
▁apo	-1073
▁Sal	-1074
blica	-1075
ecu	-1076
▁tom	-1077
▁marzo	-1078
▁Or	-1079
▁dirig	-1080
DIGO	-1081
ian	-1082
lar	-1083
▁servici	-1084
CODIGO	-1085
▁profes	-1086
▁trad	-1087
ea	-1088
▁enero	-1089
ep	-1090
tera	-1091
▁junio	-1092
gosto	-1093
▁Can	-1094
▁pu	-1095
▁estos	-1096
iso	-1097
▁local	-1098
ts	-1099
▁ante	-1100
▁diciembre	-1101
▁provin	-1102
▁vers	-1103
tran	-1104
▁trabajo	-1105
▁Val	-1106
▁Is	-1107
ivel	-1108
amos	-1109
▁poder	-1110
▁esti	-1111
▁Cons	-1112
▁To	-1113
▁Durante	-1114
irti	-1115
▁origin	-1116
lev	-1117
▁and	-1118
ula	-1119
▁cin	-1120
ong	-1121
▁dej	-1122
▁der	-1123
▁cuatro	-1124
iembre	-1125
▁14	-1126
▁agosto	-1127
▁permi	-1128
▁Inter	-1129
▁cuenta	-1130
acio	-1131
▁w	-1132
▁adem	-1133
▁Ale	-1134
▁ven	-1135
▁toda	-1136
dici	-1137
posici	-1138
ela	-1139
▁homb	-1140
▁familia	-1141
▁'	-1142
rado	-1143
estig	-1144
omo	-1145
▁Lo	-1146
▁Mo	-1147
▁noviembre	-1148
▁abril	-1149
ira	-1150
chas	-1151
▁mill	-1152
▁principal	-1153
2.	-1154
▁camb	-1155
culo	-1156
▁fil	-1157
▁compa	-1158
▁Gran	-1159
az	-1160
rera	-1161
▁autor	-1162
▁nivel	-1163
▁hace	-1164
▁obra	-1165
rid	-1166
▁momento	-1167
▁esto	-1168
▁seg	-1169
▁11	-1170
eta	-1171
▁vo	-1172
tada	-1173
pen	-1174
cio	-1175
▁guerra	-1176
acter	-1177
▁sie	-1178
▁econ	-1179
▁les	-1180
▁convirti	-1181
▁Am	-1182
dida	-1183
iano	-1184
▁qued	-1185
▁ve	-1186
xico	-1187
turas	-1188
▁13	-1189
▁Nue	-1190
tral	-1191
▁Euro	-1192
▁continu	-1193
▁fu	-1194
be	-1195
▁partido	-1196
sa	-1197
ciden	-1198
abor	-1199
dial	-1200
trucci	-1201
jas	-1202
encias	-1203
▁proble	-1204
▁tipo	-1205
▁Una	-1206
▁ellos	-1207
fr	-1208
lesia	-1209
ebrero	-1210
▁zona	-1211
▁anterior	-1212
▁menos	-1213
eder	-1214
▁segundo	-1215
oluci	-1216
▁dentro	-1217
▁pueb	-1218
ck	-1219
reg	-1220
▁ella	-1221
mana	-1222
▁Ex	-1223
ef	-1224
▁indi	-1225
▁logr	-1226
mica	-1227
▁refer	-1228
nacional	-1229
▁Adem	-1230
▁Mad	-1231
▁siguiente	-1232
▁tarde	-1233
ument	-1234
▁hizo	-1235
1.	-1236
▁Ne	-1237
▁gol	-1238
▁caso	-1239
▁dise	-1240
▁febrero	-1241
▁nacional	-1242
urs	-1243
tulo	-1244
tivas	-1245
lico	-1246
▁manera	-1247
fico	-1248
▁partir	-1249
tener	-1250
▁norte	-1251
▁consider	-1252
rci	-1253
inos	-1254
tantes	-1255
▁poco	-1256
ual	-1257
▁poblaci	-1258
▁pun	-1259
▁largo	-1260
ientes	-1261
▁ub	-1262
puesta	-1263
ng	-1264
pel	-1265
▁inten	-1266
ign	-1267
cada	-1268
mpl	-1269
tidad	-1270
▁mer	-1271
▁Cal	-1272
▁orden	-1273
ical	-1274
▁Pe	-1275
▁nueva	-1276
▁millones	-1277
men	-1278
▁pop	-1279
▁otra	-1280
fo	-1281
▁segunda	-1282
este	-1283
▁pl	-1284
▁comerci	-1285
▁oper	-1286
▁casa	-1287
▁efec	-1288
5.	-1289
eza	-1290
▁posterior	-1291
br	-1292
itos	-1293
▁unos	-1294
dencia	-1295
▁Bo	-1296
▁centro	-1297
▁regi	-1298
▁ing	-1299
▁termin	-1300
▁li	-1301
▁ejemplo	-1302
▁ah	-1303
▁obs	-1304
uda	-1305
▁ag	-1306
▁control	-1307
▁muchos	-1308
▁mas	-1309
▁caus	-1310
▁banda	-1311
▁haber	-1312
▁muerte	-1313
3.	-1314
ves	-1315
onales	-1316
ka	-1317
▁Sa	-1318
▁ind	-1319
ric	-1320
van	-1321
▁Ba	-1322
▁medio	-1323
tific	-1324
▁Despu	-1325
▁mater	-1326
▁Ac	-1327
▁misma	-1328
▁art	-1329
▁exper	-1330
▁hecho	-1331
▁caracter	-1332
▁distin	-1333
▁decl	-1334
mar	-1335
▁Tras	-1336
tituci	-1337
dido	-1338
▁canci	-1339
iga	-1340
▁pie	-1341
▁sen	-1342
▁ocu	-1343
rem	-1344
fica	-1345
4.	-1346
ho	-1347
▁grandes	-1348
rcito	-1349
▁ide	-1350
▁investig	-1351
▁eran	-1352
tuvo	-1353
▁divers	-1354
▁inte	-1355
▁tienen	-1356
▁hor	-1357
▁desarroll	-1358
edad	-1359
▁interpre	-1360
tel	-1361
▁uso	-1362
▁Cen	-1363
▁varias	-1364
ond	-1365
▁distr	-1366
▁porque	-1367
...	-1368
gon	-1369
rit	-1370
▁Di	-1371
▁tener	-1372
uniden	-1373
erg	-1374
▁espec	-1375
ltimo	-1376
▁mov	-1377
ire	-1378
▁todas	-1379
poca	-1380
cado	-1381
▁programa	-1382
itu	-1383
▁Estado	-1384
8.	-1385
9.	-1386
▁ubic	-1387
▁bus	-1388
▁cele	-1389
--	-1390
▁Santa	-1391
▁rom	-1392
▁rey	-1393
orma	-1394
▁sign	-1395
terio	-1396
▁terri	-1397
▁agua	-1398
▁Po	-1399
6.	-1400
▁tal	-1401
▁cuer	-1402
▁sim	-1403
▁mi	-1404
▁hijo	-1405
ork	-1406
dis	-1407
▁Bu	-1408
▁juego	-1409
ini	-1410
▁op	-1411
cular	-1412
▁ep	-1413
▁rad	-1414
zar	-1415
nas	-1416
▁podr	-1417
▁191	-1418
tancia	-1419
▁via	-1420
ry	-1421
▁estas	-1422
▁so	-1423
▁pin	-1424
▁regres	-1425
rm	-1426
▁edifici	-1427
▁padre	-1428
7.	-1429
quel	-1430
▁nu	-1431
▁Desde	-1432
rio	-1433
ensa	-1434
hn	-1435
▁veces	-1436
▁igu	-1437
▁Mus	-1438
ajes	-1439
▁Pri	-1440
ndo	-1441
ase	-1442
▁ley	-1443
▁sab	-1444
uerdo	-1445
▁inclu	-1446
▁trata	-1447
val	-1448
▁derro	-1449
com	-1450
neo	-1451
▁vic	-1452
200	-1453
▁liber	-1454
isti	-1455
▁tradici	-1456
gentina	-1457
iles	-1458
▁Cl	-1459
entar	-1460
▁anunci	-1461
▁antigu	-1462
ik	-1463
▁sue	-1464
adora	-1465
una	-1466
▁ir	-1467
tino	-1468
orn	-1469
▁perio	-1470
▁provincia	-1471
▁conocido	-1472
tom	-1473
▁anim	-1474
ron	-1475
▁cien	-1476
▁25	-1477
▁club	-1478
▁cier	-1479
▁obras	-1480
▁compr	-1481
▁carrera	-1482
entaci	-1483
ph	-1484
pendi	-1485
▁30	-1486
culos	-1487
▁punto	-1488
▁compar	-1489
▁cir	-1490
▁}	-1491
▁municipio	-1492
uerto	-1493
▁192	-1494
istro	-1495
▁Nueva	-1496
▁Como	-1497
▁papel	-1498
enos	-1499
▁recib	-1500
▁Ins	-1501
▁declar	-1502
▁director	-1503
talla	-1504
▁estableci	-1505
▁producci	-1506
▁esa	-1507
▁tier	-1508
▁versi	-1509
del	-1510
▁telev	-1511
gas	-1512
▁primeros	-1513
▁Th	-1514
▁algunas	-1515
▁pan	-1516
mpre	-1517
▁descu	-1518
ilar	-1519
▁So	-1520
▁Entre	-1521
▁frente	-1522
pro	-1523
▁leg	-1524
▁inde	-1525
umento	-1526
tio	-1527
eras	-1528
▁Qu	-1529
col	-1530
var	-1531
meros	-1532
▁vi	-1533
▁baj	-1534
▁proyecto	-1535
▁base	-1536
form	-1537
▁cuar	-1538
▁pesar	-1539
up	-1540
mit	-1541
cur	-1542
▁nues	-1543
▁Tor	-1544
▁estar	-1545
▁destac	-1546
▁mucho	-1547
▁et	-1548
dera	-1549
▁conj	-1550
imon	-1551
cn	-1552
bri	-1553
canz	-1554
▁Madrid	-1555
▁estr	-1556
▁Mor	-1557
▁Pol	-1558
ono	-1559
ila	-1560
▁Min	-1561
▁pueblo	-1562
▁cinco	-1563
▁cargo	-1564
▁posici	-1565
cial	-1566
tando	-1567
▁descri	-1568
▁llamado	-1569
201	-1570
▁Ra	-1571
usi	-1572
ruz	-1573
▁Gar	-1574
▁debe	-1575
▁Te	-1576
ional	-1577
▁“	-1578
▁cri	-1579
▁lado	-1580
mon	-1581
▁constru	-1582
▁grab	-1583
▁int	-1584
▁ases	-1585
echa	-1586
▁miembros	-1587
▁Carlos	-1588
blic	-1589
ental	-1590
igo	-1591
▁pon	-1592
▁Pla	-1593
imo	-1594
▁alcanz	-1595
▁nav	-1596
▁Mu	-1597
▁eleg	-1598
pi	-1599
▁jue	-1600
ha	-1601
ff	-1602
▁cualquier	-1603
rede	-1604
▁Cuando	-1605
emos	-1606
▁Francis	-1607
stica	-1608
▁mal	-1609
▁casi	-1610
aran	-1611
▁social	-1612
▁mode	-1613
▁Soci	-1614
▁univers	-1615
ilo	-1616
▁Esto	-1617
▁II	-1618
▁esper	-1619
avor	-1620
ifica	-1621
ibu	-1622
ivo	-1623
▁Pal	-1624
.,	-1625
▁comien	-1626
▁Luis	-1627
▁proceso	-1628
▁aquel	-1629
tem	-1630
rag	-1631
stico	-1632
▁atr	-1633
▁Guerra	-1634
▁mediante	-1635
ki	-1636
onia	-1637
▁color	-1638
ram	-1639
▁elem	-1640
▁ur	-1641
▁{	-1642
blico	-1643
nes	-1644
▁ju	-1645
▁fuera	-1646
end	-1647
peona	-1648
▁mues	-1649
▁siempre	-1650
▁datos	-1651
▁natural	-1652
▁aplic	-1653
▁exten	-1654
anas	-1655
▁Na	-1656
▁acuerdo	-1657
ler	-1658
▁sino	-1659
▁reconoci	-1660
zos	-1661
tbol	-1662
▁ig	-1663
▁estudios	-1664
▁cerca	-1665
iedad	-1666
▁dio	-1667
▁Gener	-1668
xito	-1669
adamente	-1670
istencia	-1671
▁loc	-1672
cil	-1673
▁personal	-1674
▁admin	-1675
▁perman	-1676
▁agr	-1677
▁ata	-1678
▁Mundial	-1679
▁estudio	-1680
▁Rep	-1681
unidense	-1682
▁represent	-1683
▁conver	-1684
tia	-1685
▁estre	-1686
▁finales	-1687
▁informaci	-1688
▁mujeres	-1689
▁bo	-1690
▁respon	-1691
▁respec	-1692
▁igual	-1693
▁instal	-1694
cor	-1695
▁conside	-1696
▁encar	-1697
cre	-1698
▁denomin	-1699
▁puesto	-1700
▁cuales	-1701
tivamente	-1702
▁selec	-1703
▁paso	-1704
▁/	-1705
▁mor	-1706
▁ayud	-1707
▁san	-1708
xto	-1709
▁domin	-1710
ick	-1711
▁empresa	-1712
▁Her	-1713
tiene	-1714
▁dar	-1715
mientos	-1716
taron	-1717
mor	-1718
▁Seg	-1719
▁capital	-1720
port	-1721
▁favor	-1722
El	-1723
unta	-1724
▁meses	-1725
▁funci	-1726
▁real	-1727
ltima	-1728
iva	-1729
▁posible	-1730
▁disco	-1731
▁vuel	-1732
▁Ad	-1733
▁Francia	-1734
▁compe	-1735
ack	-1736
▁perten	-1737
rin	-1738
▁blan	-1739
▁desa	-1740
▁gra	-1741
ancia	-1742
▁servicio	-1743
graf	-1744
mico	-1745
ables	-1746
amb	-1747
porte	-1748
iar	-1749
▁cambio	-1750
izaci	-1751
▁24	-1752
▁ocas	-1753
ridad	-1754
▁emple	-1755
▁enfr	-1756
partam	-1757
▁Argentina	-1758
▁valor	-1759
▁Pres	-1760
▁dif	-1761
pol	-1762
▁Ab	-1763
puesto	-1764
▁titu	-1765
▁Ha	-1766
igh	-1767
enas	-1768
▁cambi	-1769
▁estruc	-1770
▁sa	-1771
tero	-1772
▁estilo	-1773
▁Ig	-1774
ns	-1775
rez	-1776
gica	-1777
▁John	-1778
▁expres	-1779
▁York	-1780
▁Europa	-1781
▁Fern	-1782
dal	-1783
oro	-1784
tagon	-1785
▁len	-1786
▁va	-1787
▁produci	-1788
ite	-1789
▁sea	-1790
▁Anton	-1791
rico	-1792
La	-1793
▁gobern	-1794
▁nos	-1795
idi	-1796
laz	-1797
▁libro	-1798
▁alrede	-1799
sico	-1800
▁Fin	-1801
ly	-1802
vieron	-1803
illo	-1804
▁moder	-1805
▁mos	-1806
quitec	-1807
iales	-1808
irse	-1809
usti	-1810
fa	-1811
▁televisi	-1812
▁Francisco	-1813
vis	-1814
▁ima	-1815
▁patr	-1816
tista	-1817
▁senci	-1818
▁Ter	-1819
itantes	-1820
▁ocup	-1821
ok	-1822
anza	-1823
▁popular	-1824
▁suf	-1825
acias	-1826
tario	-1827
ev	-1828
▁tur	-1829
▁all	-1830
▁km	-1831
▁ingl	-1832
termin	-1833
▁iden	-1834
posi	-1835
▁Lib	-1836
udo	-1837
▁prob	-1838
ins	-1839
onas	-1840
tenci	-1841
iana	-1842
lad	-1843
▁relig	-1844
▁Gob	-1845
▁actual	-1846
▁incluso	-1847
pas	-1848
▁conse	-1849
taba	-1850
dico	-1851
▁origen	-1852
ame	-1853
erro	-1854
▁edad	-1855
▁ambos	-1856
▁recibi	-1857
▁oficial	-1858
▁algo	-1859
▁decir	-1860
▁palab	-1861
icana	-1862
▁muchas	-1863
▁industr	-1864
bas	-1865
-19	-1866
▁Sus	-1867
▁on	-1868
▁dedic	-1869
▁ru	-1870
▁hist	-1871
▁envi	-1872
▁Pos	-1873
ierra	-1874
ivil	-1875
gado	-1876
▁militar	-1877
▁Rob	-1878
lla	-1879
▁creci	-1880
isis	-1881
pir	-1882
▁reun	-1883
▁funcion	-1884
amas	-1885
iene	-1886
▁cuerpo	-1887
ror	-1888
▁Chile	-1889
▁Sol	-1890
tiz	-1891
▁Ho	-1892
est	-1893
lado	-1894
ment	-1895
▁neg	-1896
ardo	-1897
▁21	-1898
▁miembro	-1899
tales	-1900
▁vari	-1901
▁0	-1902
▁fo	-1903
ys	-1904
▁edificio	-1905
edro	-1906
▁vide	-1907
▁comunic	-1908
odo	-1909
ity	-1910
aro	-1911
pl	-1912
ner	-1913
▁superior	-1914
vid	-1915
greso	-1916
▁fac	-1917
▁Real	-1918
ecer	-1919
▁sac	-1920
▁episo	-1921
▁aband	-1922
▁os	-1923
sticas	-1924
▁Res	-1925
uras	-1926
▁enfer	-1927
ole	-1928
▁rela	-1929
dios	-1930
▁brit	-1931
▁Imp	-1932
▁Reg	-1933
tegor	-1934
▁decidi	-1935
are	-1936
land	-1937
▁iglesia	-1938
▁partidos	-1939
ducaci	-1940
iere	-1941
▁original	-1942
peonato	-1943
▁puntos	-1944
▁cine	-1945
▁cabo	-1946
osp	-1947
onado	-1948
ger	-1949
▁campo	-1950
▁significa	-1951
iza	-1952
▁Ber	-1953
▁hoy	-1954
▁separ	-1955
▁influ	-1956
▁capaci	-1957
ty	-1958
▁gen	-1959
▁cantidad	-1960
▁resultado	-1961
▁ello	-1962
▁colec	-1963
▁[/	-1964
▁Pero	-1965
▁ahora	-1966
tituto	-1967
▁conserv	-1968
▁er	-1969
▁ase	-1970
▁grupos	-1971
▁conten	-1972
amer	-1973
via	-1974
▁propio	-1975
▁190	-1976
▁du	-1977
iera	-1978
▁fre	-1979
ko	-1980
gico	-1981
▁especial	-1982
entemente	-1983
▁Ej	-1984
▁Pedro	-1985
elo	-1986
▁Ser	-1987
▁colabor	-1988
ires	-1989
▁22	-1990
▁lab	-1991
▁hombres	-1992
▁Ge	-1993
▁madre	-1994
ificaci	-1995
▁estuvo	-1996
erva	-1997
▁dijo	-1998
lio	-1999
▁oblig	-2000
▁arquitec	-2001
▁100	-2002
mano	-2003
estiv	-2004
▁Partido	-2005
iro	-2006
▁dispon	-2007
mple	-2008
iri	-2009
nicos	-2010
▁alrededor	-2011
dado	-2012
▁ado	-2013
▁23	-2014
nde	-2015
uls	-2016
▁matr	-2017
▁asoci	-2018
bles	-2019
▁+	-2020
▁trop	-2021
▁din	-2022
▁escu	-2023
▁problemas	-2024
vil	-2025
▁Ros	-2026
▁prem	-2027
▁auto	-2028
▁comba	-2029
▁Aunque	-2030
▁prue	-2031
▁pens	-2032
▁recu	-2033
ple	-2034
▁alim	-2035
▁Har	-2036
esa	-2037
▁mostr	-2038
▁primero	-2039
▁llamada	-2040
icano	-2041
▁dem	-2042
▁integr	-2043
tien	-2044
▁Be	-2045
rac	-2046
▁propor	-2047
ulo	-2048
imonio	-2049
▁comb	-2050
▁conjunto	-2051
▁viol	-2052
▁New	-2053
inar	-2054
enso	-2055
icamente	-2056
▁<	-2057
▁seis	-2058
▁Ven	-2059
▁llegar	-2060
culas	-2061
▁metros	-2062
cedi	-2063
▁hon	-2064
▁lista	-2065
truy	-2066
▁isla	-2067
▁Feder	-2068
▁celebr	-2069
▁General	-2070
▁campa	-2071
▁Antonio	-2072
unca	-2073
▁Prem	-2074
▁elim	-2075
▁acep	-2076
▁protagon	-2077
▁corres	-2078
▁Sur	-2079
▁sex	-2080
▁determin	-2081
▁at	-2082
▁empez	-2083
▁tema	-2084
▁minu	-2085
lares	-2086
bur	-2087
▁Ta	-2088
▁menci	-2089
▁localidad	-2090
nero	-2091
reci	-2092
cr	-2093
ley	-2094
▁conocida	-2095
partamento	-2096
usto	-2097
Es	-2098
one	-2099
table	-2100
laciones	-2101
▁categor	-2102
▁pod	-2103
▁Bel	-2104
orge	-2105
▁espos	-2106
▁hom	-2107
▁interior	-2108
inado	-2109
▁ren	-2110
▁estaban	-2111
▁2000	-2112
tt	-2113
▁resto	-2114
uri	-2115
ompa	-2116
rmino	-2117
▁fecha	-2118
illas	-2119
mania	-2120
▁video	-2121
uraci	-2122
ert	-2123
anci	-2124
▁he	-2125
▁Div	-2126
log	-2127
▁servicios	-2128
▁ocur	-2129
ft	-2130
▁conte	-2131
▁dispu	-2132
▁His	-2133
pan	-2134
▁jo	-2135
▁Ol	-2136
▁persona	-2137
▁frecu	-2138
▁He	-2139
reas	-2140
dero	-2141
▁Uni	-2142
▁apoyo	-2143
▁gas	-2144
▁arte	-2145
▁presenta	-2146
▁realizar	-2147
emen	-2148
dujo	-2149
hib	-2150
▁189	-2151
▁Pas	-2152
▁Vic	-2153
▁Club	-2154
▁aproxim	-2155
▁alto	-2156
ursos	-2157
▁prom	-2158
pci	-2159
hu	-2160
▁pose	-2161
-2	-2162
itas	-2163
▁terc	-2164
▁lim	-2165
▁agu	-2166
▁espacio	-2167
▁lar	-2168
▁nego	-2169
▁Gal	-2170
▁hombre	-2171
icio	-2172
▁posib	-2173
oce	-2174
▁Aires	-2175
genes	-2176
▁28	-2177
▁afec	-2178
▁alta	-2179
▁numeros	-2180
▁encontrar	-2181
acci	-2182
▁retir	-2183
▁direcci	-2184
▁considera	-2185
▁horas	-2186
▁Cab	-2187
▁conci	-2188
▁personaje	-2189
erio	-2190
▁modo	-2191
▁Yo	-2192
▁prepar	-2193
tora	-2194
▁secre	-2195
jar	-2196
▁jef	-2197
iencia	-2198
▁ho	-2199
nd	-2200
▁central	-2201
▁fuerzas	-2202
▁consecu	-2203
▁Rec	-2204
bier	-2205
▁At	-2206
ace	-2207
dir	-2208
▁objetivo	-2209
▁26	-2210
▁incor	-2211
gue	-2212
▁vir	-2213
▁situaci	-2214
▁%	-2215
alizaci	-2216
▁energ	-2217
fon	-2218
▁norm	-2219
▁entren	-2220
▁Mart	-2221
▁27	-2222
▁constitu	-2223
▁partici	-2224
▁cuad	-2225
tillo	-2226
▁Reino	-2227
▁hijos	-2228
▁Ja	-2229
her	-2230
▁em	-2231
▁Mi	-2232
▁sitio	-2233
dra	-2234
▁escuela	-2235
▁Ver	-2236
▁Gobierno	-2237
▁2020	-2238
▁dice	-2239
▁proces	-2240
▁bal	-2241
▁usu	-2242
▁ayuda	-2243
guay	-2244
onar	-2245
arra	-2246
▁Super	-2247
▁recuper	-2248
▁Ciudad	-2249
▁Primer	-2250
▁Segun	-2251
▁calle	-2252
▁Ban	-2253
dica	-2254
isiones	-2255
50	-2256
▁hija	-2257
▁cur	-2258
▁especies	-2259
▁derecho	-2260
▁mul	-2261
▁modelo	-2262
ines	-2263
gn	-2264
▁frances	-2265
▁ital	-2266
▁(18	-2267
diciones	-2268
▁Dav	-2269
rar	-2270
▁provo	-2271
▁canciones	-2272
▁dese	-2273
▁puer	-2274
▁traslad	-2275
▁1.	-2276
▁red	-2277
▁candida	-2278
▁gri	-2279
▁nunca	-2280
▁imagen	-2281
leg	-2282
▁abs	-2283
cios	-2284
▁intro	-2285
omas	-2286
▁fuerte	-2287
▁actividad	-2288
anto	-2289
▁Conse	-2290
▁administr	-2291
▁extra	-2292
▁firm	-2293
▁Norte	-2294
▁batalla	-2295
▁Bol	-2296
▁sir	-2297
▁Vir	-2298
▁(200	-2299
▁edici	-2300
eli	-2301
▁Go	-2302
▁Copa	-2303
cepci	-2304
igos	-2305
ash	-2306
▁Ste	-2307
▁nuevos	-2308
▁amp	-2309
eles	-2310
▁fon	-2311
tiago	-2312
▁Ital	-2313
▁elementos	-2314
▁Buenos	-2315
▁Dis	-2316
▁euro	-2317
tual	-2318
bal	-2319
leci	-2320
tistas	-2321
uelo	-2322
▁raz	-2323
▁franc	-2324
digo	-2325
▁joven	-2326
▁conoc	-2327
▁Ob	-2328
▁respons	-2329
▁musical	-2330
▁especie	-2331
ducci	-2332
▁Luego	-2333
▁tierra	-2334
▁presiden	-2335
▁superfici	-2336
adio	-2337
manas	-2338
▁sede	-2339
uales	-2340
nimo	-2341
▁derechos	-2342
▁extre	-2343
▁hermano	-2344
▁188	-2345
demia	-2346
tus	-2347
inaci	-2348
▁x	-2349
▁az	-2350
▁acompa	-2351
▁alter	-2352
▁histor	-2353
▁aparece	-2354
▁menor	-2355
."	-2356
▁vel	-2357
▁creaci	-2358
▁May	-2359
ice	-2360
taciones	-2361
▁Manuel	-2362
celona	-2363
tina	-2364
▁unas	-2365
▁Rev	-2366
▁depor	-2367
wn	-2368
iado	-2369
▁equipos	-2370
esi	-2371
turales	-2372
▁Alemania	-2373
▁apareci	-2374
▁Au	-2375
▁grande	-2376
▁incorpor	-2377
▁haci	-2378
▁acer	-2379
▁problema	-2380
▁gal	-2381
▁hub	-2382
arlo	-2383
ulares	-2384
▁Da	-2385
▁formaci	-2386
arca	-2387
uros	-2388
vers	-2389
umentos	-2390
▁observ	-2391
▁ejecu	-2392
▁Nav	-2393
▁fron	-2394
▁eso	-2395
▁Centro	-2396
▁capacidad	-2397
▁ingres	-2398
▁perdi	-2399
ES	-2400
▁estaci	-2401
wa	-2402
▁Rus	-2403
▁muestra	-2404
rendi	-2405
▁antiguo	-2406
▁individ	-2407
▁tecn	-2408
ecen	-2409
▁libre	-2410
ps	-2411
naci	-2412
dap	-2413
▁Iglesia	-2414
▁pen	-2415
ER	-2416
▁gracias	-2417
▁Mer	-2418
rido	-2419
▁Ben	-2420
todo	-2421
oles	-2422
ltimos	-2423
▁nuevas	-2424
▁obtuvo	-2425
▁propia	-2426
▁Instituto	-2427
▁ol	-2428
▁Hu	-2429
▁ellas	-2430
="	-2431
▁Austr	-2432
▁semana	-2433
▁clase	-2434
▁Mig	-2435
logo	-2436
▁Esc	-2437
▁casos	-2438
▁debut	-2439
▁religios	-2440
▁electr	-2441
nicas	-2442
▁aprob	-2443
▁partes	-2444
▁interes	-2445
triz	-2446
▁Dan	-2447
▁bor	-2448
▁crear	-2449
▁noche	-2450
dific	-2451
▁comunidad	-2452
▁sencillo	-2453
▁avi	-2454
▁Deb	-2455
▁Bal	-2456
▁orien	-2457
han	-2458
▁salud	-2459
▁Tri	-2460
▁ampl	-2461
▁primeras	-2462
estival	-2463
▁Cap	-2464
▁Santiago	-2465
▁muri	-2466
tici	-2467
▁monta	-2468
▁eta	-2469
▁Jes	-2470
▁ciu	-2471
▁Divisi	-2472
lin	-2473
▁presencia	-2474
▁187	-2475
▁mit	-2476
▁desemp	-2477
▁29	-2478
ker	-2479
▁jur	-2480
▁jugador	-2481
▁ina	-2482
▁priv	-2483
▁cient	-2484
▁desc	-2485
▁il	-2486
▁Son	-2487
▁ib	-2488
▁Mal	-2489
ham	-2490
▁financi	-2491
▁quer	-2492
▁permite	-2493
▁Mil	-2494
▁consigu	-2495
▁50	-2496
bu	-2497
guna	-2498
):	-2499
▁inm	-2500
▁186	-2501
▁nombrado	-2502
arias	-2503
▁medida	-2504
AR	-2505
ximo	-2506
metros	-2507
ari	-2508
▁etc	-2509
unidad	-2510
▁Segunda	-2511
itado	-2512
mara	-2513
▁europe	-2514
itud	-2515
entas	-2516
▁Barcelona	-2517
ni	-2518
olo	-2519
vas	-2520
▁cat	-2521
▁atra	-2522
titud	-2523
sta	-2524
▁mercado	-2525
▁apoy	-2526
▁revista	-2527
▁Colomb	-2528
▁pron	-2529
▁im	-2530
▁divi	-2531
deo	-2532
▁seguridad	-2533
▁quienes	-2534
▁fab	-2535
▁sociedad	-2536
▁Will	-2537
▁adap	-2538
▁lig	-2539
▁episodio	-2540
▁enferme	-2541
▁web	-2542
▁Liga	-2543
▁arch	-2544
▁Pr	-2545
▁resta	-2546
dena	-2547
▁tama	-2548
▁cla	-2549
ndez	-2550
▁All	-2551
▁venta	-2552
▁ciudades	-2553
▁Consejo	-2554
▁plata	-2555
▁civil	-2556
ecre	-2557
▁minutos	-2558
ficos	-2559
ches	-2560
▁Algun	-2561
ws	-2562
▁respuesta	-2563
tadas	-2564
miti	-2565
▁fuerza	-2566
▁Miguel	-2567
▁deber	-2568
▁pare	-2569
rique	-2570
▁Ing	-2571
▁causa	-2572
▁permiti	-2573
▁maes	-2574
cam	-2575
isterio	-2576
▁ampli	-2577
▁quin	-2578
▁abier	-2579
tud	-2580
▁Os	-2581
▁Sch	-2582
visi	-2583
▁Lond	-2584
▁mitad	-2585
▁desapar	-2586
▁planta	-2587
▁Cos	-2588
▁luz	-2589
▁convertir	-2590
erto	-2591
▁arm	-2592
int	-2593
▁relacion	-2594
▁mex	-2595
▁defin	-2596
▁manten	-2597
▁cop	-2598
▁alg	-2599
iam	-2600
▁ministro	-2601
▁Italia	-2602
ultura	-2603
▁Gre	-2604
▁victoria	-2605
▁av	-2606
▁correspon	-2607
AS	-2608
▁uni	-2609
▁visi	-2610
▁obtener	-2611
quia	-2612
net	-2613
▁tercer	-2614
▁volvi	-2615
▁productos	-2616
▁reco	-2617
▁dicho	-2618
▁profun	-2619
rir	-2620
cle	-2621
guir	-2622
▁Ram	-2623
ulas	-2624
▁oeste	-2625
olu	-2626
torios	-2627
ks	-2628
▁viaj	-2629
media	-2630
▁recor	-2631
▁Bro	-2632
▁Pan	-2633
tilla	-2634
▁calidad	-2635
▁temas	-2636
',	-2637
▁afirm	-2638
▁independi	-2639
adres	-2640
▁zonas	-2641
▁medios	-2642
▁Mas	-2643
org	-2644
▁descubri	-2645
neas	-2646
▁pasado	-2647
ducir	-2648
▁lucha	-2649
▁2.	-2650
turo	-2651
▁|	-2652
ibuy	-2653
▁teor	-2654
▁Hay	-2655
viv	-2656
▁periodo	-2657
▁principio	-2658
ung	-2659
cidental	-2660
▁mejores	-2661
▁Bras	-2662
▁acceso	-2663
icia	-2664
▁Primera	-2665
▁desp	-2666
▁cultura	-2667
▁prome	-2668
▁Rey	-2669
▁jefe	-2670
▁esposa	-2671
30	-2672
ey	-2673
▁Del	-2674
▁acci	-2675
▁idea	-2676
torial	-2677
▁radio	-2678
pendencia	-2679
10	-2680
▁Fuer	-2681
▁Museo	-2682
▁Br	-2683
▁reemp	-2684
▁iz	-2685
▁aument	-2686
▁Jap	-2687
▁pasar	-2688
gal	-2689
ense	-2690
▁usar	-2691
▁otor	-2692
▁Mich	-2693
▁experim	-2694
▁fa	-2695
▁educaci	-2696
▁Ru	-2697
vos	-2698
dente	-2699
▁Premio	-2700
quil	-2701
▁foto	-2702
ij	-2703
quis	-2704
ime	-2705
▁Fo	-2706
▁amor	-2707
▁fabric	-2708
ting	-2709
▁esca	-2710
▁cristi	-2711
▁manif	-2712
▁tropas	-2713
▁diversos	-2714
▁nin	-2715
19	-2716
itan	-2717
▁Aca	-2718
tencia	-2719
art	-2720
▁Pue	-2721
ticamente	-2722
▁menudo	-2723
▁Der	-2724
▁Ag	-2725
acto	-2726
▁antigua	-2727
▁simple	-2728
bla	-2729
▁similar	-2730
irma	-2731
()	-2732
aja	-2733
▁media	-2734
▁sociales	-2735
itario	-2736
▁esf	-2737
▁acab	-2738
▁tercera	-2739
▁Tur	-2740
ili	-2741
▁Naci	-2742
ianza	-2743
▁aut	-2744
ulta	-2745
▁2010	-2746
▁lleva	-2747
▁Ed	-2748
genier	-2749
▁Mientras	-2750
▁honor	-2751
▁descon	-2752
▁Cris	-2753
▁Tra	-2754
ames	-2755
dan	-2756
▁asc	-2757
▁gesti	-2758
▁cantante	-2759
istra	-2760
▁llevar	-2761
ix	-2762
iblio	-2763
ted	-2764
▁III	-2765
▁Ay	-2766
▁van	-2767
----	-2768
▁ense	-2769
cepto	-2770
▁fra	-2771
▁entrada	-2772
alizar	-2773
▁inaug	-2774
▁identific	-2775
amo	-2776
ivos	-2777
▁construy	-2778
▁polic	-2779
micos	-2780
▁izquier	-2781
bir	-2782
▁desempe	-2783
▁estra	-2784
ky	-2785
▁mantener	-2786
▁lec	-2787
▁ade	-2788
curso	-2789
▁realidad	-2790
▁2011	-2791
▁Tom	-2792
▁empresas	-2793
▁sos	-2794
au	-2795
vel	-2796
▁Do	-2797
cidente	-2798
abilidad	-2799
ugares	-2800
▁Fernando	-2801
▁Sp	-2802
▁sector	-2803
char	-2804
▁falleci	-2805
▁Unido	-2806
reo	-2807
teca	-2808
▁2012	-2809
sh	-2810
▁:	-2811
▁Colombia	-2812
▁colon	-2813
tualmente	-2814
▁milit	-2815
▁Ley	-2816
▁dado	-2817
▁pudo	-2818
▁suces	-2819
▁evitar	-2820
▁Cruz	-2821
▁Gon	-2822
▁bene	-2823
▁novela	-2824
▁Estos	-2825
adu	-2826
▁camino	-2827
▁obten	-2828
▁trabajar	-2829
▁pudi	-2830
▁Mc	-2831
ural	-2832
▁For	-2833
▁31	-2834
▁40	-2835
▁Escuela	-2836
▁solici	-2837
▁cumpl	-2838
▁Rom	-2839
ctr	-2840
ospital	-2841
ale	-2842
▁Estu	-2843
▁pregun	-2844
gur	-2845
▁mano	-2846
▁Ori	-2847
later	-2848
-0	-2849
▁Cr	-2850
▁veloci	-2851
▁adqui	-2852
▁China	-2853
▁gente	-2854
▁falta	-2855
alia	-2856
▁veci	-2857
▁altura	-2858
▁oport	-2859
▁And	-2860
mocr	-2861
▁incluye	-2862
▁cabeza	-2863
▁rep	-2864
▁Posterior	-2865
▁cuyo	-2866
▁acus	-2867
▁dig	-2868
ish	-2869
▁come	-2870
cin	-2871
▁vac	-2872
▁fe	-2873
▁1,	-2874
forma	-2875
▁vendi	-2876
dados	-2877
▁Die	-2878
▁respecto	-2879
sicos	-2880
▁Dios	-2881
▁probable	-2882
ria	-2883
▁(201	-2884
▁propie	-2885
▁Est	-2886
aller	-2887
▁aspec	-2888
venes	-2889
▁Ap	-2890
▁publicado	-2891
▁elegido	-2892
▁diversas	-2893
▁Venez	-2894
▁infer	-2895
micas	-2896
▁siete	-2897
▁Catal	-2898
▁Patr	-2899
rece	-2900
▁Nic	-2901
▁(199	-2902
▁nada	-2903
tab	-2904
▁Brasil	-2905
▁mens	-2906
▁ran	-2907
▁Congreso	-2908
cla	-2909
ispo	-2910
▁tomar	-2911
▁demos	-2912
▁mol	-2913
quer	-2914
▁econom	-2915
ulaci	-2916
▁conflic	-2917
▁estren	-2918
▁Garc	-2919
▁Hol	-2920
▁material	-2921
ight	-2922
▁profesor	-2923
▁concl	-2924
▁propiedad	-2925
ney	-2926
▁vista	-2927
▁excl	-2928
rada	-2929
ferencia	-2930
pera	-2931
▁2013	-2932
▁sentido	-2933
ray	-2934
echo	-2935
▁refle	-2936
▁baja	-2937
▁siglo	-2938
▁aire	-2939
▁vig	-2940
▁(2	-2941
nez	-2942
igura	-2943
onte	-2944
▁registr	-2945
▁tempera	-2946
▁mec	-2947
▁mando	-2948
▁cerc	-2949
▁desta	-2950
▁lengu	-2951
▁Bur	-2952
▁lugares	-2953
▁dic	-2954
▁contac	-2955
ctica	-2956
▁sigue	-2957
usticia	-2958
anda	-2959
▁alem	-2960
▁indic	-2961
▁long	-2962
▁corri	-2963
▁manos	-2964
isa	-2965
▁tecnolog	-2966
▁camp	-2967
▁marc	-2968
▁Vol	-2969
▁gira	-2970
▁ayudar	-2971
▁Londres	-2972
uegos	-2973
su	-2974
▁mez	-2975
▁escribi	-2976
▁deri	-2977
▁conduc	-2978
▁Oc	-2979
▁2008	-2980
▁ocasiones	-2981
usta	-2982
▁diez	-2983
▁tri	-2984
▁Amer	-2985
▁sistemas	-2986
torno	-2987
▁alma	-2988
▁ejerci	-2989
▁Fil	-2990
ibles	-2991
▁oro	-2992
ull	-2993
▁Jer	-2994
▁armas	-2995
▁ataque	-2996
▁Ph	-2997
▁Fu	-2998
▁Imperio	-2999
▁bos	-3000
ablo	-3001
▁atenci	-3002
▁fundam	-3003
▁design	-3004
aya	-3005
▁centr	-3006
▁dinero	-3007
asa	-3008
▁2009	-3009
▁libros	-3010
▁Tierra	-3011
▁fies	-3012
▁existe	-3013
toral	-3014
▁Tele	-3015
▁recom	-3016
ane	-3017
laterra	-3018
▁cambios	-3019
▁asum	-3020
▁bol	-3021
▁cic	-3022
▁residen	-3023
▁asegur	-3024
▁proteg	-3025
▁conoce	-3026
▁recha	-3027
▁Char	-3028
▁bomb	-3029
▁David	-3030
▁modific	-3031
▁labor	-3032
▁demostr	-3033
manos	-3034
alo	-3035
▁marca	-3036
▁divisi	-3037
▁Municip	-3038
▁premio	-3039
OS	-3040
▁buena	-3041
▁Ir	-3042
cter	-3043
iforn	-3044
▁Pre	-3045
▁explic	-3046
▁peri	-3047
bar	-3048
▁Ya	-3049
▁juegos	-3050
AN	-3051
▁teatro	-3052
▁2007	-3053
▁hici	-3054
▁185	-3055
▁utiliza	-3056
▁cosas	-3057
▁repar	-3058
▁conce	-3059
▁kil	-3060
lisis	-3061
▁habr	-3062
untos	-3063
ON	-3064
tol	-3065
▁etapa	-3066
onel	-3067
tecci	-3068
▁2014	-3069
▁Alber	-3070
▁evi	-3071
▁enfrent	-3072
▁plaza	-3073
▁texto	-3074
▁padres	-3075
EN	-3076
venci	-3077
▁000	-3078
▁parece	-3079
lores	-3080
▁mediados	-3081
ny	-3082
▁todav	-3083
mite	-3084
▁voz	-3085
ionales	-3086
use	-3087
gentino	-3088
idamente	-3089
▁inferior	-3090
▁Tr	-3091
▁intent	-3092
▁Ten	-3093
▁Venezuela	-3094
▁confirm	-3095
▁recl	-3096
ive	-3097
▁conform	-3098
▁capa	-3099
("	-3100
▁cuya	-3101
izar	-3102
▁secund	-3103
▁espect	-3104
ensi	-3105
▁locales	-3106
▁volver	-3107
▁Nor	-3108
ese	-3109
▁adop	-3110
▁costa	-3111
▁formar	-3112
▁extran	-3113
▁canal	-3114
▁jugadores	-3115
▁humanos	-3116
mina	-3117
▁Fer	-3118
gina	-3119
centr	-3120
▁clasific	-3121
▁utilizar	-3122
▁torneo	-3123
▁ning	-3124
lez	-3125
▁trabajos	-3126
▁veh	-3127
ste	-3128
ultado	-3129
▁artistas	-3130
fe	-3131
enov	-3132
mir	-3133
iencias	-3134
enda	-3135
▁2015	-3136
▁aven	-3137
rbol	-3138
▁184	-3139
▁Central	-3140
▁don	-3141
▁Gr	-3142
▁Que	-3143
deres	-3144
▁verano	-3145
ood	-3146
▁Bas	-3147
tedr	-3148
▁cuesti	-3149
iss	-3150
gin	-3151
▁enter	-3152
▁formas	-3153
tring	-3154
▁mundial	-3155
iller	-3156
▁Gonz	-3157
▁actor	-3158
▁benefici	-3159
tional	-3160
▁evento	-3161
for	-3162
▁Villa	-3163
frica	-3164
▁Mat	-3165
ind	-3166
lada	-3167
▁tierras	-3168
rael	-3169
▁periodis	-3170
▁combate	-3171
▁dicha	-3172
▁haciendo	-3173
▁alcal	-3174
ult	-3175
xima	-3176
▁barrio	-3177
▁hora	-3178
sticos	-3179
▁compon	-3180
▁document	-3181
The	-3182
▁acu	-3183
▁exist	-3184
▁cel	-3185
▁seguir	-3186
▁transform	-3187
▁Ka	-3188
▁lic	-3189
egio	-3190
ifornia	-3191
demos	-3192
▁arg	-3193
▁selecci	-3194
▁ocho	-3195
▁campe	-3196
▁conec	-3197
▁alguna	-3198
bra	-3199
▁tendr	-3200
▁palabras	-3201
▁programas	-3202
▁elev	-3203
▁Je	-3204
▁proce	-3205
▁reb	-3206
icales	-3207
▁memor	-3208
▁figura	-3209
gicos	-3210
pal	-3211
▁dipu	-3212
▁William	-3213
▁Pop	-3214
▁conocer	-3215
▁Roma	-3216
▁cob	-3217
▁toma	-3218
onda	-3219
ore	-3220
▁Er	-3221
ye	-3222
▁Direc	-3223
ibuci	-3224
▁impres	-3225
▁prisi	-3226
put	-3227
AC	-3228
▁destin	-3229
▁comercial	-3230
▁Ga	-3231
▁viaje	-3232
porta	-3233
▁secu	-3234
▁jud	-3235
▁dirigida	-3236
▁espaci	-3237
▁parque	-3238
hi	-3239
▁defensa	-3240
▁ferro	-3241
▁Fac	-3242
▁perteneci	-3243
len	-3244
▁Domin	-3245
▁contrato	-3246
yn	-3247
▁jugar	-3248
In	-3249
itaci	-3250
▁inicio	-3251
ombre	-3252
▁velocidad	-3253
▁cuanto	-3254
▁carre	-3255
▁misi	-3256
▁blo	-3257
▁conde	-3258
eso	-3259
abel	-3260
▁palabra	-3261
alizado	-3262
▁recursos	-3263
ld	-3264
En	-3265
▁deben	-3266
▁golpe	-3267
▁defini	-3268
▁amena	-3269
ith	-3270
▁inspir	-3271
▁distrito	-3272
▁Hab	-3273
▁ge	-3274
▁Casa	-3275
▁colum	-3276
▁instr	-3277
")	-3278
cnica	-3279
▁Fre	-3280
▁yo	-3281
▁escul	-3282
eran	-3283
▁("	-3284
ilidades	-3285
▁sufri	-3286
▁mayores	-3287
▁presi	-3288
alu	-3289
bano	-3290
izada	-3291
ward	-3292
▁Don	-3293
▁inicia	-3294
▁Ger	-3295
▁Wal	-3296
▁aqu	-3297
▁animales	-3298
▁ganar	-3299
▁objeto	-3300
▁restos	-3301
▁Sam	-3302
▁longitud	-3303
▁ubicado	-3304
▁exterior	-3305
erador	-3306
mpor	-3307
usa	-3308
▁plantas	-3309
2)	-3310
tulos	-3311
▁bre	-3312
gi	-3313
▁Europe	-3314
pez	-3315
rer	-3316
▁avanz	-3317
ficas	-3318
▁2006	-3319
elas	-3320
▁enem	-3321
▁incluyen	-3322
isla	-3323
berg	-3324
▁autom	-3325
▁blanco	-3326
sen	-3327
▁Academia	-3328
▁militares	-3329
▁Flor	-3330
▁levan	-3331
▁industria	-3332
ust	-3333
▁Arm	-3334
▁sent	-3335
▁Social	-3336
▁inmedia	-3337
▁promo	-3338
▁bel	-3339
▁Cla	-3340
▁coment	-3341
▁hid	-3342
▁parro	-3343
Con	-3344
▁fase	-3345
▁comienza	-3346
▁efecto	-3347
.000	-3348
▁aparici	-3349
▁motor	-3350
ington	-3351
▁corte	-3352
we	-3353
▁fan	-3354
ultad	-3355
ance	-3356
▁sens	-3357
▁voc	-3358
nacionales	-3359
yos	-3360
▁artista	-3361
fin	-3362
crip	-3363
▁vas	-3364
▁elabor	-3365
▁arro	-3366
▁Tran	-3367
▁tex	-3368
▁vin	-3369
▁Chris	-3370
▁Mac	-3371
▁promoci	-3372
▁Rusia	-3373
▁unidades	-3374
▁tales	-3375
▁guar	-3376
▁2016	-3377
▁faci	-3378
tida	-3379
▁detal	-3380
▁cultural	-3381
▁Festival	-3382
▁futuro	-3383
▁tel	-3384
▁183	-3385
fil	-3386
▁sor	-3387
tle	-3388
zado	-3389
▁referirse	-3390
▁actriz	-3391
▁Em	-3392
▁sufici	-3393
▁posi	-3394
icidad	-3395
▁acciones	-3396
▁abandon	-3397
▁correc	-3398
ters	-3399
▁existen	-3400
▁Plan	-3401
▁Asoci	-3402
▁paci	-3403
▁ens	-3404
▁fundad	-3405
▁War	-3406
▁integ	-3407
llas	-3408
tell	-3409
cipe	-3410
▁exposici	-3411
▁revel	-3412
▁producto	-3413
tarse	-3414
umen	-3415
▁dev	-3416
▁Comisi	-3417
amble	-3418
▁Fr	-3419
▁flu	-3420
▁Bor	-3421
▁cruz	-3422
▁Debido	-3423
▁Jorge	-3424
▁60	-3425
▁dejar	-3426
ock	-3427
▁realizado	-3428
cadas	-3429
▁Ang	-3430
lem	-3431
▁Ur	-3432
▁escen	-3433
1)	-3434
▁capit	-3435
▁Sil	-3436
▁efectos	-3437
▁Tu	-3438
▁idi	-3439
▁municipal	-3440
▁ries	-3441
▁Du	-3442
old	-3443
uelas	-3444
▁coloc	-3445
▁comand	-3446
▁produjo	-3447
entales	-3448
▁Estas	-3449
▁sem	-3450
▁fuente	-3451
▁doble	-3452
▁Mag	-3453
▁Az	-3454
▁fines	-3455
▁cuarto	-3456
▁Hen	-3457
tim	-3458
▁esfuer	-3459
▁ambas	-3460
▁vio	-3461
cti	-3462
▁prueba	-3463
IN	-3464
▁Amb	-3465
vador	-3466
▁institu	-3467
▁utilizado	-3468
itada	-3469
▁dispar	-3470
-3	-3471
▁pasa	-3472
▁fru	-3473
▁decisi	-3474
60	-3475
puestas	-3476
▁extranj	-3477
▁funciones	-3478
▁convier	-3479
▁verda	-3480
edi	-3481
▁hermanos	-3482
▁amigos	-3483
▁Lin	-3484
▁busc	-3485
12	-3486
▁cadena	-3487
olver	-3488
teras	-3489
▁vuelta	-3490
izado	-3491
▁Enrique	-3492
▁llegada	-3493
▁completo	-3494
▁signific	-3495
ju	-3496
▁sustitu	-3497
▁instituci	-3498
ego	-3499
▁2017	-3500
▁pilo	-3501
▁escritor	-3502
▁pueblos	-3503
▁mic	-3504
imismo	-3505
▁convo	-3506
tividad	-3507
ncipe	-3508
▁Wil	-3509
rados	-3510
▁Ah	-3511
imientos	-3512
▁fig	-3513
osos	-3514
▁proyectos	-3515
▁contenido	-3516
IC	-3517
▁guitar	-3518
▁enci	-3519
5)	-3520
▁semanas	-3521
▁Bre	-3522
manes	-3523
▁amigo	-3524
▁inaugur	-3525
▁Monte	-3526
▁glo	-3527
▁2,	-3528
▁hu	-3529
▁quier	-3530
▁Mos	-3531
▁madera	-3532
▁pocos	-3533
▁Orden	-3534
▁noti	-3535
▁femen	-3536
▁Algunos	-3537
paci	-3538
erop	-3539
▁poner	-3540
▁reuni	-3541
▁Gru	-3542
▁aguas	-3543
▁chil	-3544
▁contiene	-3545
ocu	-3546
▁pelig	-3547
▁Cat	-3548
▁feder	-3549
▁disf	-3550
▁Pablo	-3551
▁cubier	-3552
▁tiempos	-3553
dicos	-3554
▁catal	-3555
▁lengua	-3556
▁guer	-3557
rantes	-3558
▁ingenier	-3559
▁salida	-3560
by	-3561
▁repro	-3562
orld	-3563
▁atac	-3564
▁invers	-3565
▁ninguna	-3566
3)	-3567
▁francesa	-3568
tig	-3569
▁program	-3570
▁revoluci	-3571
lamento	-3572
▁nuestro	-3573
▁182	-3574
▁necesario	-3575
▁Provin	-3576
▁presente	-3577
▁bastante	-3578
▁crea	-3579
abe	-3580
▁Bla	-3581
ID	-3582
istros	-3583
80	-3584
▁Li	-3585
▁creado	-3586
▁Edi	-3587
▁3.	-3588
40	-3589
▁Blan	-3590
▁unidad	-3591
▁pruebas	-3592
pone	-3593
▁tipos	-3594
4)	-3595
▁realiza	-3596
ilares	-3597
etas	-3598
torias	-3599
uestra	-3600
▁alum	-3601
▁numerosos	-3602
▁templo	-3603
▁crisis	-3604
sque	-3605
▁aus	-3606
▁Bill	-3607
▁Cre	-3608
▁buen	-3609
▁lanzado	-3610
▁Emp	-3611
icanos	-3612
public	-3613
imos	-3614
ware	-3615
olid	-3616
▁soldados	-3617
▁fuentes	-3618
enca	-3619
▁Feli	-3620
▁protes	-3621
▁2018	-3622
▁llega	-3623
▁beb	-3624
BC	-3625
AM	-3626
mbiente	-3627
▁Den	-3628
▁escena	-3629
▁obstante	-3630
▁peso	-3631
▁deman	-3632
▁gradu	-3633
▁libertad	-3634
▁Paul	-3635
▁composi	-3636
▁dibu	-3637
▁organ	-3638
▁circ	-3639
▁Puerto	-3640
▁rode	-3641
imen	-3642
▁nie	-3643
▁piedra	-3644
▁pul	-3645
ling	-3646
▁IV	-3647
pidamente	-3648
▁distintos	-3649
▁Asociaci	-3650
▁trib	-3651
iados	-3652
quista	-3653
▁Atl	-3654
Ar	-3655
▁Trans	-3656
▁We	-3657
EC	-3658
▁Cer	-3659
▁Tiene	-3660
▁depen	-3661
▁Depor	-3662
▁Virgen	-3663
▁abog	-3664
ricos	-3665
ismos	-3666
amp	-3667
▁infan	-3668
▁concentr	-3669
▁amar	-3670
teratura	-3671
metro	-3672
III	-3673
▁2005	-3674
▁Jul	-3675
('	-3676
▁izquierda	-3677
▁Andr	-3678
▁ofrec	-3679
▁aplicaci	-3680
raf	-3681
▁Riv	-3682
cionar	-3683
▁Star	-3684
gada	-3685
menes	-3686
▁liter	-3687
▁Fund	-3688
ecci	-3689
arc	-3690
▁provoc	-3691
▁vie	-3692
▁recibir	-3693
▁colecci	-3694
▁edificios	-3695
gicas	-3696
▁hacen	-3697
▁tuvieron	-3698
AL	-3699
▁llama	-3700
▁Lor	-3701
▁mm	-3702
terr	-3703
▁facil	-3704
▁goles	-3705
iblioteca	-3706
▁suelo	-3707
AT	-3708
osas	-3709
▁distancia	-3710
▁escrito	-3711
▁Fe	-3712
tedral	-3713
ak	-3714
▁2019	-3715
▁tes	-3716
ford	-3717
▁Castilla	-3718
orme	-3719
▁Hum	-3720
raz	-3721
▁derecha	-3722
▁grado	-3723
▁James	-3724
reras	-3725
▁Comun	-3726
andro	-3727
▁oficiales	-3728
fre	-3729
▁esos	-3730
11	-3731
▁titular	-3732
amento	-3733
uce	-3734
▁consigui	-3735
rdo	-3736
▁soluci	-3737
▁hicieron	-3738
iscal	-3739
▁Santo	-3740
▁mantuvo	-3741
▁Dr	-3742
▁Rich	-3743
▁aprendi	-3744
▁//	-3745
▁descar	-3746
▁Leg	-3747
▁arri	-3748
adoras	-3749
▁arti	-3750
uns	-3751
▁puerto	-3752
alizada	-3753
▁posee	-3754
▁islas	-3755
ave	-3756
▁cm	-3757
▁castillo	-3758
▁argentino	-3759
itaria	-3760
tidos	-3761
fonso	-3762
chi	-3763
▁sum	-3764
▁har	-3765
cionales	-3766
▁necesita	-3767
▁Historia	-3768
ate	-3769
▁adecu	-3770
▁Secre	-3771
amblea	-3772
▁Canad	-3773
amientos	-3774
▁dismin	-3775
utbol	-3776
idores	-3777
▁aquellos	-3778
▁fondo	-3779
▁Cub	-3780
▁suel	-3781
▁niveles	-3782
▁multi	-3783
▁situado	-3784
No	-3785
▁enc	-3786
quiv	-3787
▁impuls	-3788
▁luch	-3789
puestos	-3790
▁valores	-3791
ndole	-3792
▁alterna	-3793
tarios	-3794
▁necesidad	-3795
fi	-3796
▁Artes	-3797
ianos	-3798
▁familias	-3799
let	-3800
gip	-3801
▁hubo	-3802
▁Wh	-3803
▁conseguir	-3804
▁aumento	-3805
▁produce	-3806
▁perfec	-3807
eca	-3808
▁trat	-3809
ant	-3810
▁eventos	-3811
lia	-3812
oz	-3813
▁Sud	-3814
▁rock	-3815
▁arque	-3816
esta	-3817
▁permaneci	-3818
tiles	-3819
▁construir	-3820
vech	-3821
▁ras	-3822
▁US	-3823
▁nuestra	-3824
▁Liber	-3825
▁entrev	-3826
▁expe	-3827
▁audi	-3828
▁env	-3829
ega	-3830
▁cuid	-3831
aca	-3832
rano	-3833
▁Bern	-3834
tron	-3835
gimen	-3836
▁objetos	-3837
▁Mel	-3838
▁votos	-3839
▁Felipe	-3840
tismo	-3841
▁exclus	-3842
▁artes	-3843
▁estim	-3844
▁concepto	-3845
tern	-3846
uno	-3847
ucle	-3848
▁Bri	-3849
way	-3850
▁torre	-3851
▁ofrece	-3852
▁prensa	-3853
untamiento	-3854
▁cont	-3855
▁hermana	-3856
▁dan	-3857
▁mag	-3858
eropuerto	-3859
▁Bos	-3860
▁azul	-3861
tions	-3862
▁permit	-3863
▁distintas	-3864
▁)	-3865
▁acerca	-3866
sic	-3867
▁Pu	-3868
▁(198	-3869
▁secci	-3870
▁Serv	-3871
▁destru	-3872
eda	-3873
▁mismos	-3874
amil	-3875
▁variedad	-3876
▁2010,	-3877
▁dom	-3878
▁saber	-3879
▁adel	-3880
▁negro	-3881
ield	-3882
▁Luc	-3883
▁ofreci	-3884
▁sang	-3885
▁2011,	-3886
▁Kar	-3887
▁diario	-3888
▁tenido	-3889
OR	-3890
▁individu	-3891
▁fuego	-3892
▁India	-3893
Ch	-3894
taria	-3895
ato	-3896
▁vein	-3897
▁encuentro	-3898
▁Edu	-3899
▁Teatro	-3900
▁evoluci	-3901
▁asesina	-3902
▁cru	-3903
teros	-3904
isto	-3905
▁italiano	-3906
idor	-3907
rdoba	-3908
ngeles	-3909
▁habitu	-3910
adura	-3911
ienda	-3912
grado	-3913
▁exig	-3914
cra	-3915
alla	-3916
▁abri	-3917
▁Hor	-3918
▁motivo	-3919
AD	-3920
▁nombres	-3921
rden	-3922
▁decor	-3923
▁defens	-3924
▁flo	-3925
▁volun	-3926
▁Sta	-3927
▁captur	-3928
▁regular	-3929
▁fus	-3930
▁manifes	-3931
▁Jav	-3932
ngel	-3933
▁nombr	-3934
▁concre	-3935
▁protecci	-3936
▁Ese	-3937
ster	-3938
▁garan	-3939
unal	-3940
▁Dar	-3941
pertura	-3942
▁rendi	-3943
▁clases	-3944
ciales	-3945
tienen	-3946
▁bi	-3947
rios	-3948
dentes	-3949
▁invol	-3950
▁Sociedad	-3951
▁181	-3952
ael	-3953
▁Bra	-3954
▁Inv	-3955
guez	-3956
aliza	-3957
ise	-3958
asi	-3959
▁situada	-3960
ral	-3961
▁Alej	-3962
▁Vie	-3963
▁siglos	-3964
igr	-3965
icci	-3966
▁Costa	-3967
▁contacto	-3968
▁emperador	-3969
▁detr	-3970
▁Revoluci	-3971
▁visto	-3972
desa	-3973
▁tren	-3974
render	-3975
▁composici	-3976
▁Valencia	-3977
▁numerosas	-3978
▁jard	-3979
▁coci	-3980
▁Doc	-3981
dores	-3982
▁2012,	-3983
▁id	-3984
▁Robert	-3985
▁reemplaz	-3986
▁alcan	-3987
▁Ind	-3988
▁Jack	-3989
▁Grupo	-3990
my	-3991
quina	-3992
▁80	-3993
lie	-3994
▁prohib	-3995
ibilidad	-3996
sito	-3997
▁nomin	-3998
▁asign	-3999
▁hog	-4000
adi	-4001
▁fich	-4002
blicas	-4003
▁casas	-4004
▁pareja	-4005
▁trip	-4006
▁conven	-4007
▁bio	-4008
tancias	-4009
▁usuarios	-4010
▁Australia	-4011
▁larga	-4012
▁Sen	-4013
▁dific	-4014
▁paz	-4015
6)	-4016
ican	-4017
olas	-4018
iti	-4019
▁fortal	-4020
▁adelante	-4021
ulos	-4022
tres	-4023
▁sil	-4024
▁conden	-4025
▁actuaci	-4026
ect	-4027
▁demas	-4028
▁cambiar	-4029
entado	-4030
mato	-4031
inta	-4032
8)	-4033
▁juven	-4034
▁publicaci	-4035
ilio	-4036
ah	-4037
ek	-4038
▁Dos	-4039
his	-4040
▁usa	-4041
▁acad	-4042
▁ll	-4043
▁conflicto	-4044
minos	-4045
ello	-4046
▁You	-4047
▁semi	-4048
▁Rodr	-4049
uncia	-4050
▁testi	-4051
▁preocu	-4052
▁reino	-4053
▁DE	-4054
Qu	-4055
▁queda	-4056
▁producir	-4057
▁Gab	-4058
get	-4059
▁2004	-4060
▁Men	-4061
▁videoj	-4062
▁calles	-4063
▁comercio	-4064
▁plante	-4065
rminos	-4066
▁preten	-4067
▁regiones	-4068
ics	-4069
▁Mur	-4070
▁increm	-4071
▁Alex	-4072
emor	-4073
▁sup	-4074
▁sonido	-4075
▁elecci	-4076
▁bloque	-4077
▁podemos	-4078
ux	-4079
▁Alfonso	-4080
▁Portu	-4081
▁regreso	-4082
▁180	-4083
its	-4084
▁pronto	-4085
▁Trab	-4086
▁oposici	-4087
rey	-4088
▁piezas	-4089
ecuci	-4090
▁escal	-4091
▁Van	-4092
▁lograr	-4093
▁alcanzar	-4094
▁claro	-4095
-18	-4096
▁Inde	-4097
fes	-4098
▁Sev	-4099
▁error	-4100
▁explo	-4101
▁World	-4102
▁dur	-4103
▁carb	-4104
ordin	-4105
7)	-4106
25	-4107
▁fotograf	-4108
ivamente	-4109
▁modelos	-4110
acer	-4111
▁enten	-4112
▁mejorar	-4113
▁Pon	-4114
ser	-4115
yas	-4116
▁Ana	-4117
wer	-4118
dy	-4119
70	-4120
▁Diego	-4121
▁humano	-4122
▁2013,	-4123
▁emiti	-4124
▁ambiente	-4125
▁Red	-4126
▁histori	-4127
ords	-4128
icultura	-4129
cnico	-4130
▁2015,	-4131
▁adquiri	-4132
▁2014,	-4133
▁Ciencias	-4134
▁clima	-4135
▁Radio	-4136
▁Guar	-4137
▁memoria	-4138
▁derrota	-4139
ugh	-4140
▁versiones	-4141
▁decre	-4142
misi	-4143
▁On	-4144
▁acce	-4145
▁sug	-4146
jor	-4147
▁sobreviv	-4148
▁involuc	-4149
▁riesgo	-4150
ath	-4151
▁fer	-4152
▁clave	-4153
▁curso	-4154
▁amer	-4155
▁nar	-4156
▁Mol	-4157
illos	-4158
▁avan	-4159
▁veg	-4160
▁Tim	-4161
▁condado	-4162
ayo	-4163
zan	-4164
▁mad	-4165
▁disposi	-4166
▁aprovech	-4167
mpo	-4168
anzas	-4169
▁pp	-4170
▁promedio	-4171
terios	-4172
▁cara	-4173
osof	-4174
▁ecu	-4175
ami	-4176
▁Segu	-4177
▁diferente	-4178
▁Win	-4179
umb	-4180
▁Jun	-4181
▁austr	-4182
▁grave	-4183
ntico	-4184
ponde	-4185
▁prote	-4186
ndolo	-4187
▁busca	-4188
▁triun	-4189
carril	-4190
▁enfrenta	-4191
umo	-4192
▁puente	-4193
▁consum	-4194
lex	-4195
dar	-4196
ota	-4197
▁tre	-4198
▁Valle	-4199
▁medidas	-4200
▁aj	-4201
ear	-4202
▁pele	-4203
vie	-4204
▁explor	-4205
▁autores	-4206
luy	-4207
▁formado	-4208
▁pidi	-4209
reno	-4210
▁candidato	-4211
▁negoci	-4212
▁dirigido	-4213
entan	-4214
▁colores	-4215
▁mencion	-4216
cons	-4217
▁Sub	-4218
geno	-4219
9)	-4220
▁carta	-4221
▁clar	-4222
▁convierte	-4223
▁corre	-4224
▁carga	-4225
▁generaci	-4226
▁TV	-4227
▁bot	-4228
ille	-4229
▁fen	-4230
aco	-4231
▁pier	-4232
▁valle	-4233
▁2009,	-4234
▁Def	-4235
▁carretera	-4236
▁vivo	-4237
pla	-4238
▁suele	-4239
▁basada	-4240
▁Michael	-4241
▁cree	-4242
▁redes	-4243
▁disc	-4244
▁puso	-4245
▁breve	-4246
▁bienes	-4247
▁George	-4248
▁formato	-4249
tidades	-4250
▁constante	-4251
Al	-4252
▁2008,	-4253
ometr	-4254
▁condici	-4255
▁ruta	-4256
15	-4257
▁doctor	-4258
▁intelig	-4259
▁coin	-4260
ueva	-4261
▁antiguos	-4262
nicamente	-4263
▁sabe	-4264
itz	-4265
▁hechos	-4266
▁marcha	-4267
▁pintura	-4268
neos	-4269
como	-4270
▁requier	-4271
▁Fal	-4272
▁estados	-4273
▁respe	-4274
ctor	-4275
rill	-4276
▁intento	-4277
▁torno	-4278
▁Cul	-4279
▁recur	-4280
pido	-4281
▁ciencia	-4282
ramien	-4283
▁fundaci	-4284
▁Sar	-4285
unidenses	-4286
▁coraz	-4287
▁suce	-4288
▁some	-4289
americana	-4290
peraci	-4291
genas	-4292
▁renov	-4293
▁EE	-4294
▁Stu	-4295
▁nega	-4296
▁rob	-4297
▁Cada	-4298
▁sangre	-4299
▁manda	-4300
▁usando	-4301
▁precio	-4302
▁hue	-4303
▁Uno	-4304
▁Rafa	-4305
jes	-4306
ture	-4307
▁llegaron	-4308
▁dr	-4309
▁sala	-4310
▁cierto	-4311
▁convenci	-4312
▁restaur	-4313
">	-4314
▁ideas	-4315
▁Prin	-4316
▁Gua	-4317
▁Uru	-4318
▁portu	-4319
▁permitir	-4320
▁elemento	-4321
mes	-4322
▁deten	-4323
▁Fa	-4324
gel	-4325
▁deriv	-4326
▁Pen	-4327
▁bra	-4328
▁capaz	-4329
din	-4330
ples	-4331
▁Ecu	-4332
dias	-4333
▁haya	-4334
ther	-4335
▁escribir	-4336
onalmente	-4337
zada	-4338
▁CO	-4339
▁Popular	-4340
▁intens	-4341
▁Otros	-4342
▁alcalde	-4343
▁inicial	-4344
istir	-4345
IS	-4346
▁dec	-4347
▁museo	-4348
▁seleccion	-4349
▁buscar	-4350
▁Comit	-4351
cesa	-4352
▁Salvador	-4353
diente	-4354
▁Jim	-4355
▁cabal	-4356
anismo	-4357
istente	-4358
leo	-4359
▁500	-4360
▁pros	-4361
▁ingles	-4362
▁frontera	-4363
▁Asimismo	-4364
cnicas	-4365
▁puerta	-4366
▁2016,	-4367
▁esco	-4368
▁emo	-4369
▁2007,	-4370
para	-4371
▁Era	-4372
lulas	-4373
▁Lima	-4374
ague	-4375
▁conta	-4376
ings	-4377
wood	-4378
▁Tal	-4379
▁hier	-4380
-4	-4381
ence	-4382
▁Daniel	-4383
▁ubicada	-4384
ast	-4385
▁Var	-4386
▁vuelo	-4387
▁2003	-4388
▁convers	-4389
▁piel	-4390
izan	-4391
▁desemb	-4392
▁Jean	-4393
▁nueve	-4394
▁Nuevo	-4395
▁mucha	-4396
obre	-4397
▁prima	-4398
▁Ofici	-4399
▁terreno	-4400
RO	-4401
ude	-4402
▁duque	-4403
▁mane	-4404
▁Juegos	-4405
▁Bus	-4406
▁imper	-4407
don	-4408
▁productor	-4409
▁Guad	-4410
▁oscu	-4411
▁obispo	-4412
▁naveg	-4413
ministr	-4414
▁decis	-4415
mez	-4416
▁usuario	-4417
Cu	-4418
▁recibe	-4419
uth	-4420
▁Ella	-4421
st	-4422
▁recons	-4423
▁reform	-4424
▁Mayor	-4425
▁metal	-4426
▁Econ	-4427
zaje	-4428
▁70	-4429
▁almacen	-4430
cripci	-4431
merg	-4432
▁Plata	-4433
▁35	-4434
▁vesti	-4435
▁pueda	-4436
ife	-4437
▁herramien	-4438
▁aco	-4439
▁Elec	-4440
▁dirigi	-4441
▁90	-4442
▁adul	-4443
▁salir	-4444
2),	-4445
uta	-4446
▁intenci	-4447
▁Inf	-4448
▁Isabel	-4449
▁refug	-4450
▁detec	-4451
tropol	-4452
▁absolu	-4453
▁Ken	-4454
▁entrar	-4455
▁Federal	-4456
();	-4457
tz	-4458
▁prev	-4459
▁2018,	-4460
▁Sue	-4461
▁dipl	-4462
▁reina	-4463
▁Han	-4464
▁basado	-4465
▁vuelve	-4466
llos	-4467
▁record	-4468
▁propios	-4469
▁4.	-4470
▁liga	-4471
▁guion	-4472
▁centros	-4473
cher	-4474
▁estrella	-4475
▁Alberto	-4476
cido	-4477
▁Palacio	-4478
▁decide	-4479
▁conex	-4480
▁hospital	-4481
▁fiesta	-4482
estruc	-4483
▁futbol	-4484
▁proporci	-4485
▁Antes	-4486
questa	-4487
tric	-4488
▁contrario	-4489
mento	-4490
▁magn	-4491
▁menores	-4492
icios	-4493
▁Med	-4494
▁gana	-4495
▁vivir	-4496
▁2017,	-4497
▁sigui	-4498
▁Cristo	-4499
▁nave	-4500
▁democr	-4501
▁quiere	-4502
▁similares	-4503
▁result	-4504
arqu	-4505
▁0,	-4506
ania	-4507
▁extremo	-4508
mann	-4509
▁ocurri	-4510
ograf	-4511
ducido	-4512
▁Uruguay	-4513
▁reac	-4514
squeda	-4515
tesis	-4516
▁salv	-4517
▁Sevilla	-4518
apones	-4519
▁habla	-4520
▁Junta	-4521
▁operaci	-4522
▁escrita	-4523
cina	-4524
pado	-4525
▁fi	-4526
▁relev	-4527
3),	-4528
blicos	-4529
nal	-4530
▁iba	-4531
▁Israel	-4532
rdida	-4533
▁japones	-4534
▁sola	-4535
▁disfru	-4536
▁deba	-4537
▁ses	-4538
erdo	-4539
FA	-4540
▁mir	-4541
▁Educaci	-4542
ivas	-4543
▁equiv	-4544
▁lin	-4545
▁prac	-4546
▁figuras	-4547
▁Arte	-4548
▁verde	-4549
▁demasiado	-4550
▁naturales	-4551
▁terror	-4552
▁opera	-4553
▁acto	-4554
▁terminar	-4555
▁agreg	-4556
▁titulado	-4557
titucional	-4558
ricas	-4559
▁ronda	-4560
ivia	-4561
vera	-4562
▁Peter	-4563
▁tabla	-4564
▁impues	-4565
▁My	-4566
▁2006,	-4567
aman	-4568
▁Ren	-4569
▁2019,	-4570
4),	-4571
▁later	-4572
▁visita	-4573
ella	-4574
▁cay	-4575
▁parroquia	-4576
omos	-4577
tios	-4578
▁estadio	-4579
▁procedi	-4580
▁remo	-4581
▁dando	-4582
▁Asamblea	-4583
▁sovi	-4584
▁edu	-4585
▁Oro	-4586
▁maestro	-4587
▁tele	-4588
▁vincul	-4589
▁Ke	-4590
▁Tex	-4591
abez	-4592
▁amplia	-4593
▁opci	-4594
▁Civil	-4595
▁Portugal	-4596
tuales	-4597
▁Ama	-4598
▁prov	-4599
hab	-4600
▁distribu	-4601
▁VI	-4602
ltiples	-4603
▁ja	-4604
acas	-4605
▁(197	-4606
▁bur	-4607
nam	-4608
▁entorno	-4609
1),	-4610
nch	-4611
▁ruso	-4612
▁reducir	-4613
▁if	-4614
sar	-4615
▁campos	-4616
gro	-4617
▁nota	-4618
▁bater	-4619
▁contribuy	-4620
▁Gra	-4621
ashington	-4622
▁Tar	-4623
6),	-4624
mbito	-4625
▁lago	-4626
nov	-4627
▁comienzo	-4628
tory	-4629
▁compuesto	-4630
paron	-4631
▁educa	-4632
▁Mir	-4633
▁villa	-4634
▁Pub	-4635
unes	-4636
▁completa	-4637
rim	-4638
▁sacerdo	-4639
8),	-4640
▁fundada	-4641
chada	-4642
▁contar	-4643
▁ganado	-4644
▁encima	-4645
mentos	-4646
igue	-4647
▁Ni	-4648
▁lenguaje	-4649
ieza	-4650
▁leyes	-4651
uf	-4652
turn	-4653
").	-4654
▁llu	-4655
▁propuesta	-4656
▁Anti	-4657
▁marco	-4658
▁Jef	-4659
▁suje	-4660
▁lider	-4661
▁extensi	-4662
▁Rafael	-4663
▁flor	-4664
aces	-4665
bita	-4666
▁prim	-4667
▁ocasi	-4668
▁solamente	-4669
rdenes	-4670
terna	-4671
▁Hun	-4672
▁hel	-4673
▁3,	-4674
zi	-4675
lvar	-4676
▁escenario	-4677
▁violencia	-4678
▁Sab	-4679
▁Gro	-4680
rom	-4681
▁repe	-4682
▁escuelas	-4683
rana	-4684
gre	-4685
rump	-4686
▁Justicia	-4687
bil	-4688
▁constituy	-4689
▁ambien	-4690
eck	-4691
ecido	-4692
▁Paz	-4693
▁realizada	-4694
cados	-4695
▁Ev	-4696
▁estatu	-4697
nto	-4698
▁procesos	-4699
asterio	-4700
orado	-4701
▁idioma	-4702
jado	-4703
burgo	-4704
▁carreras	-4705
▁Ib	-4706
▁visit	-4707
agr	-4708
gena	-4709
▁aspecto	-4710
▁Bat	-4711
▁Federaci	-4712
▁Esp	-4713
IA	-4714
▁XV	-4715
▁generales	-4716
▁conocidos	-4717
▁contempor	-4718
▁identidad	-4719
▁pais	-4720
▁Richard	-4721
▁ros	-4722
turi	-4723
▁vice	-4724
▁forman	-4725
▁incluido	-4726
▁indica	-4727
▁fel	-4728
▁pies	-4729
▁Pac	-4730
▁Bea	-4731
▁peru	-4732
▁destaca	-4733
▁Aug	-4734
-201	-4735
▁calific	-4736
▁mexicano	-4737
▁Vi	-4738
▁rojo	-4739
▁alimentos	-4740
▁sali	-4741
▁fol	-4742
▁perder	-4743
▁Arag	-4744
▁Colegio	-4745
▁colo	-4746
▁consul	-4747
▁pantalla	-4748
▁capilla	-4749
▁1990	-4750
▁portugu	-4751
iamente	-4752
▁Cuba	-4753
▁musicales	-4754
▁Roy	-4755
▁Estad	-4756
ction	-4757
▁utilizan	-4758
▁ancho	-4759
ertos	-4760
▁2002	-4761
▁familiar	-4762
ndi	-4763
nsula	-4764
▁debajo	-4765
▁complejo	-4766
▁Hasta	-4767
▁Trib	-4768
7),	-4769
▁vecinos	-4770
ary	-4771
▁palacio	-4772
ides	-4773
mens	-4774
▁sean	-4775
▁IN	-4776
▁surg	-4777
▁2001	-4778
▁Hel	-4779
rende	-4780
▁expresi	-4781
▁paral	-4782
▁materia	-4783
▁interpret	-4784
culares	-4785
▁reca	-4786
▁Fundaci	-4787
cy	-4788
cimiento	-4789
▁firma	-4790
▁rango	-4791
▁escla	-4792
▁populares	-4793
pes	-4794
▁estrateg	-4795
▁adi	-4796
▁hablar	-4797
▁Vill	-4798
5),	-4799
▁encarg	-4800
▁estrellas	-4801
▁gus	-4802
▁hall	-4803
▁fundador	-4804
▁excepci	-4805
▁exhib	-4806
▁escala	-4807
▁premios	-4808
▁incendi	-4809
▁Ari	-4810
▁data	-4811
licos	-4812
▁pis	-4813
▁despe	-4814
EL	-4815
▁tray	-4816
▁2020,	-4817
▁matem	-4818
▁Medi	-4819
▁Air	-4820
rg	-4821
enemos	-4822
tive	-4823
▁City	-4824
▁Pin	-4825
▁UN	-4826
▁Aven	-4827
▁179	-4828
▁Internet	-4829
.)	-4830
▁Todos	-4831
▁ofer	-4832
iber	-4833
▁recomend	-4834
ons	-4835
▁procl	-4836
todos	-4837
":	-4838
▁accidente	-4839
▁resca	-4840
▁habl	-4841
▁teniendo	-4842
guien	-4843
▁limp	-4844
▁recuer	-4845
▁creada	-4846
▁Media	-4847
▁Derecho	-4848
▁consumo	-4849
▁ascenso	-4850
▁refiere	-4851
▁progres	-4852
itales	-4853
▁Aqu	-4854
18	-4855
▁Sebas	-4856
ku	-4857
rabe	-4858
▁Asia	-4859
▁Pers	-4860
▁Bl	-4861
▁cerem	-4862
▁episodios	-4863
:00	-4864
▁humana	-4865
</	-4866
▁esas	-4867
▁alber	-4868
trol	-4869
▁escol	-4870
▁continuar	-4871
▁descendi	-4872
dol	-4873
bus	-4874
▁err	-4875
px	-4876
deras	-4877
▁Cine	-4878
▁Eduardo	-4879
9),	-4880
nchez	-4881
▁Mic	-4882
▁puedes	-4883
uca	-4884
ata	-4885
osotros	-4886
ftware	-4887
▁nuestros	-4888
▁2021	-4889
▁colomb	-4890
▁destino	-4891
▁impacto	-4892
deros	-4893
▁Black	-4894
▁Frank	-4895
▁Torre	-4896
ansi	-4897
▁sosten	-4898
enco	-4899
▁Ric	-4900
trop	-4901
▁tem	-4902
▁poten	-4903
▁nad	-4904
mitir	-4905
▁conm	-4906
▁dominio	-4907
▁rebel	-4908
teo	-4909
ht	-4910
▁Alejandro	-4911
▁Guiller	-4912
itaciones	-4913
enaje	-4914
▁proto	-4915
ony	-4916
isco	-4917
▁evalu	-4918
▁ger	-4919
jeron	-4920
▁aten	-4921
▁contexto	-4922
TV	-4923
▁Ko	-4924
lesc	-4925
mith	-4926
";	-4927
TA	-4928
Re	-4929
▁Martin	-4930
▁otorg	-4931
▁300	-4932
▁dep	-4933
▁Music	-4934
▁von	-4935
▁oriental	-4936
cleo	-4937
▁llegando	-4938
▁enfo	-4939
▁Neg	-4940
▁Charles	-4941
▁Plaza	-4942
▁tengo	-4943
▁precis	-4944
▁hacerlo	-4945
▁pasando	-4946
▁dependi	-4947
▁Tro	-4948
▁geo	-4949
▁puertas	-4950
▁fracas	-4951
▁traduc	-4952
▁entrega	-4953
oroeste	-4954
▁mud	-4955
▁directo	-4956
arla	-4957
▁profundi	-4958
▁contaba	-4959
ieran	-4960
▁recibido	-4961
▁tratar	-4962
eas	-4963
ltimas	-4964
▁Thomas	-4965
tisf	-4966
▁human	-4967
▁micro	-4968
echas	-4969
▁Catalu	-4970
▁(17	-4971
▁masa	-4972
▁ataques	-4973
▁retra	-4974
▁implic	-4975
▁medal	-4976
▁Lan	-4977
▁pasaj	-4978
▁notable	-4979
Los	-4980
▁Desarro	-4981
cord	-4982
▁diplom	-4983
redi	-4984
alista	-4985
▁ang	-4986
ure	-4987
▁Distr	-4988
itados	-4989
▁Banco	-4990
▁producido	-4991
San	-4992
▁apenas	-4993
brica	-4994
▁hojas	-4995
▁Domingo	-4996
line	-4997
ema	-4998
▁nucle	-4999
▁toc	-5000
cticas	-5001
▁ventas	-5002
▁Poco	-5003
▁abund	-5004
▁pista	-5005
▁film	-5006
▁aparecen	-5007
▁deja	-5008
▁desconoci	-5009
arte	-5010
anes	-5011
▁bras	-5012
▁ciclo	-5013
presi	-5014
▁Clar	-5015
▁Ecuador	-5016
logos	-5017
▁asesinato	-5018
▁arreg	-5019
▁finaliz	-5020
▁musul	-5021
smo	-5022
xt	-5023
SS	-5024
▁impos	-5025
▁estudiar	-5026
▁Hern	-5027
▁sexual	-5028
quez	-5029
▁proven	-5030
▁sho	-5031
▁Lou	-5032
▁dios	-5033
▁aspectos	-5034
▁trayec	-5035
▁ais	-5036
▁elimin	-5037
nima	-5038
▁cent	-5039
▁reforma	-5040
BA	-5041
▁suelen	-5042
▁alemana	-5043
▁Sebasti	-5044
▁construc	-5045
▁Guillermo	-5046
▁ojos	-5047
▁cercan	-5048
▁Form	-5049
▁entreg	-5050
▁dejando	-5051
▁cif	-5052
▁registro	-5053
▁diputado	-5054
tri	-5055
45	-5056
▁due	-5057
▁()	-5058
▁agrup	-5059
▁piloto	-5060
▁embaj	-5061
▁descubier	-5062
▁abierto	-5063
▁consiste	-5064
▁competi	-5065
▁Tw	-5066
▁corto	-5067
▁enla	-5068
▁Naciones	-5069
▁dolor	-5070
ville	-5071
▁excel	-5072
▁Josep	-5073
dea	-5074
sk	-5075
▁Mundo	-5076
▁realmente	-5077
▁griego	-5078
▁presentar	-5079
▁aves	-5080
▁Gol	-5081
▁anual	-5082
guar	-5083
▁alemanes	-5084
▁apor	-5085
▁2005,	-5086
90	-5087
▁publicada	-5088
▁encabez	-5089
▁concierto	-5090
▁org	-5091
▁Supre	-5092
▁class	-5093
->	-5094
▁hip	-5095
▁compuesta	-5096
blo	-5097
▁mantiene	-5098
▁Guatem	-5099
ow	-5100
▁asociaci	-5101
iner	-5102
▁tran	-5103
▁Corte	-5104
▁Edad	-5105
▁republic	-5106
16	-5107
▁45	-5108
hol	-5109
kin	-5110
▁fas	-5111
▁Cultura	-5112
▁Estudi	-5113
▁Investig	-5114
▁cuarta	-5115
▁cereb	-5116
mbol	-5117
sicas	-5118
ass	-5119
rboles	-5120
▁Crist	-5121
▁verdad	-5122
▁informe	-5123
▁cargos	-5124
▁Vicente	-5125
▁critic	-5126
▁regresar	-5127
▁desplaz	-5128
▁tratado	-5129
▁opini	-5130
duce	-5131
▁fuertes	-5132
bana	-5133
mun	-5134
orio	-5135
ctimas	-5136
▁XI	-5137
▁propias	-5138
▁CD	-5139
ncer	-5140
▁Hoy	-5141
▁tea	-5142
tropolit	-5143
ender	-5144
got	-5145
▁deleg	-5146
▁5.	-5147
▁Records	-5148
▁euros	-5149
▁clientes	-5150
echos	-5151
bio	-5152
▁concluy	-5153
▁ilustr	-5154
bos	-5155
▁32	-5156
▁planes	-5157
▁autoridad	-5158
▁proteger	-5159
▁acum	-5160
▁fondos	-5161
▁subs	-5162
▁extin	-5163
▁Facultad	-5164
tiende	-5165
▁1980	-5166
▁comporta	-5167
▁fir	-5168
▁Boy	-5169
▁mam	-5170
▁Berl	-5171
▁circuns	-5172
▁Sco	-5173
iviles	-5174
▁papa	-5175
▁comprar	-5176
ibe	-5177
▁psic	-5178
putaci	-5179
13	-5180
▁adolesc	-5181
▁espacios	-5182
diendo	-5183
▁mostrar	-5184
▁famoso	-5185
dencias	-5186
▁publ	-5187
ende	-5188
▁ace	-5189
Mar	-5190
▁cumplir	-5191
▁Escri	-5192
▁Gil	-5193
▁disposici	-5194
▁Guatemala	-5195
▁comunes	-5196
▁Julio	-5197
▁Nicol	-5198
▁comisi	-5199
▁coo	-5200
▁tej	-5201
▁archivo	-5202
▁Vas	-5203
▁dieron	-5204
▁flores	-5205
unt	-5206
▁Les	-5207
▁apertura	-5208
▁1999	-5209
▁bandas	-5210
roso	-5211
fera	-5212
▁Leon	-5213
▁altas	-5214
▁atribu	-5215
▁Organiz	-5216
▁variable	-5217
ndar	-5218
▁Rol	-5219
-6	-5220
▁Temp	-5221
▁renunci	-5222
▁objetivos	-5223
-5	-5224
set	-5225
tipo	-5226
▁demanda	-5227
▁Hi	-5228
▁rue	-5229
▁miner	-5230
▁taller	-5231
▁ocul	-5232
nel	-5233
▁celebra	-5234
▁vent	-5235
ezol	-5236
▁licencia	-5237
▁aconte	-5238
rupci	-5239
▁combusti	-5240
▁aviones	-5241
▁Il	-5242
▁Rub	-5243
▁regional	-5244
sal	-5245
domin	-5246
▁aumentar	-5247
▁Compa	-5248
▁resolver	-5249
▁Che	-5250
▁tribu	-5251
▁homenaje	-5252
▁reserv	-5253
▁global	-5254
▁escas	-5255
▁compra	-5256
An	-5257
▁jorn	-5258
▁comprom	-5259
▁letras	-5260
▁requer	-5261
▁extr	-5262
▁(196	-5263
▁new	-5264
▁St	-5265
▁duraci	-5266
matogr	-5267
▁invierno	-5268
americano	-5269
▁volumen	-5270
▁pobl	-5271
ultades	-5272
▁Bolivia	-5273
▁abogado	-5274
div	-5275
▁enf	-5276
▁fras	-5277
quilib	-5278
▁poeta	-5279
▁alguien	-5280
▁coronel	-5281
▁Hospital	-5282
inast	-5283
▁elig	-5284
noma	-5285
af	-5286
▁mensaje	-5287
▁Parque	-5288
▁Dra	-5289
14	-5290
▁asenta	-5291
▁Sovi	-5292
▁atrac	-5293
▁reempla	-5294
▁ejer	-5295
▁Austria	-5296
▁digital	-5297
▁practic	-5298
▁Mis	-5299
▁rein	-5300
▁Sierra	-5301
rillo	-5302
▁Tre	-5303
ritu	-5304
lesias	-5305
simo	-5306
▁Fri	-5307
▁franceses	-5308
bado	-5309
▁Mario	-5310
▁Otro	-5311
teles	-5312
▁Grande	-5313
▁plane	-5314
mites	-5315
▁grabaci	-5316
mita	-5317
▁usado	-5318
ET	-5319
amar	-5320
dac	-5321
iendas	-5322
istema	-5323
iares	-5324
bilidad	-5325
▁venezol	-5326
▁pagar	-5327
▁rit	-5328
ajos	-5329
▁qui	-5330
▁concurso	-5331
▁Sim	-5332
▁pintor	-5333
▁1920	-5334
▁Rock	-5335
umenta	-5336
▁asisti	-5337
▁Nuestra	-5338
▁espera	-5339
▁tenemos	-5340
▁Gabri	-5341
▁expansi	-5342
▁Tour	-5343
▁entidad	-5344
▁fachada	-5345
▁UU	-5346
orro	-5347
▁from	-5348
ctrica	-5349
▁planeta	-5350
▁Stan	-5351
▁pasajeros	-5352
▁presu	-5353
▁presentan	-5354
▁Wa	-5355
▁fundado	-5356
tiendo	-5357
viamente	-5358
AP	-5359
▁legisla	-5360
▁Af	-5361
▁PS	-5362
▁diag	-5363
▁arco	-5364
ielo	-5365
▁Europea	-5366
▁momentos	-5367
▁guard	-5368
▁natal	-5369
▁celeb	-5370
▁llevado	-5371
▁Aut	-5372
▁Corea	-5373
▁marqu	-5374
▁mascul	-5375
▁mezcla	-5376
▁2012.	-5377
▁American	-5378
adr	-5379
endido	-5380
cola	-5381
▁Georg	-5382
▁Vall	-5383
▁Mes	-5384
elos	-5385
rus	-5386
uz	-5387
pico	-5388
▁Art	-5389
▁bosque	-5390
IT	-5391
▁juntos	-5392
▁televis	-5393
-200	-5394
▁Rel	-5395
▁sit	-5396
▁lados	-5397
clo	-5398
▁Superior	-5399
▁Bon	-5400
▁actos	-5401
iernos	-5402
▁estad	-5403
▁corpor	-5404
▁Gen	-5405
▁plazo	-5406
pida	-5407
▁36	-5408
▁Agr	-5409
▁consolid	-5410
▁sello	-5411
▁acces	-5412
▁asal	-5413
▁2010.	-5414
▁Saint	-5415
viles	-5416
▁comenzar	-5417
▁mel	-5418
▁XX	-5419
ioso	-5420
landes	-5421
ntica	-5422
▁tro	-5423
tizar	-5424
▁destacan	-5425
▁enorme	-5426
oras	-5427
▁Park	-5428
▁noticias	-5429
itarios	-5430
▁West	-5431
▁conserva	-5432
dito	-5433
▁Far	-5434
olina	-5435
▁factores	-5436
▁150	-5437
▁Egip	-5438
▁logra	-5439
▁satisf	-5440
▁escenas	-5441
uelos	-5442
ds	-5443
▁diferenci	-5444
xi	-5445
▁esenci	-5446
field	-5447
--------	-5448
jero	-5449
▁costo	-5450
▁civiles	-5451
▁coinci	-5452
▁corta	-5453
▁comida	-5454
▁posibles	-5455
▁Phil	-5456
inc	-5457
Pro	-5458
rue	-5459
▁corriente	-5460
jan	-5461
▁Arch	-5462
22	-5463
dicial	-5464
▁frag	-5465
▁letra	-5466
▁pregunta	-5467
▁178	-5468
▁tab	-5469
▁juicio	-5470
▁brasile	-5471
▁duda	-5472
▁Unidas	-5473
▁federal	-5474
▁inver	-5475
▁Len	-5476
▁Ahora	-5477
curs	-5478
▁fres	-5479
tone	-5480
▁Cro	-5481
▁hotel	-5482
▁dedicado	-5483
▁solar	-5484
▁negr	-5485
▁miles	-5486
▁suma	-5487
35	-5488
▁Agu	-5489
▁1998	-5490
▁sirvi	-5491
▁urban	-5492
▁1970	-5493
▁viene	-5494
▁invasi	-5495
▁hos	-5496
▁documento	-5497
▁expuls	-5498
▁Democr	-5499
lement	-5500
▁2011.	-5501
▁negocio	-5502
Un	-5503
pero	-5504
▁listas	-5505
▁Stre	-5506
pin	-5507
▁Otra	-5508
ronce	-5509
▁series	-5510
presidente	-5511
▁adici	-5512
▁Castillo	-5513
▁AD	-5514
▁exac	-5515
ander	-5516
▁software	-5517
▁influy	-5518
rmula	-5519
didas	-5520
▁arres	-5521
▁religi	-5522
▁Mejor	-5523
▁Rod	-5524
▁tus	-5525
▁meta	-5526
▁cierta	-5527
urg	-5528
▁precios	-5529
aqu	-5530
▁2021,	-5531
▁pacientes	-5532
uck	-5533
▁gir	-5534
cularmente	-5535
oya	-5536
iense	-5537
grama	-5538
mbo	-5539
▁Victoria	-5540
▁League	-5541
hen	-5542
▁Dol	-5543
itch	-5544
▁incluir	-5545
▁ul	-5546
▁electoral	-5547
▁copias	-5548
pers	-5549
▁destacar	-5550
▁razones	-5551
▁arqueol	-5552
▁expedici	-5553
board	-5554
▁Chica	-5555
75	-5556
▁ubicaci	-5557
▁Clas	-5558
▁bajas	-5559
Car	-5560
ieren	-5561
▁Apar	-5562
▁intelec	-5563
▁afici	-5564
bor	-5565
poner	-5566
▁clubes	-5567
▁ingresos	-5568
▁ciento	-5569
uces	-5570
▁sucedi	-5571
tinos	-5572
mba	-5573
▁Viv	-5574
▁filosof	-5575
▁hal	-5576
▁preci	-5577
▁pieza	-5578
▁pago	-5579
//	-5580
ua	-5581
ferencias	-5582
▁sectores	-5583
▁mismas	-5584
usos	-5585
▁negocios	-5586
▁estatal	-5587
▁simp	-5588
▁prol	-5589
tl	-5590
▁2000,	-5591
▁escudo	-5592
idal	-5593
▁Scho	-5594
▁ecl	-5595
▁venci	-5596
▁Canal	-5597
▁normal	-5598
tara	-5599
ficamente	-5600
▁senti	-5601
▁comienzos	-5602
▁barco	-5603
▁noble	-5604
cticamente	-5605
imas	-5606
▁Press	-5607
▁Play	-5608
alici	-5609
▁anot	-5610
fos	-5611
minaci	-5612
▁emerg	-5613
estr	-5614
▁return	-5615
▁potencia	-5616
▁moderna	-5617
▁Egipto	-5618
▁Esco	-5619
▁Smith	-5620
inal	-5621
burg	-5622
▁Hal	-5623
top	-5624
ginas	-5625
lido	-5626
▁Tribunal	-5627
uera	-5628
▁bosques	-5629
▁afirma	-5630
▁altitud	-5631
▁sorp	-5632
ube	-5633
▁bases	-5634
▁acceder	-5635
▁line	-5636
▁cosa	-5637
▁Provincia	-5638
▁Algunas	-5639
▁directa	-5640
▁by	-5641
▁dul	-5642
eco	-5643
tador	-5644
nia	-5645
tificaci	-5646
▁2004,	-5647
omen	-5648
De	-5649
▁config	-5650
▁resulta	-5651
fono	-5652
urgo	-5653
onces	-5654
egas	-5655
▁lat	-5656
▁abandonar	-5657
▁pobre	-5658
▁reinado	-5659
▁Fuerza	-5660
▁altos	-5661
▁Granada	-5662
▁Gir	-5663
arago	-5664
▁Polonia	-5665
▁exam	-5666
tique	-5667
▁pocas	-5668
▁alf	-5669
▁parlam	-5670
▁urbano	-5671
▁actores	-5672
▁catedral	-5673
▁efici	-5674
onos	-5675
▁sep	-5676
▁Constan	-5677
▁ce	-5678
24	-5679
▁intenta	-5680
▁King	-5681
▁plano	-5682
▁doce	-5683
▁hogar	-5684
mbres	-5685
▁aquella	-5686
oneros	-5687
▁transmisi	-5688
▁auton	-5689
▁Conf	-5690
▁funciona	-5691
▁Bay	-5692
▁bandera	-5693
▁mandato	-5694
cesis	-5695
▁Pra	-5696
▁Rica	-5697
▁seguro	-5698
mbolo	-5699
▁exit	-5700
key	-5701
▁historias	-5702
▁recorrido	-5703
tall	-5704
Man	-5705
▁vino	-5706
▁dro	-5707
▁arriba	-5708
▁bru	-5709
▁cercano	-5710
▁Muchos	-5711
▁puestos	-5712
▁Castro	-5713
▁somb	-5714
▁vege	-5715
▁discos	-5716
▁Ricardo	-5717
▁quedar	-5718
▁reacci	-5719
▁muerto	-5720
▁costu	-5721
▁combin	-5722
▁noroeste	-5723
-8	-5724
▁Ham	-5725
▁mito	-5726
▁Tres	-5727
▁poderes	-5728
▁4,	-5729
▁2013.	-5730
▁columna	-5731
▁Administr	-5732
▁argentina	-5733
emas	-5734
ani	-5735
anti	-5736
▁Salud	-5737
▁consta	-5738
▁proclam	-5739
▁legal	-5740
▁torm	-5741
▁Mark	-5742
▁vivi	-5743
▁reales	-5744
fun	-5745
▁Hon	-5746
"),	-5747
▁intereses	-5748
▁audiencia	-5749
▁Fon	-5750
-20	-5751
▁Tes	-5752
▁Din	-5753
viera	-5754
▁Gracias	-5755
▁Carta	-5756
▁Entonces	-5757
angel	-5758
▁contras	-5759
▁adaptaci	-5760
Me	-5761
▁Ferro	-5762
▁Ant	-5763
▁Vil	-5764
dill	-5765
uk	-5766
raestruc	-5767
▁Tec	-5768
▁justicia	-5769
hua	-5770
▁Cuer	-5771
▁agra	-5772
▁Municipio	-5773
uelta	-5774
gadas	-5775
har	-5776
ls	-5777
▁inicios	-5778
▁Estudios	-5779
grafo	-5780
rito	-5781
▁Javier	-5782
▁dura	-5783
▁tard	-5784
▁justo	-5785
▁motivos	-5786
tain	-5787
▁Torneo	-5788
▁ox	-5789
ume	-5790
▁Estadio	-5791
▁1996	-5792
well	-5793
▁1997	-5794
▁sitios	-5795
▁activo	-5796
▁prove	-5797
▁Lar	-5798
▁2008.	-5799
▁muertos	-5800
▁drama	-5801
▁dinast	-5802
▁Mary	-5803
▁puedan	-5804
▁Municipal	-5805
hat	-5806
▁cabec	-5807
▁Nin	-5808
17	-5809
iciones	-5810
▁europeos	-5811
▁enviado	-5812
▁octa	-5813
▁esfuerzos	-5814
omina	-5815
▁describe	-5816
▁Lee	-5817
▁Polic	-5818
▁brin	-5819
▁Guer	-5820
RE	-5821
▁geogr	-5822
▁reconoc	-5823
zob	-5824
▁pec	-5825
▁fiestas	-5826
Lo	-5827
▁hidro	-5828
▁calor	-5829
▁Pl	-5830
▁Todo	-5831
▁Sor	-5832
▁ficci	-5833
▁Va	-5834
▁llevaron	-5835
▁comprome	-5836
▁agre	-5837
▁ileg	-5838
ius	-5839
▁Industr	-5840
IM	-5841
▁cuerpos	-5842
▁cerr	-5843
▁utilizada	-5844
▁Ara	-5845
▁nor	-5846
allero	-5847
▁dedicada	-5848
▁conquista	-5849
▁matar	-5850
▁llegado	-5851
ndola	-5852
▁peligro	-5853
▁2022	-5854
▁incluida	-5855
▁guitarra	-5856
iew	-5857
▁inca	-5858
amor	-5859
||	-5860
cript	-5861
pus	-5862
rante	-5863
cipl	-5864
ierto	-5865
ienen	-5866
▁antiguas	-5867
dieron	-5868
▁conexi	-5869
Se	-5870
▁2009.	-5871
▁Mov	-5872
▁Federico	-5873
▁termina	-5874
▁Greg	-5875
▁empleados	-5876
▁comuna	-5877
▁anal	-5878
▁Deportivo	-5879
▁equival	-5880
▁romano	-5881
dicci	-5882
tadura	-5883
▁transpor	-5884
▁(3	-5885
omer	-5886
▁cau	-5887
mber	-5888
▁presentes	-5889
ogle	-5890
▁abajo	-5891
▁abre	-5892
▁estoy	-5893
▁recuperar	-5894
adir	-5895
▁muestran	-5896
▁quinto	-5897
▁Reci	-5898
▁1995	-5899
neros	-5900
▁Frente	-5901
▁delan	-5902
▁vive	-5903
▁sirve	-5904
rida	-5905
▁dieci	-5906
▁cancel	-5907
aragoza	-5908
▁far	-5909
▁rechaz	-5910
▁Norm	-5911
▁esfuerzo	-5912
▁explos	-5913
▁Glo	-5914
ji	-5915
▁400	-5916
▁habitual	-5917
iernes	-5918
quilla	-5919
▁Santos	-5920
▁dens	-5921
▁discogr	-5922
tuvieron	-5923
▁Defensa	-5924
▁textos	-5925
▁Doctor	-5926
▁concep	-5927
itando	-5928
▁Bajo	-5929
▁alumnos	-5930
▁nadie	-5931
▁33	-5932
▁huel	-5933
ystem	-5934
▁carne	-5935
▁festival	-5936
ips	-5937
tolog	-5938
ualmente	-5939
▁part	-5940
▁Carmen	-5941
▁rum	-5942
crito	-5943
▁ejecuci	-5944
ngulo	-5945
▁competici	-5946
ald	-5947
iver	-5948
tuario	-5949
▁1960	-5950
▁dor	-5951
▁Incl	-5952
ze	-5953
▁nosotros	-5954
▁;	-5955
▁comparaci	-5956
▁cant	-5957
-9	-5958
▁bombar	-5959
▁complic	-5960
carse	-5961
uma	-5962
▁actuales	-5963
▁Cha	-5964
▁Alto	-5965
▁tramo	-5966
▁amplio	-5967
bert	-5968
mitido	-5969
▁barro	-5970
▁Distrito	-5971
3).	-5972
enzo	-5973
ites	-5974
▁detalles	-5975
▁decreto	-5976
onados	-5977
▁trono	-5978
▁descans	-5979
igas	-5980
▁ejercicio	-5981
pano	-5982
▁2014.	-5983
▁eliminar	-5984
CA	-5985
onario	-5986
▁contribu	-5987
▁puedo	-5988
▁requiere	-5989
▁Pi	-5990
▁Grecia	-5991
▁castell	-5992
▁apreci	-5993
▁...	-5994
▁formada	-5995
▁comput	-5996
▁semifin	-5997
▁cubri	-5998
1).	-5999
the	-6000
mpicos	-6001
estre	-6002
▁2007.	-6003
▁ON	-6004
▁tarea	-6005
▁disput	-6006
ium	-6007
▁sobr	-6008
▁tareas	-6009
▁leer	-6010
▁top	-6011
ementerio	-6012
▁artifici	-6013
▁Seguridad	-6014
▁bau	-6015
edor	-6016
▁reti	-6017
▁ocurre	-6018
landa	-6019
▁mone	-6020
▁ganador	-6021
▁blanca	-6022
▁Chicago	-6023
▁Times	-6024
win	-6025
▁mexicana	-6026
MS	-6027
igraci	-6028
▁Especi	-6029
▁Sant	-6030
Por	-6031
▁cliente	-6032
▁religiosa	-6033
▁cubierta	-6034
▁segundos	-6035
▁marido	-6036
igrantes	-6037
▁equilib	-6038
▁Dem	-6039
▁pertenece	-6040
▁met	-6041
▁ascen	-6042
uch	-6043
▁comedia	-6044
ister	-6045
pica	-6046
▁0.	-6047
▁FC	-6048
RA	-6049
▁coche	-6050
▁nacido	-6051
sel	-6052
▁circu	-6053
▁1994	-6054
ders	-6055
▁redac	-6056
▁tienda	-6057
▁Pel	-6058
▁Sie	-6059
▁estreno	-6060
hal	-6061
▁teniente	-6062
2).	-6063
▁columnas	-6064
▁PC	-6065
quinas	-6066
cav	-6067
leza	-6068
▁Blo	-6069
▁Cur	-6070
didos	-6071
▁japon	-6072
▁gig	-6073
▁implem	-6074
plic	-6075
lbumes	-6076
▁Jan	-6077
▁Sala	-6078
▁Televisi	-6079
▁Tan	-6080
▁Interna	-6081
▁esque	-6082
▁sosp	-6083
▁celebraci	-6084
▁ano	-6085
▁circul	-6086
tte	-6087
▁abrir	-6088
▁une	-6089
cop	-6090
▁poes	-6091
▁2015.	-6092
eval	-6093
▁fiscal	-6094
▁llamados	-6095
▁abor	-6096
▁privada	-6097
ditos	-6098
▁Cel	-6099
▁italiana	-6100
gues	-6101
▁pasos	-6102
▁servir	-6103
▁trabaja	-6104
▁lenguas	-6105
▁Latino	-6106
▁evidencia	-6107
acu	-6108
▁Navarra	-6109
ited	-6110
ben	-6111
ild	-6112
▁Brit	-6113
▁Paraguay	-6114
box	-6115
urus	-6116
▁explica	-6117
▁sale	-6118
▁diri	-6119
▁Bob	-6120
▁Profes	-6121
▁Rosario	-6122
uga	-6123
▁Breta	-6124
Co	-6125
▁ocupaci	-6126
quist	-6127
▁Sy	-6128
raban	-6129
▁Inform	-6130
nar	-6131
cera	-6132
▁Junto	-6133
▁ciertos	-6134
▁Henry	-6135
▁designado	-6136
▁gl	-6137
camb	-6138
▁2003,	-6139
▁cuadro	-6140
▁aparecer	-6141
rup	-6142
▁motores	-6143
▁seguido	-6144
▁Mujer	-6145
nu	-6146
lege	-6147
mal	-6148
▁hierro	-6149
▁She	-6150
▁terres	-6151
▁Sobre	-6152
▁establece	-6153
▁cultivo	-6154
cran	-6155
▁Alfre	-6156
To	-6157
entre	-6158
▁remon	-6159
▁perdido	-6160
iena	-6161
▁Roberto	-6162
▁Andal	-6163
▁editor	-6164
▁National	-6165
▁ajus	-6166
▁Inici	-6167
▁Comerci	-6168
lite	-6169
▁arma	-6170
▁piso	-6171
king	-6172
▁derrot	-6173
▁Sun	-6174
▁formando	-6175
oreste	-6176
▁terren	-6177
▁absor	-6178
▁ofrecer	-6179
▁pic	-6180
▁Za	-6181
▁Militar	-6182
fas	-6183
▁moderno	-6184
▁juris	-6185
▁animal	-6186
▁Cop	-6187
▁pag	-6188
▁oferta	-6189
pany	-6190
▁romana	-6191
▁enemigos	-6192
▁Rosa	-6193
azz	-6194
▁Sw	-6195
▁archivos	-6196
istad	-6197
lora	-6198
▁Mex	-6199
▁Net	-6200
sey	-6201
▁Armada	-6202
▁viviendas	-6203
dows	-6204
▁pone	-6205
▁Mont	-6206
oledo	-6207
▁adultos	-6208
▁Marina	-6209
▁Ray	-6210
7).	-6211
guido	-6212
▁modern	-6213
▁asi	-6214
▁contro	-6215
▁consejo	-6216
tag	-6217
9).	-6218
▁gratu	-6219
▁sel	-6220
▁Disney	-6221
▁veinte	-6222
▁Us	-6223
rgano	-6224
▁flota	-6225
▁coron	-6226
▁cultiv	-6227
▁Hist	-6228
Par	-6229
▁Pier	-6230
▁mural	-6231
/0	-6232
▁destacado	-6233
▁editorial	-6234
▁tocar	-6235
0.000	-6236
▁mezcl	-6237
▁reserva	-6238
▁factor	-6239
▁llamar	-6240
▁asumi	-6241
inete	-6242
▁recop	-6243
roe	-6244
▁Texas	-6245
kov	-6246
▁aprobaci	-6247
▁prestig	-6248
▁narra	-6249
▁cong	-6250
__	-6251
reste	-6252
ski	-6253
▁potencial	-6254
▁ingeniero	-6255
▁Of	-6256
▁Joaqu	-6257
▁elegir	-6258
▁</	-6259
nolog	-6260
▁medalla	-6261
ique	-6262
▁Existen	-6263
▁hues	-6264
▁cuenca	-6265
8).	-6266
▁tarje	-6267
▁177	-6268
eng	-6269
▁cuyos	-6270
ices	-6271
▁here	-6272
▁Enter	-6273
▁barcos	-6274
uega	-6275
VD	-6276
▁Cir	-6277
▁ama	-6278
▁Dich	-6279
500	-6280
▁Irlanda	-6281
▁Parti	-6282
▁(195	-6283
▁acord	-6284
▁perspec	-6285
▁Florida	-6286
▁siguiendo	-6287
▁infantil	-6288
▁asesinado	-6289
▁embara	-6290
▁Panam	-6291
▁intentar	-6292
dujeron	-6293
▁espiri	-6294
sin	-6295
▁deseo	-6296
▁Billboard	-6297
reros	-6298
");	-6299
rculo	-6300
▁cabecera	-6301
▁agente	-6302
▁5,	-6303
▁controlar	-6304
▁Gabriel	-6305
mpoco	-6306
▁lide	-6307
▁colegio	-6308
23	-6309
▁Cultural	-6310
bia	-6311
urt	-6312
▁precip	-6313
▁quedando	-6314
▁basa	-6315
▁permiten	-6316
ridge	-6317
▁debi	-6318
▁asesin	-6319
▁vul	-6320
▁1992	-6321
▁entender	-6322
▁Zaragoza	-6323
▁Campo	-6324
acimiento	-6325
▁deporte	-6326
▁respal	-6327
▁empleo	-6328
PS	-6329
▁tenga	-6330
▁resoluci	-6331
▁Suecia	-6332
▁za	-6333
▁aun	-6334
▁Rog	-6335
fal	-6336
ort	-6337
▁Oriente	-6338
ndice	-6339
▁ocupa	-6340
▁edific	-6341
')	-6342
65	-6343
venir	-6344
sima	-6345
▁tampoco	-6346
rcel	-6347
▁Ty	-6348
▁alco	-6349
▁caza	-6350
▁Medio	-6351
▁motiv	-6352
▁School	-6353
▁canales	-6354
▁Luna	-6355
▁enemigo	-6356
▁Zel	-6357
▁mala	-6358
▁Otras	-6359
▁cola	-6360
▁reciente	-6361
▁actuar	-6362
▁ciertas	-6363
▁instalaci	-6364
▁interac	-6365
▁chileno	-6366
▁monumento	-6367
▁investi	-6368
▁Cri	-6369
▁culto	-6370
▁pronunci	-6371
▁tasa	-6372
▁ausencia	-6373
▁declaraci	-6374
▁perm	-6375
▁interna	-6376
▁inversi	-6377
▁cocina	-6378
▁quiz	-6379
▁treinta	-6380
eler	-6381
▁Alb	-6382
▁discu	-6383
▁fotos	-6384
6).	-6385
▁organismo	-6386
▁march	-6387
tente	-6388
▁cercana	-6389
▁mand	-6390
▁confianza	-6391
▁fechas	-6392
▁siguen	-6393
EM	-6394
landia	-6395
Ex	-6396
sas	-6397
▁amenaza	-6398
▁College	-6399
4).	-6400
tian	-6401
▁Royal	-6402
meno	-6403
▁Hill	-6404
▁piano	-6405
rista	-6406
▁Mosc	-6407
▁cicl	-6408
cus	-6409
▁Ep	-6410
ellido	-6411
▁Joseph	-6412
uero	-6413
▁Pie	-6414
▁Chan	-6415
▁finalizar	-6416
une	-6417
lix	-6418
▁lejos	-6419
▁escapar	-6420
ED	-6421
tamiento	-6422
▁colonia	-6423
▁ocupar	-6424
▁infancia	-6425
▁borde	-6426
▁Ign	-6427
▁rol	-6428
▁Love	-6429
▁gub	-6430
CI	-6431
▁Latina	-6432
▁horm	-6433
unidades	-6434
▁encargado	-6435
▁1000	-6436
▁defender	-6437
remo	-6438
▁Comunidad	-6439
cilmente	-6440
▁abierta	-6441
▁llevan	-6442
▁ferrovi	-6443
ning	-6444
▁denunci	-6445
ernam	-6446
▁cierre	-6447
tegr	-6448
▁primavera	-6449
▁fusi	-6450
▁viajes	-6451
▁triunfo	-6452
▁avance	-6453
iversario	-6454
▁pinturas	-6455
▁Senado	-6456
ee	-6457
▁Regi	-6458
▁neu	-6459
▁alianza	-6460
ificar	-6461
US	-6462
],	-6463
▁go	-6464
▁eje	-6465
▁corona	-6466
▁mue	-6467
▁enfoque	-6468
▁propa	-6469
▁Toledo	-6470
99	-6471
▁ater	-6472
▁dictadura	-6473
▁caja	-6474
▁ropa	-6475
▁estrat	-6476
▁secreto	-6477
▁registros	-6478
americanos	-6479
▁ES	-6480
▁sat	-6481
▁revis	-6482
vez	-6483
rigo	-6484
▁obliga	-6485
vias	-6486
ianas	-6487
▁oficina	-6488
▁VII	-6489
scar	-6490
▁verdadero	-6491
oj	-6492
▁producida	-6493
▁discurso	-6494
iy	-6495
Com	-6496
timo	-6497
▁informa	-6498
▁alar	-6499
▁agentes	-6500
▁escritura	-6501
▁Rico	-6502
▁austral	-6503
▁cartas	-6504
▁vender	-6505
▁franqu	-6506
tidas	-6507
▁domingo	-6508
▁post	-6509
▁festiv	-6510
ulado	-6511
▁Street	-6512
▁diciendo	-6513
▁gar	-6514
▁sexo	-6515
▁Reyes	-6516
▁Bajos	-6517
▁realizan	-6518
▁equip	-6519
▁terrenos	-6520
▁Hy	-6521
▁2002,	-6522
▁pelea	-6523
▁latino	-6524
tical	-6525
ustin	-6526
gs	-6527
opol	-6528
▁6.	-6529
▁ceremonia	-6530
UN	-6531
▁elog	-6532
-7	-6533
▁Bir	-6534
encio	-6535
▁1991	-6536
▁combinaci	-6537
▁incluidos	-6538
▁extrem	-6539
▁Jane	-6540
▁Ly	-6541
trans	-6542
▁juega	-6543
amarca	-6544
▁censo	-6545
FC	-6546
▁atraves	-6547
▁minuto	-6548
▁escrib	-6549
nie	-6550
▁Juven	-6551
erte	-6552
abora	-6553
▁campes	-6554
▁gobiernos	-6555
▁coalici	-6556
usieron	-6557
As	-6558
▁ritmo	-6559
ach	-6560
tificado	-6561
Sta	-6562
▁porta	-6563
▁1990,	-6564
▁2001,	-6565
▁bronce	-6566
▁legis	-6567
▁Dentro	-6568
100	-6569
▁activa	-6570
▁convento	-6571
tomas	-6572
ady	-6573
▁Gas	-6574
▁2006.	-6575
▁realizaci	-6576
▁Chi	-6577
▁alcance	-6578
▁punta	-6579
▁declarado	-6580
oncesto	-6581
▁exter	-6582
estro	-6583
▁llan	-6584
▁norma	-6585
▁Lorenzo	-6586
riles	-6587
▁ejemplos	-6588
tum	-6589
▁34	-6590
▁playa	-6591
gura	-6592
▁aca	-6593
orden	-6594
dez	-6595
pens	-6596
33	-6597
video	-6598
▁medicina	-6599
▁Oriental	-6600
▁recep	-6601
dras	-6602
▁Bellas	-6603
ots	-6604
tima	-6605
▁1993	-6606
▁hubiera	-6607
!!	-6608
rs	-6609
▁Ucran	-6610
▁Servicio	-6611
▁Quin	-6612
▁Max	-6613
▁agres	-6614
▁recog	-6615
uco	-6616
▁volc	-6617
neamente	-6618
▁viento	-6619
▁nerv	-6620
▁privado	-6621
▁Tab	-6622
ller	-6623
EP	-6624
▁destruy	-6625
▁expor	-6626
▁refor	-6627
▁=>	-6628
ally	-6629
▁with	-6630
▁leyenda	-6631
▁acabar	-6632
▁Gusta	-6633
▁asuntos	-6634
▁juez	-6635
▁describi	-6636
▁debate	-6637
centa	-6638
day	-6639
▁repor	-6640
▁unif	-6641
▁ejecutivo	-6642
▁Tok	-6643
▁seres	-6644
ison	-6645
▁Marcel	-6646
enciado	-6647
ulg	-6648
tilidad	-6649
dell	-6650
esper	-6651
cionado	-6652
▁jus	-6653
▁intercamb	-6654
▁dada	-6655
▁ic	-6656
tent	-6657
▁humor	-6658
▁Ry	-6659
($	-6660
enio	-6661
▁generar	-6662
▁reducci	-6663
idu	-6664
▁Web	-6665
enti	-6666
▁Ante	-6667
▁discipl	-6668
td	-6669
▁negra	-6670
▁Franco	-6671
▁escon	-6672
▁hacerse	-6673
apia	-6674
viendo	-6675
▁Dec	-6676
▁elenco	-6677
▁definici	-6678
▁traduci	-6679
▁raci	-6680
▁aux	-6681
▁tendencia	-6682
ms	-6683
▁75	-6684
▁2016.	-6685
▁voto	-6686
▁Bogot	-6687
▁tienes	-6688
▁tropical	-6689
▁orquesta	-6690
▁Mendo	-6691
▁grabado	-6692
▁noticia	-6693
gui	-6694
izados	-6695
▁Pam	-6696
▁hemos	-6697
▁function	-6698
▁titulada	-6699
▁escritos	-6700
▁clim	-6701
▁show	-6702
vado	-6703
urales	-6704
▁Serie	-6705
hy	-6706
▁femenino	-6707
▁otom	-6708
▁quiero	-6709
▁fib	-6710
▁noreste	-6711
alizados	-6712
▁fabricaci	-6713
polis	-6714
trocin	-6715
endas	-6716
▁Torres	-6717
▁menciona	-6718
▁Tratado	-6719
▁minor	-6720
▁Isla	-6721
▁aeron	-6722
bs	-6723
▁(15	-6724
▁Guadal	-6725
▁Company	-6726
▁Comp	-6727
▁Av	-6728
▁conces	-6729
▁dram	-6730
▁Solo	-6731
▁caf	-6732
lantes	-6733
▁Maria	-6734
▁viven	-6735
▁empieza	-6736
▁asegurar	-6737
tiller	-6738
▁predomin	-6739
rilla	-6740
▁Cin	-6741
▁entra	-6742
gran	-6743
▁consulta	-6744
▁fama	-6745
▁margen	-6746
▁Green	-6747
▁Comenz	-6748
▁posesi	-6749
▁oraci	-6750
▁fij	-6751
▁victorias	-6752
quin	-6753
uts	-6754
▁pref	-6755
▁Windows	-6756
iger	-6757
▁lanzar	-6758
onso	-6759
umental	-6760
pedia	-6761
▁prede	-6762
▁Econom	-6763
▁Gobern	-6764
▁desaf	-6765
▁comarca	-6766
▁prefer	-6767
▁proviene	-6768
taban	-6769
▁moda	-6770
▁ilum	-6771
▁cuidado	-6772
▁totalidad	-6773
▁Dal	-6774
▁fiel	-6775
▁galard	-6776
21	-6777
▁labora	-6778
▁difun	-6779
lvarez	-6780
▁Dur	-6781
64	-6782
▁riv	-6783
▁cielo	-6784
try	-6785
▁fantas	-6786
▁UE	-6787
Ma	-6788
▁act	-6789
▁parecer	-6790
ava	-6791
▁mac	-6792
vio	-6793
▁Guardia	-6794
amora	-6795
▁Rio	-6796
hr	-6797
▁Aten	-6798
▁Corona	-6799
▁promover	-6800
igna	-6801
▁morir	-6802
▁Suiza	-6803
▁imperial	-6804
▁llamadas	-6805
tha	-6806
▁Fab	-6807
://	-6808
▁Trabaj	-6809
▁ram	-6810
▁Lic	-6811
xitos	-6812
▁38	-6813
ml	-6814
-17	-6815
▁ofens	-6816
▁Regional	-6817
Pa	-6818
▁buenas	-6819
▁Direcci	-6820
▁normas	-6821
oraz	-6822
▁afric	-6823
ntomas	-6824
▁belleza	-6825
▁dimens	-6826
diz	-6827
▁ganando	-6828
/201	-6829
ficio	-6830
▁2022,	-6831
▁Campe	-6832
▁difusi	-6833
▁Pic	-6834
▁transici	-6835
▁cuel	-6836
tamento	-6837
▁conocidas	-6838
▁europeo	-6839
entario	-6840
tamientos	-6841
▁avenida	-6842
28	-6843
eramente	-6844
▁mejora	-6845
▁Bran	-6846
▁concedi	-6847
▁Agust	-6848
▁boca	-6849
▁rival	-6850
tecas	-6851
▁hidr	-6852
▁quedaron	-6853
▁Exterior	-6854
cimientos	-6855
▁rural	-6856
▁oficinas	-6857
▁120	-6858
▁1950	-6859
▁enviar	-6860
rich	-6861
deos	-6862
▁atribuy	-6863
▁destrucci	-6864
▁estall	-6865
▁opciones	-6866
istentes	-6867
▁recaud	-6868
▁Mendoza	-6869
ilaci	-6870
▁huy	-6871
▁efectu	-6872
▁cris	-6873
▁Marvel	-6874
▁revela	-6875
▁Ignacio	-6876
ule	-6877
▁paque	-6878
ken	-6879
▁Carl	-6880
caci	-6881
▁sesi	-6882
▁asesor	-6883
▁revistas	-6884
▁Camp	-6885
▁pesos	-6886
▁Vel	-6887
▁atacar	-6888
▁gris	-6889
▁2018.	-6890
uir	-6891
▁chino	-6892
▁Kir	-6893
▁sing	-6894
▁portada	-6895
▁unirse	-6896
▁emis	-6897
unas	-6898
fol	-6899
▁Secretar	-6900
▁Camb	-6901
tizaci	-6902
vileg	-6903
xo	-6904
ganos	-6905
▁neo	-6906
▁inund	-6907
▁estan	-6908
umentaci	-6909
▁suger	-6910
▁habitaci	-6911
acos	-6912
▁Ingenier	-6913
▁Holly	-6914
▁Ti	-6915
▁iniciar	-6916
▁excav	-6917
▁descubre	-6918
▁2017.	-6919
▁vid	-6920
▁be	-6921
iosa	-6922
▁Lis	-6923
▁1989	-6924
ges	-6925
▁Ve	-6926
arre	-6927
▁suici	-6928
till	-6929
▁flujo	-6930
▁anex	-6931
▁Asturi	-6932
▁medicam	-6933
itter	-6934
▁papeles	-6935
▁frac	-6936
ndr	-6937
▁luchar	-6938
▁Day	-6939
▁Islas	-6940
▁retor	-6941
▁160	-6942
▁encan	-6943
ebo	-6944
▁israel	-6945
▁fom	-6946
▁Brown	-6947
▁tiro	-6948
▁ges	-6949
aste	-6950
▁esposo	-6951
▁Sac	-6952
▁Bul	-6953
▁cil	-6954
27	-6955
▁Concepci	-6956
work	-6957
▁reduci	-6958
▁Google	-6959
▁Orig	-6960
▁retras	-6961
▁Ucrania	-6962
pp	-6963
▁cruc	-6964
uss	-6965
▁dirigir	-6966
▁expan	-6967
▁apoyar	-6968
▁Alonso	-6969
iko	-6970
▁bah	-6971
▁fall	-6972
tambi	-6973
▁Cuenta	-6974
idar	-6975
junto	-6976
▁Medici	-6977
▁audio	-6978
▁cinta	-6979
▁mesa	-6980
▁universo	-6981
ionado	-6982
▁mod	-6983
▁iglesias	-6984
▁Ambos	-6985
▁Andaluc	-6986
▁Fuerzas	-6987
▁participa	-6988
incl	-6989
▁arquitect	-6990
▁Sir	-6991
oni	-6992
ezas	-6993
▁crimin	-6994
▁>	-6995
▁brill	-6996
▁retirada	-6997
▁AR	-6998
▁cita	-6999
▁mix	-7000
▁Nar	-7001
rabes	-7002
▁ga	-7003
▁usan	-7004
▁sumin	-7005
▁compro	-7006
▁Avenida	-7007
▁sonora	-7008
▁virus	-7009
▁pac	-7010
▁South	-7011
▁extiende	-7012
zobispo	-7013
pira	-7014
▁jornada	-7015
▁reglas	-7016
eos	-7017
▁testimon	-7018
laga	-7019
▁diver	-7020
▁reper	-7021
▁Ul	-7022
▁inglesa	-7023
▁relo	-7024
tallas	-7025
▁rique	-7026
▁pena	-7027
▁desf	-7028
▁48	-7029
▁famosa	-7030
▁caer	-7031
▁banco	-7032
....	-7033
▁partid	-7034
Bo	-7035
▁baile	-7036
▁Alcal	-7037
▁cursos	-7038
▁hielo	-7039
▁prior	-7040
▁Top	-7041
▁derrotar	-7042
Ne	-7043
daje	-7044
nav	-7045
inter	-7046
jada	-7047
uerta	-7048
▁viernes	-7049
▁patrocin	-7050
▁Indi	-7051
edades	-7052
idez	-7053
66	-7054
▁mat	-7055
▁salvar	-7056
▁Dor	-7057
▁Ejecu	-7058
▁creciente	-7059
MA	-7060
uman	-7061
▁lesi	-7062
▁ido	-7063
▁cad	-7064
▁deportivo	-7065
▁Margar	-7066
▁Contin	-7067
▁pese	-7068
▁imperio	-7069
▁amistad	-7070
roes	-7071
▁Sci	-7072
▁Catedral	-7073
▁impuestos	-7074
▁llegan	-7075
▁parroqui	-7076
▁fortaleza	-7077
48	-7078
▁suro	-7079
▁2019.	-7080
▁Blanca	-7081
▁sacerdote	-7082
▁hipo	-7083
▁pudieron	-7084
fort	-7085
▁quedan	-7086
▁turismo	-7087
▁Eug	-7088
▁gubernam	-7089
▁bailar	-7090
▁innov	-7091
Col	-7092
▁pensar	-7093
sitos	-7094
eses	-7095
▁hemb	-7096
▁Caribe	-7097
▁Cy	-7098
▁explotaci	-7099
▁horiz	-7100
▁Reina	-7101
onald	-7102
uan	-7103
▁excepto	-7104
▁causas	-7105
▁depende	-7106
▁sureste	-7107
▁lograron	-7108
▁darle	-7109
▁intr	-7110
BS	-7111
▁poca	-7112
▁Gor	-7113
▁descen	-7114
oli	-7115
▁religioso	-7116
ariamente	-7117
▁Alianza	-7118
▁implica	-7119
▁europea	-7120
▁sencillos	-7121
▁frase	-7122
▁privileg	-7123
▁voluntad	-7124
▁producen	-7125
▁(20	-7126
▁Hugo	-7127
▁departam	-7128
▁escuch	-7129
▁usted	-7130
].	-7131
▁Hall	-7132
edores	-7133
▁Sara	-7134
lgica	-7135
ball	-7136
dolfo	-7137
▁fues	-7138
▁Jaime	-7139
▁Bien	-7140
ertura	-7141
blemente	-7142
cionario	-7143
▁pudiera	-7144
▁propuso	-7145
▁traducci	-7146
▁cumple	-7147
▁rusa	-7148
▁Bil	-7149
▁obligado	-7150
▁costos	-7151
dicas	-7152
▁pien	-7153
▁rese	-7154
▁Human	-7155
▁educ	-7156
▁etapas	-7157
▁radi	-7158
'.	-7159
▁partida	-7160
▁supone	-7161
ets	-7162
▁hol	-7163
ody	-7164
▁Jaco	-7165
▁core	-7166
▁completar	-7167
-10	-7168
▁2023	-7169
▁ventaja	-7170
▁millas	-7171
▁Big	-7172
▁ciencias	-7173
▁filas	-7174
▁conquist	-7175
▁infec	-7176
▁175	-7177
▁suerte	-7178
▁aprender	-7179
▁Amaz	-7180
▁37	-7181
▁invi	-7182
crata	-7183
▁denomina	-7184
▁supuesto	-7185
▁oscuro	-7186
▁irreg	-7187
▁puesta	-7188
habil	-7189
▁directora	-7190
▁Corpor	-7191
5).	-7192
▁Derechos	-7193
▁consigue	-7194
▁Dado	-7195
icaci	-7196
elle	-7197
▁comit	-7198
▁Adam	-7199
▁7.	-7200
▁hun	-7201
ont	-7202
▁Fox	-7203
▁sentir	-7204
icul	-7205
▁aceite	-7206
▁Fan	-7207
▁sucesor	-7208
▁socio	-7209
medi	-7210
dillera	-7211
▁Nob	-7212
▁lunes	-7213
▁Andre	-7214
▁separaci	-7215
heim	-7216
▁vigil	-7217
▁derrotado	-7218
core	-7219
lamiento	-7220
▁Brig	-7221
▁Alta	-7222
▁cho	-7223
▁Ox	-7224
▁emisi	-7225
▁DVD	-7226
usal	-7227
▁rama	-7228
ii	-7229
▁adicional	-7230
▁opon	-7231
tenta	-7232
ML	-7233
▁Pes	-7234
▁Tol	-7235
▁lectura	-7236
recci	-7237
▁Selec	-7238
▁inci	-7239
▁gusta	-7240
▁Award	-7241
▁colonial	-7242
▁carbono	-7243
▁visitar	-7244
▁diputados	-7245
▁Audi	-7246
AF	-7247
▁cog	-7248
▁Viena	-7249
▁1980,	-7250
▁primaria	-7251
ormes	-7252
▁instruc	-7253
26	-7254
▁Jour	-7255
▁quinta	-7256
▁judicial	-7257
▁ediciones	-7258
hel	-7259
low	-7260
▁Filip	-7261
▁logrando	-7262
tempor	-7263
▁Dic	-7264
▁Johan	-7265
▁rema	-7266
uerdos	-7267
aves	-7268
▁**	-7269
▁vapor	-7270
TO	-7271
▁leche	-7272
▁dorm	-7273
▁Wol	-7274
▁bueno	-7275
▁Batalla	-7276
▁hect	-7277
▁retro	-7278
▁tercero	-7279
▁Negro	-7280
guno	-7281
isc	-7282
lados	-7283
▁ideal	-7284
▁necesaria	-7285
▁AC	-7286
ring	-7287
dista	-7288
ade	-7289
▁Presiden	-7290
▁puntu	-7291
▁Vene	-7292
▁canad	-7293
stas	-7294
▁Dig	-7295
▁North	-7296
▁Nie	-7297
▁aterri	-7298
▁Premios	-7299
▁obtiene	-7300
tang	-7301
▁superviv	-7302
▁Nap	-7303
▁bizan	-7304
▁fueran	-7305
▁superar	-7306
▁Bio	-7307
▁1999,	-7308
▁incon	-7309
▁AS	-7310
quisici	-7311
▁acept	-7312
▁buscando	-7313
▁noc	-7314
▁Sistema	-7315
▁High	-7316
▁penal	-7317
▁liberal	-7318
▁Famil	-7319
▁coord	-7320
▁ali	-7321
▁Coo	-7322
cuenta	-7323
▁Spor	-7324
▁cens	-7325
▁paredes	-7326
▁lanza	-7327
▁sul	-7328
yer	-7329
▁observar	-7330
▁Caracas	-7331
▁Edward	-7332
▁ubica	-7333
hor	-7334
▁One	-7335
dela	-7336
▁Dre	-7337
alda	-7338
▁pareci	-7339
▁Gri	-7340
▁primo	-7341
38	-7342
▁System	-7343
▁princesa	-7344
▁defendi	-7345
▁acon	-7346
▁delante	-7347
iki	-7348
▁descenso	-7349
gl	-7350
antil	-7351
▁misiones	-7352
▁sierra	-7353
▁Cuerpo	-7354
▁aliados	-7355
▁Louis	-7356
▁preparaci	-7357
nmente	-7358
▁reformas	-7359
tein	-7360
▁graves	-7361
▁jugando	-7362
▁porcenta	-7363
▁tormenta	-7364
tto	-7365
▁invitado	-7366
▁disminuy	-7367
▁pion	-7368
▁cuentan	-7369
lanos	-7370
▁ADN	-7371
▁monte	-7372
chen	-7373
▁romanos	-7374
▁tesis	-7375
▁surgi	-7376
▁amarillo	-7377
▁desper	-7378
▁cuartos	-7379
maras	-7380
tier	-7381
rist	-7382
▁EP	-7383
cialmente	-7384
▁arras	-7385
▁culmin	-7386
▁ensay	-7387
uj	-7388
▁aer	-7389
29	-7390
▁Asturias	-7391
▁ign	-7392
▁Public	-7393
▁pide	-7394
▁estancia	-7395
▁guerras	-7396
phy	-7397
▁tiendas	-7398
▁ling	-7399
▁terremo	-7400
bro	-7401
ilas	-7402
▁Teresa	-7403
▁manifies	-7404
▁bordo	-7405
Val	-7406
▁temporal	-7407
▁Gan	-7408
▁medieval	-7409
▁tonel	-7410
▁WW	-7411
▁disputa	-7412
▁laterales	-7413
grad	-7414
trica	-7415
mad	-7416
▁poblado	-7417
▁destinado	-7418
67	-7419
▁array	-7420
▁sacri	-7421
▁tecnol	-7422
▁Mul	-7423
ety	-7424
▁femenina	-7425
▁liberaci	-7426
▁aceptar	-7427
▁postu	-7428
▁adelan	-7429
▁galer	-7430
▁acerc	-7431
▁aquellas	-7432
68	-7433
▁oto	-7434
ism	-7435
▁Adri	-7436
ervatorio	-7437
▁aumenta	-7438
▁pasaron	-7439
▁noctur	-7440
▁opin	-7441
▁suroeste	-7442
Le	-7443
▁Ira	-7444
▁Show	-7445
▁novelas	-7446
▁7,	-7447
▁preserv	-7448
▁libres	-7449
▁petici	-7450
34	-7451
37	-7452
▁Miss	-7453
onduras	-7454
▁perse	-7455
unda	-7456
▁Bau	-7457
▁manz	-7458
Mo	-7459
gio	-7460
▁etique	-7461
tano	-7462
▁raza	-7463
▁1987	-7464
gol	-7465
▁esperanza	-7466
▁once	-7467
elec	-7468
▁petr	-7469
usiones	-7470
▁marcas	-7471
▁caballo	-7472
▁recientes	-7473
ricamente	-7474
▁Princip	-7475
▁Sk	-7476
dientes	-7477
▁Bene	-7478
▁recinto	-7479
denal	-7480
▁Mill	-7481
tillas	-7482
▁escultura	-7483
▁regul	-7484
ificado	-7485
▁peligros	-7486
▁Kim	-7487
▁reclam	-7488
colas	-7489
Mad	-7490
▁recuerda	-7491
▁1985	-7492
undo	-7493
▁espacial	-7494
itor	-7495
▁cambia	-7496
▁disputar	-7497
adolid	-7498
▁pelo	-7499
▁blancos	-7500
▁trama	-7501
dam	-7502
▁techo	-7503
▁clara	-7504
amanca	-7505
uciones	-7506
▁Bah	-7507
bios	-7508
▁65	-7509
▁juz	-7510
▁recol	-7511
ush	-7512
ww	-7513
▁soporte	-7514
▁FI	-7515
uelve	-7516
▁previs	-7517
▁Marcos	-7518
▁barrios	-7519
ecreto	-7520
mond	-7521
▁comer	-7522
▁Jen	-7523
▁argument	-7524
▁pertenec	-7525
▁Puede	-7526
▁consagr	-7527
trico	-7528
▁1986	-7529
▁descripci	-7530
▁prolong	-7531
quesa	-7532
▁solitario	-7533
▁mente	-7534
▁bacter	-7535
ptimo	-7536
▁prece	-7537
▁entidades	-7538
dador	-7539
ebra	-7540
▁Produc	-7541
▁impar	-7542
▁alguno	-7543
▁1988	-7544
▁publicar	-7545
egr	-7546
▁deriva	-7547
Bar	-7548
▁end	-7549
▁Jones	-7550
▁Institu	-7551
▁Galicia	-7552
▁ermita	-7553
organiz	-7554
▁House	-7555
▁United	-7556
▁2005.	-7557
▁verdadera	-7558
uge	-7559
▁apellido	-7560
▁densidad	-7561
▁hermos	-7562
▁creando	-7563
aven	-7564
▁enfrentar	-7565
▁Str	-7566
▁Vo	-7567
▁compartir	-7568
▁Luci	-7569
tainment	-7570
▁impon	-7571
▁protec	-7572
▁regresa	-7573
▁huevos	-7574
▁autonom	-7575
▁Particip	-7576
▁estamos	-7577
tta	-7578
ciles	-7579
▁potenci	-7580
acen	-7581
▁japonesa	-7582
fia	-7583
ars	-7584
▁Virgin	-7585
▁descubrir	-7586
▁inmediato	-7587
udal	-7588
▁casco	-7589
tures	-7590
▁esperar	-7591
▁Columb	-7592
▁demo	-7593
▁Dom	-7594
▁Trin	-7595
▁Iv	-7596
▁enca	-7597
▁Iz	-7598
TE	-7599
▁pico	-7600
▁nutr	-7601
▁biol	-7602
▁Natural	-7603
▁Sec	-7604
tti	-7605
▁detener	-7606
▁Hollywood	-7607
▁Fron	-7608
▁tomando	-7609
▁deca	-7610
▁Hungr	-7611
▁6,	-7612
cara	-7613
xa	-7614
lim	-7615
▁hin	-7616
ject	-7617
▁Scott	-7618
ptim	-7619
▁moral	-7620
▁urbana	-7621
▁Jackson	-7622
cidentales	-7623
▁peces	-7624
▁viejo	-7625
▁errores	-7626
▁cristiana	-7627
▁Honduras	-7628
die	-7629
▁600	-7630
▁enlace	-7631
RI	-7632
▁empate	-7633
▁(4	-7634
32	-7635
ionar	-7636
▁aleg	-7637
rie	-7638
▁juventud	-7639
▁Hit	-7640
tnam	-7641
))	-7642
enario	-7643
▁dirige	-7644
▁supon	-7645
-15	-7646
▁modernos	-7647
▁secuencia	-7648
trato	-7649
▁sacar	-7650
idro	-7651
▁chica	-7652
mac	-7653
▁cristal	-7654
OE	-7655
▁reyes	-7656
▁vieron	-7657
▁Champ	-7658
razgo	-7659
▁aceler	-7660
ator	-7661
▁Jerusal	-7662
▁Rad	-7663
▁1998,	-7664
especi	-7665
▁femin	-7666
▁apropi	-7667
▁capaces	-7668
▁reparto	-7669
fecto	-7670
▁Sha	-7671
▁rutas	-7672
▁doctr	-7673
▁Clau	-7674
▁buque	-7675
▁terra	-7676
▁White	-7677
▁estilos	-7678
▁Ruiz	-7679
LA	-7680
▁mercados	-7681
▁Night	-7682
▁sugiere	-7683
uelto	-7684
elli	-7685
▁Loc	-7686
%.	-7687
▁sorpres	-7688
▁actitud	-7689
▁Roc	-7690
▁pared	-7691
▁vivienda	-7692
▁Merce	-7693
▁Vis	-7694
▁parec	-7695
▁cuyas	-7696
tors	-7697
▁1970,	-7698
row	-7699
▁miedo	-7700
▁olvid	-7701
▁dulce	-7702
▁grabar	-7703
▁Tay	-7704
tudes	-7705
▁ingreso	-7706
mu	-7707
Las	-7708
ederaci	-7709
▁Vega	-7710
▁pedir	-7711
▁derri	-7712
▁Oficina	-7713
▁Hot	-7714
▁hecha	-7715
▁Sel	-7716
▁Lim	-7717
▁AP	-7718
imp	-7719
idel	-7720
▁suspendi	-7721
tieron	-7722
▁dial	-7723
▁cerebro	-7724
ciente	-7725
▁circuito	-7726
▁pene	-7727
▁correo	-7728
▁divor	-7729
▁primi	-7730
▁egip	-7731
▁grados	-7732
.),	-7733
▁buenos	-7734
▁intentos	-7735
roid	-7736
mel	-7737
▁renuncia	-7738
▁paciente	-7739
▁retab	-7740
▁Libert	-7741
▁habilidad	-7742
rest	-7743
ngar	-7744
▁Lam	-7745
▁nuclear	-7746
ablemente	-7747
ype	-7748
▁Wood	-7749
▁sopor	-7750
ometraje	-7751
▁galle	-7752
▁decoraci	-7753
▁1940	-7754
lago	-7755
▁set	-7756
▁LA	-7757
▁EN	-7758
cidos	-7759
icanas	-7760
▁Muchas	-7761
▁ces	-7762
▁celebrar	-7763
▁existi	-7764
▁activos	-7765
▁elegida	-7766
95	-7767
olvi	-7768
▁cit	-7769
sie	-7770
▁Libro	-7771
▁Dipu	-7772
▁moneda	-7773
▁1984	-7774
ectos	-7775
36	-7776
oo	-7777
▁narr	-7778
ajas	-7779
▁interf	-7780
▁salas	-7781
▁Cortes	-7782
▁asociado	-7783
▁Log	-7784
▁Legisla	-7785
▁relie	-7786
▁trataba	-7787
▁cerro	-7788
▁bro	-7789
onada	-7790
▁Ce	-7791
▁Ernes	-7792
▁cientos	-7793
▁Fuente	-7794
▁informes	-7795
licas	-7796
▁reconocer	-7797
ily	-7798
gido	-7799
▁formal	-7800
▁Haw	-7801
▁blog	-7802
istos	-7803
▁preguntas	-7804
teor	-7805
▁homos	-7806
▁empezar	-7807
bara	-7808
▁1930	-7809
▁rup	-7810
▁confun	-7811
▁Hotel	-7812
piraci	-7813
▁Hacia	-7814
▁paisaje	-7815
▁sobres	-7816
▁(194	-7817
ions	-7818
ctima	-7819
▁Igu	-7820
▁dejado	-7821
▁Moreno	-7822
▁viajar	-7823
ifa	-7824
▁Flores	-7825
gados	-7826
▁incendio	-7827
▁Sig	-7828
ximos	-7829
▁8.	-7830
▁senador	-7831
▁internet	-7832
▁logrado	-7833
▁10.	-7834
▁extendi	-7835
▁Jug	-7836
zco	-7837
▁buques	-7838
▁descrito	-7839
▁Bab	-7840
▁Carolina	-7841
name	-7842
▁Steph	-7843
▁rece	-7844
▁canta	-7845
▁tomado	-7846
lash	-7847
▁estric	-7848
gram	-7849
▁rebeldes	-7850
▁Tanto	-7851
▁homosex	-7852
▁Comercio	-7853
ved	-7854
▁Williams	-7855
▁1983	-7856
▁Are	-7857
▁brillante	-7858
▁pendi	-7859
onero	-7860
▁excelente	-7861
mej	-7862
▁Haci	-7863
▁depresi	-7864
▁polici	-7865
▁idiomas	-7866
nis	-7867
▁aplicar	-7868
▁cron	-7869
▁integrado	-7870
▁flex	-7871
▁introdujo	-7872
▁embarc	-7873
socia	-7874
vido	-7875
▁calcular	-7876
tencias	-7877
▁quince	-7878
▁News	-7879
▁perro	-7880
▁lanzada	-7881
▁Joe	-7882
▁1982	-7883
actos	-7884
yecto	-7885
ualidad	-7886
▁Repres	-7887
▁Pueblo	-7888
▁Blanco	-7889
▁Paulo	-7890
▁Comunista	-7891
igan	-7892
▁cincuenta	-7893
▁pistas	-7894
▁naves	-7895
▁sh	-7896
▁Ak	-7897
trales	-7898
▁cuello	-7899
▁competir	-7900
prin	-7901
ienta	-7902
idae	-7903
formas	-7904
▁apos	-7905
▁Marco	-7906
▁transfer	-7907
▁Ran	-7908
▁encarcel	-7909
▁Op	-7910
banos	-7911
▁bon	-7912
ueras	-7913
▁th	-7914
▁llevaba	-7915
▁tono	-7916
tizado	-7917
ped	-7918
fel	-7919
mandad	-7920
▁caballer	-7921
▁manip	-7922
▁Game	-7923
chester	-7924
00,	-7925
▁Trabajo	-7926
==	-7927
tea	-7928
sto	-7929
regaci	-7930
entaciones	-7931
iedades	-7932
▁transmiti	-7933
▁coro	-7934
tronom	-7935
denas	-7936
▁vegetaci	-7937
▁perfil	-7938
▁disfrutar	-7939
▁multitud	-7940
jal	-7941
red	-7942
▁BBC	-7943
▁respeto	-7944
rug	-7945
▁2023,	-7946
yac	-7947
▁trenes	-7948
▁altar	-7949
▁nuestras	-7950
▁interrump	-7951
vada	-7952
▁alcanza	-7953
▁vendido	-7954
▁antig	-7955
▁izquierdo	-7956
act	-7957
TC	-7958
▁simult	-7959
▁agencia	-7960
▁submar	-7961
▁laboral	-7962
▁Long	-7963
▁Interior	-7964
▁animaci	-7965
tible	-7966
▁humanidad	-7967
▁funer	-7968
▁empleado	-7969
▁contienen	-7970
▁Memor	-7971
▁alberga	-7972
▁desac	-7973
mirante	-7974
▁explicar	-7975
ntesis	-7976
▁genera	-7977
▁organizar	-7978
▁acor	-7979
▁jer	-7980
▁hijas	-7981
▁Sum	-7982
▁55	-7983
▁Gram	-7984
▁gama	-7985
▁Escocia	-7986
yl	-7987
▁elaboraci	-7988
▁mecan	-7989
▁aldea	-7990
▁Tru	-7991
▁imposible	-7992
dismo	-7993
▁griega	-7994
▁claus	-7995
▁Jur	-7996
feros	-7997
▁Mariano	-7998
▁tripulaci	-7999
deste	-8000
39	-8001
▁destruir	-8002
▁reproduc	-8003
▁fot	-8004
▁nove	-8005
▁acero	-8006
ndal	-8007
▁Bi	-8008
ajara	-8009
ext	-8010
▁artiller	-8011
▁voces	-8012
▁Jr	-8013
▁Pens	-8014
sicamente	-8015
▁manus	-8016
▁Moder	-8017
▁juvenil	-8018
▁apun	-8019
▁riqueza	-8020
▁toneladas	-8021
▁plas	-8022
▁peruano	-8023
▁individuo	-8024
UL	-8025
▁sexto	-8026
IV	-8027
▁salvo	-8028
tigo	-8029
▁americano	-8030
oros	-8031
▁restantes	-8032
erta	-8033
▁reconstru	-8034
▁saque	-8035
▁Ill	-8036
▁asistente	-8037
mera	-8038
▁Estre	-8039
rcitos	-8040
▁hermanas	-8041
▁Vasco	-8042
▁creo	-8043
▁39	-8044
▁zar	-8045
cidentes	-8046
uguay	-8047
▁perd	-8048
▁Young	-8049
ere	-8050
▁define	-8051
▁camis	-8052
▁br	-8053
▁2004.	-8054
▁Grand	-8055
▁Journal	-8056
▁alas	-8057
vol	-8058
▁drogas	-8059
xe	-8060
▁Mah	-8061
▁AN	-8062
lav	-8063
▁prepara	-8064
▁EL	-8065
▁arcos	-8066
▁pesca	-8067
quiera	-8068
▁asalto	-8069
▁Cristi	-8070
▁It	-8071
Ac	-8072
▁Vin	-8073
▁integraci	-8074
▁pisos	-8075
▁arran	-8076
▁liderazgo	-8077
tela	-8078
▁abord	-8079
▁supervis	-8080
mburgo	-8081
▁estima	-8082
▁protestas	-8083
▁siente	-8084
▁Decreto	-8085
utton	-8086
▁emoci	-8087
▁monedas	-8088
▁revisi	-8089
lida	-8090
▁Nick	-8091
▁Universal	-8092
dilla	-8093
▁vencer	-8094
▁chilena	-8095
ulsi	-8096
▁char	-8097
▁alcohol	-8098
▁caballos	-8099
▁embajador	-8100
▁this	-8101
Fran	-8102
▁biblio	-8103
pula	-8104
entados	-8105
▁(5	-8106
▁expertos	-8107
47	-8108
▁(),	-8109
▁1996,	-8110
▁perci	-8111
itarias	-8112
▁2000.	-8113
▁Tercera	-8114
▁Salamanca	-8115
▁Lucas	-8116
▁hiper	-8117
▁mono	-8118
▁agrade	-8119
▁refuer	-8120
▁arena	-8121
▁esclavos	-8122
▁VIII	-8123
▁1979	-8124
▁dedi	-8125
Id	-8126
▁rebeli	-8127
▁Europeo	-8128
▁Zelanda	-8129
▁estatua	-8130
▁murieron	-8131
mis	-8132
▁especific	-8133
menta	-8134
Des	-8135
▁Serg	-8136
lidos	-8137
▁fruto	-8138
▁Honor	-8139
▁culp	-8140
▁desas	-8141
▁und	-8142
ctrico	-8143
▁Bot	-8144
▁entradas	-8145
▁viu	-8146
▁dispone	-8147
str	-8148
ugos	-8149
nimos	-8150
▁coste	-8151
▁expon	-8152
▁Noruega	-8153
▁Medicina	-8154
▁mecanismo	-8155
▁IS	-8156
alax	-8157
▁naciones	-8158
▁fracaso	-8159
sfera	-8160
▁Director	-8161
▁temprana	-8162
dom	-8163
▁ecuaci	-8164
▁uruguay	-8165
▁Imper	-8166
▁frecuente	-8167
▁trabajado	-8168
▁dibujos	-8169
▁pilotos	-8170
UC	-8171
▁Unidad	-8172
▁susp	-8173
▁eclesi	-8174
rganos	-8175
rosoft	-8176
cht	-8177
▁1997,	-8178
▁profesora	-8179
▁NO	-8180
▁2020.	-8181
▁Contr	-8182
▁profunda	-8183
▁Pense	-8184
▁impresion	-8185
▁sentencia	-8186
▁Rib	-8187
▁cero	-8188
▁mapa	-8189
▁conquis	-8190
▁mercan	-8191
nombre	-8192
▁carro	-8193
▁AM	-8194
▁obtenido	-8195
▁indis	-8196
▁cort	-8197
▁poema	-8198
▁Murcia	-8199
▁teatral	-8200
▁jam	-8201
▁atm	-8202
▁caminos	-8203
egos	-8204
▁amiga	-8205
▁Pensemos	-8206
umi	-8207
▁casado	-8208
▁duro	-8209
▁relato	-8210
▁vidas	-8211
▁empezaron	-8212
kins	-8213
▁ahor	-8214
▁rap	-8215
▁lluvia	-8216
uto	-8217
▁Puebla	-8218
tornos	-8219
mol	-8220
peonatos	-8221
veda	-8222
▁continua	-8223
▁acos	-8224
▁distritos	-8225
▁Cra	-8226
▁estatus	-8227
▁Turqu	-8228
▁roja	-8229
▁captura	-8230
imnas	-8231
tendo	-8232
▁escuchar	-8233
alizadas	-8234
▁pleno	-8235
▁Frances	-8236
ross	-8237
▁exces	-8238
▁reuniones	-8239
▁deuda	-8240
▁distribuy	-8241
▁Simon	-8242
▁regal	-8243
ats	-8244
▁esperaba	-8245
▁formaron	-8246
guardia	-8247
▁argumento	-8248
▁Tuc	-8249
▁Pese	-8250
▁Fel	-8251
izas	-8252
▁Ford	-8253
▁1976	-8254
▁arzobispo	-8255
▁Pap	-8256
▁sexuales	-8257
▁Bell	-8258
▁Supremo	-8259
▁alej	-8260
▁Programa	-8261
▁poseen	-8262
▁Gio	-8263
▁lad	-8264
▁aline	-8265
Espa	-8266
▁libras	-8267
▁tensi	-8268
▁heridos	-8269
▁adquirir	-8270
▁definir	-8271
▁Empres	-8272
▁it	-8273
▁preocup	-8274
▁cuarenta	-8275
back	-8276
▁semillas	-8277
▁curs	-8278
▁corrupci	-8279
▁Rivera	-8280
%,	-8281
▁170	-8282
▁Gib	-8283
▁patio	-8284
▁interno	-8285
ient	-8286
▁crimen	-8287
▁sustituy	-8288
▁Burgos	-8289
▁fuese	-8290
▁Society	-8291
▁),	-8292
▁veter	-8293
▁1973	-8294
cnicos	-8295
▁Way	-8296
▁Associa	-8297
ory	-8298
▁Quer	-8299
▁manga	-8300
tones	-8301
▁lateral	-8302
▁secuestr	-8303
▁dientes	-8304
Do	-8305
▁ninguno	-8306
▁Tie	-8307
yth	-8308
▁numer	-8309
▁detenido	-8310
▁parecen	-8311
▁Todas	-8312
sos	-8313
▁ala	-8314
▁Mauri	-8315
▁peor	-8316
▁brazo	-8317
▁seman	-8318
ndolos	-8319
▁155	-8320
▁inscri	-8321
▁universal	-8322
▁instituto	-8323
▁Nu	-8324
▁gras	-8325
▁UR	-8326
inger	-8327
▁hered	-8328
▁rocas	-8329
▁ramas	-8330
bao	-8331
▁instancia	-8332
▁paro	-8333
▁negros	-8334
▁Bach	-8335
▁Hub	-8336
▁danza	-8337
▁gole	-8338
▁indios	-8339
▁ejecutar	-8340
▁habiendo	-8341
▁tax	-8342
▁placa	-8343
▁Fort	-8344
▁incidente	-8345
▁Mall	-8346
OL	-8347
▁Castell	-8348
iser	-8349
▁notas	-8350
▁Hans	-8351
44	-8352
▁Comics	-8353
▁limitada	-8354
▁metro	-8355
▁acusado	-8356
▁Gold	-8357
▁canto	-8358
▁Joan	-8359
▁tecl	-8360
▁Esteban	-8361
tidi	-8362
▁erig	-8363
▁Wat	-8364
▁cuadrados	-8365
▁2024	-8366
▁permiso	-8367
▁Orquesta	-8368
ess	-8369
▁sabor	-8370
▁enga	-8371
▁ofrecen	-8372
als	-8373
rrez	-8374
ebook	-8375
▁poemas	-8376
Madrid	-8377
▁1978	-8378
▁Time	-8379
▁maestros	-8380
SA	-8381
-199	-8382
utas	-8383
▁ham	-8384
uez	-8385
▁atle	-8386
icaciones	-8387
ieta	-8388
▁supuso	-8389
▁terminal	-8390
▁Exp	-8391
▁celebrado	-8392
mic	-8393
▁Puente	-8394
▁Spider	-8395
▁funcional	-8396
▁Estatal	-8397
onesa	-8398
];	-8399
▁Sr	-8400
vila	-8401
ology	-8402
▁Padre	-8403
▁tumba	-8404
▁aflu	-8405
▁vende	-8406
orit	-8407
kes	-8408
▁McC	-8409
▁empa	-8410
▁provisi	-8411
▁existente	-8412
stru	-8413
▁calend	-8414
▁deportes	-8415
▁Nintendo	-8416
▁CON	-8417
▁compiti	-8418
▁1995,	-8419
isos	-8420
▁elevado	-8421
▁ojo	-8422
▁renta	-8423
▁1975	-8424
▁anci	-8425
▁Harry	-8426
▁Antigu	-8427
▁firmado	-8428
▁1981	-8429
▁pobres	-8430
jeros	-8431
distas	-8432
▁ascendi	-8433
alleros	-8434
IP	-8435
▁cuentas	-8436
▁llen	-8437
▁mental	-8438
onna	-8439
▁Cle	-8440
▁estrenada	-8441
lv	-8442
▁Tuvo	-8443
▁ocupado	-8444
VID	-8445
▁deportiva	-8446
▁anuncio	-8447
boa	-8448
▁pobreza	-8449
▁Dinamarca	-8450
enovela	-8451
▁Guti	-8452
rpre	-8453
gaz	-8454
diales	-8455
▁divide	-8456
▁perpe	-8457
▁ben	-8458
▁Apple	-8459
▁perdiendo	-8460
▁pase	-8461
aragua	-8462
85	-8463
▁profundo	-8464
▁piedras	-8465
dadas	-8466
▁1960,	-8467
▁lenta	-8468
▁Pat	-8469
DA	-8470
▁eliminaci	-8471
orth	-8472
▁mensajes	-8473
▁choc	-8474
▁Diario	-8475
adra	-8476
▁cobertura	-8477
▁sospech	-8478
▁vuelos	-8479
▁tribunal	-8480
▁Life	-8481
zm	-8482
▁pira	-8483
▁coches	-8484
▁solicit	-8485
▁Mach	-8486
▁nace	-8487
▁costas	-8488
▁DC	-8489
UE	-8490
▁Wes	-8491
▁Jefe	-8492
▁cifra	-8493
entaria	-8494
▁Tel	-8495
▁elimina	-8496
iada	-8497
picos	-8498
voz	-8499
▁cooperaci	-8500
UR	-8501
ket	-8502
cito	-8503
ois	-8504
▁beneficio	-8505
NA	-8506
▁Law	-8507
pri	-8508
▁colocar	-8509
▁cultivos	-8510
▁Ejecutivo	-8511
▁sesiones	-8512
cuen	-8513
add	-8514
▁gusto	-8515
▁Bib	-8516
▁facilitar	-8517
▁Mara	-8518
▁votaci	-8519
▁brazos	-8520
▁Rojo	-8521
enses	-8522
rcol	-8523
mail	-8524
icias	-8525
vania	-8526
▁Papa	-8527
▁176	-8528
▁retirarse	-8529
▁impul	-8530
▁circulaci	-8531
▁publica	-8532
▁Boston	-8533
▁visual	-8534
▁espada	-8535
▁Song	-8536
▁1994,	-8537
entaba	-8538
▁nombrada	-8539
▁Capit	-8540
▁conservan	-8541
▁firme	-8542
▁escolar	-8543
▁rig	-8544
frad	-8545
▁fic	-8546
▁gab	-8547
▁tomaron	-8548
▁Augusto	-8549
▁centrales	-8550
▁Cuatro	-8551
▁ventana	-8552
▁1992,	-8553
▁plu	-8554
▁Gustavo	-8555
▁desen	-8556
▁Microsoft	-8557
▁coordin	-8558
iero	-8559
▁Andes	-8560
arlos	-8561
▁estando	-8562
▁muros	-8563
▁Nik	-8564
ilan	-8565
Bu	-8566
▁Monta	-8567
▁bajos	-8568
▁precisi	-8569
▁misterios	-8570
cimo	-8571
zquez	-8572
quido	-8573
▁irregular	-8574
ori	-8575
▁orientaci	-8576
▁Verde	-8577
▁plena	-8578
▁America	-8579
▁Naz	-8580
▁complet	-8581
▁variables	-8582
pur	-8583
▁ventanas	-8584
▁Fun	-8585
▁repi	-8586
▁funcionar	-8587
▁retom	-8588
▁Independi	-8589
▁Hijo	-8590
▁42	-8591
▁zo	-8592
tifica	-8593
▁Hacienda	-8594
▁desh	-8595
▁Atlan	-8596
▁Mediterr	-8597
▁afili	-8598
IL	-8599
cismo	-8600
▁Miami	-8601
▁separado	-8602
▁haberse	-8603
kar	-8604
▁Live	-8605
▁descrita	-8606
vino	-8607
andra	-8608
▁entreten	-8609
ejas	-8610
▁Up	-8611
▁Kong	-8612
hem	-8613
▁Johnson	-8614
amentos	-8615
▁Oh	-8616
▁siguieron	-8617
▁diagn	-8618
▁vag	-8619
▁obis	-8620
▁daba	-8621
entalmente	-8622
▁invas	-8623
▁novia	-8624
▁conceptos	-8625
▁muestras	-8626
abeth	-8627
▁torres	-8628
ipi	-8629
▁junta	-8630
▁exilio	-8631
▁Mike	-8632
quita	-8633
ou	-8634
▁Emb	-8635
▁naran	-8636
▁sta	-8637
tander	-8638
isbol	-8639
izadas	-8640
▁reconoce	-8641
zona	-8642
▁estrecho	-8643
▁terrestre	-8644
▁siglas	-8645
▁aspir	-8646
▁Alexander	-8647
▁crey	-8648
▁mover	-8649
▁lluvias	-8650
istrativa	-8651
▁Silva	-8652
▁ped	-8653
▁muro	-8654
▁horizon	-8655
▁tamb	-8656
▁1991,	-8657
▁Alfredo	-8658
trada	-8659
▁deterior	-8660
▁tram	-8661
▁articul	-8662
quen	-8663
▁eliminado	-8664
out	-8665
▁10,	-8666
▁port	-8667
▁800	-8668
nado	-8669
['	-8670
▁sucesi	-8671
ECT	-8672
▁1977	-8673
lis	-8674
▁8,	-8675
of	-8676
.).	-8677
mira	-8678
tolom	-8679
▁amenaz	-8680
▁habita	-8681
▁adecuado	-8682
jam	-8683
▁sujeto	-8684
thur	-8685
▁Book	-8686
▁Georgia	-8687
▁ruedas	-8688
▁culturas	-8689
▁caz	-8690
▁Jord	-8691
dri	-8692
tanos	-8693
usk	-8694
▁seno	-8695
31	-8696
ancias	-8697
lando	-8698
▁Wilson	-8699
▁Pach	-8700
▁Semana	-8701
▁Filipinas	-8702
inalmente	-8703
▁cria	-8704
▁1936	-8705
▁1974	-8706
▁jazz	-8707
▁rar	-8708
▁saga	-8709
▁manejo	-8710
▁asistir	-8711
zz	-8712
');	-8713
▁largas	-8714
▁Siria	-8715
▁dichos	-8716
▁ejercer	-8717
xido	-8718
▁Junior	-8719
▁Kn	-8720
ionalmente	-8721
▁Tengo	-8722
lle	-8723
TS	-8724
urac	-8725
TP	-8726
▁causar	-8727
▁Philip	-8728
tabilidad	-8729
▁demostrar	-8730
▁movil	-8731
▁absoluta	-8732
▁64	-8733
▁privadas	-8734
ctico	-8735
▁Incluso	-8736
mil	-8737
▁Walter	-8738
▁Arturo	-8739
▁elector	-8740
▁Fla	-8741
▁comienzan	-8742
▁terremoto	-8743
▁Ze	-8744
▁emisiones	-8745
ildo	-8746
pul	-8747
rtico	-8748
iguaci	-8749
▁Cerro	-8750
▁abuelo	-8751
▁concreto	-8752
anta	-8753
▁Oxford	-8754
▁rasgos	-8755
▁Humanos	-8756
adilla	-8757
▁Hitler	-8758
▁noven	-8759
▁optim	-8760
▁2003.	-8761
▁gastos	-8762
amba	-8763
loria	-8764
gicamente	-8765
▁vulner	-8766
MP	-8767
hum	-8768
▁44	-8769
▁Jac	-8770
▁Sky	-8771
▁47	-8772
▁Asuntos	-8773
▁ambiental	-8774
▁subterr	-8775
ondo	-8776
▁copia	-8777
less	-8778
▁Libre	-8779
utar	-8780
▁Rodrigo	-8781
▁Terri	-8782
▁vital	-8783
▁exitosa	-8784
▁colonias	-8785
▁Inc	-8786
▁Jas	-8787
▁acredi	-8788
iw	-8789
▁Acci	-8790
▁Muri	-8791
▁naval	-8792
▁asumir	-8793
▁print	-8794
▁circular	-8795
▁necesitan	-8796
▁limita	-8797
cenas	-8798
▁Herrera	-8799
▁cortes	-8800
▁Stone	-8801
▁2:	-8802
tinas	-8803
▁num	-8804
lova	-8805
▁Ministro	-8806
▁Dub	-8807
hos	-8808
▁cirug	-8809
▁secciones	-8810
▁Mid	-8811
arr	-8812
▁conocen	-8813
vich	-8814
▁ingresar	-8815
▁Escu	-8816
▁Habana	-8817
▁invitados	-8818
▁PP	-8819
▁talleres	-8820
▁Suprema	-8821
▁1968	-8822
▁Poder	-8823
titudes	-8824
remos	-8825
bel	-8826
DE	-8827
tena	-8828
▁algorit	-8829
▁conmemor	-8830
▁requis	-8831
▁Anna	-8832
▁Sergio	-8833
tics	-8834
▁notables	-8835
▁agrupaci	-8836
▁inscripci	-8837
▁Raci	-8838
▁ortodo	-8839
▁verse	-8840
▁Estaci	-8841
▁vientos	-8842
▁Teo	-8843
▁operativo	-8844
last	-8845
ader	-8846
▁ofensiva	-8847
▁Via	-8848
▁ple	-8849
gia	-8850
▁Esa	-8851
▁cubrir	-8852
▁Bernardo	-8853
::	-8854
▁Ky	-8855
▁talento	-8856
▁vocal	-8857
▁Columbia	-8858
▁Morales	-8859
▁Robin	-8860
▁Venecia	-8861
▁rurales	-8862
▁Nicaragua	-8863
▁iban	-8864
▁Catalina	-8865
GB	-8866
rcoles	-8867
▁procesi	-8868
▁condenado	-8869
ambiguaci	-8870
▁peregr	-8871
▁Tony	-8872
▁italianos	-8873
▁Pierre	-8874
▁podido	-8875
▁correg	-8876
chus	-8877
▁Twitter	-8878
iemb	-8879
▁Dun	-8880
▁COVID	-8881
▁luc	-8882
ganda	-8883
▁Zona	-8884
▁Guzm	-8885
▁Oeste	-8886
▁inspec	-8887
▁utilizaci	-8888
▁jardines	-8889
▁abad	-8890
▁sensaci	-8891
▁cercanos	-8892
Jo	-8893
▁celular	-8894
▁Christian	-8895
▁ador	-8896
▁marav	-8897
▁Kal	-8898
▁});	-8899
▁bomba	-8900
▁om	-8901
aso	-8902
▁Steve	-8903
▁adv	-8904
minario	-8905
▁pierde	-8906
san	-8907
▁china	-8908
▁largos	-8909
▁aventura	-8910
▁parecido	-8911
ming	-8912
▁igualdad	-8913
▁Republic	-8914
▁infanter	-8915
▁traici	-8916
▁Guerrero	-8917
▁astr	-8918
▁escribe	-8919
▁evidente	-8920
▁clic	-8921
▁Harris	-8922
▁literaria	-8923
ION	-8924
View	-8925
▁fusion	-8926
▁perju	-8927
▁asociados	-8928
▁mig	-8929
▁1972	-8930
▁reducido	-8931
▁Brian	-8932
▁CN	-8933
tamen	-8934
▁depos	-8935
esu	-8936
▁volvieron	-8937
quera	-8938
▁Latinoam	-8939
▁unir	-8940
▁admir	-8941
▁Pala	-8942
▁correcto	-8943
▁Navidad	-8944
▁Baja	-8945
▁retablo	-8946
▁och	-8947
▁lla	-8948
quero	-8949
▁XIII	-8950
ttp	-8951
elly	-8952
▁debil	-8953
more	-8954
ation	-8955
▁250	-8956
▁Ear	-8957
ompe	-8958
▁pade	-8959
▁Libertad	-8960
▁impro	-8961
▁has	-8962
▁adh	-8963
reos	-8964
▁Metro	-8965
▁Blue	-8966
ango	-8967
▁positivo	-8968
▁comprende	-8969
▁enterrado	-8970
▁encom	-8971
▁radic	-8972
▁Virginia	-8973
▁empresar	-8974
▁ara	-8975
ueve	-8976
▁quem	-8977
▁Argentino	-8978
▁Oscar	-8979
▁ves	-8980
▁?	-8981
▁Cerv	-8982
▁negativa	-8983
▁(190	-8984
▁Calle	-8985
umas	-8986
▁aman	-8987
▁desemboc	-8988
98	-8989
▁pir	-8990
▁perros	-8991
canes	-8992
▁hoja	-8993
▁sufrir	-8994
chan	-8995
orca	-8996
▁ruinas	-8997
▁radical	-8998
▁forz	-8999
▁hosp	-9000
▁rusos	-9001
){	-9002
doc	-9003
▁apre	-9004
▁bici	-9005
▁cuan	-9006
oph	-9007
far	-9008
▁asunto	-9009
Tube	-9010
▁Eric	-9011
▁Batman	-9012
▁meridi	-9013
war	-9014
▁Ann	-9015
stein	-9016
▁Cristina	-9017
▁europeas	-9018
▁Bilbao	-9019
▁Ima	-9020
▁cable	-9021
▁Auto	-9022
▁157	-9023
▁cump	-9024
▁semej	-9025
▁Bautista	-9026
▁Stra	-9027
▁entregar	-9028
acion	-9029
▁perdieron	-9030
▁fla	-9031
▁cadenas	-9032
▁Emilio	-9033
▁adver	-9034
Gu	-9035
▁adopt	-9036
▁tejido	-9037
▁cha	-9038
▁hallaz	-9039
▁pandemia	-9040
▁previsto	-9041
▁resal	-9042
▁suble	-9043
▁Nan	-9044
toras	-9045
▁combates	-9046
abell	-9047
▁2024,	-9048
▁matriz	-9049
aunque	-9050
▁aventuras	-9051
chel	-9052
▁Colonia	-9053
▁parejas	-9054
▁Chil	-9055
▁2021.	-9056
▁1:	-9057
▁agregar	-9058
**	-9059
▁minas	-9060
▁cardenal	-9061
enar	-9062
▁estrecha	-9063
ptima	-9064
▁rell	-9065
▁cerv	-9066
▁Albert	-9067
acruz	-9068
▁santo	-9069
▁observa	-9070
▁Sto	-9071
▁japoneses	-9072
ss	-9073
▁pedido	-9074
▁efectivo	-9075
,"	-9076
▁1993,	-9077
▁coleg	-9078
▁Mujeres	-9079
▁bancos	-9080
▁tribus	-9081
▁suave	-9082
▁(16	-9083
▁lleno	-9084
▁Zo	-9085
▁esquina	-9086
▁Medina	-9087
▁Lew	-9088
▁publici	-9089
▁Magdal	-9090
▁Juana	-9091
lvaro	-9092
▁rin	-9093
▁Broad	-9094
▁fronteras	-9095
▁trabajaba	-9096
kh	-9097
▁ingleses	-9098
Su	-9099
▁Lit	-9100
▁legales	-9101
bido	-9102
▁cambiado	-9103
▁fauna	-9104
▁usada	-9105
▁retorno	-9106
sea	-9107
▁SS	-9108
▁aloj	-9109
▁Comple	-9110
▁empe	-9111
▁1969	-9112
▁Canarias	-9113
▁leal	-9114
▁tengan	-9115
▁Gin	-9116
▁zapa	-9117
▁torneos	-9118
▁dioses	-9119
▁Imperial	-9120
▁escritora	-9121
▁disminuci	-9122
▁ele	-9123
▁==	-9124
▁import	-9125
▁inspiraci	-9126
ucar	-9127
▁enamor	-9128
▁respondi	-9129
▁subcam	-9130
dita	-9131
▁rebo	-9132
OC	-9133
▁acepta	-9134
derson	-9135
▁Cabe	-9136
gers	-9137
▁caballero	-9138
▁demon	-9139
▁griegos	-9140
▁escultor	-9141
▁Existe	-9142
ors	-9143
▁marcado	-9144
▁argent	-9145
▁jurado	-9146
Si	-9147
▁River	-9148
jera	-9149
▁9.	-9150
rend	-9151
▁acuerdos	-9152
pista	-9153
▁Chap	-9154
▁Asunci	-9155
cro	-9156
▁provoca	-9157
▁Spe	-9158
▁variante	-9159
▁dicen	-9160
▁impe	-9161
▁confi	-9162
▁adquisici	-9163
▁Gregorio	-9164
gida	-9165
▁simbol	-9166
▁aden	-9167
▁mejoras	-9168
▁dibujo	-9169
▁otorgado	-9170
▁acumul	-9171
▁Conde	-9172
ugosla	-9173
▁docente	-9174
▁tratando	-9175
▁solicitud	-9176
▁brig	-9177
▁cima	-9178
▁Arquitec	-9179
▁ficti	-9180
▁crearon	-9181
▁neuro	-9182
▁marcador	-9183
andr	-9184
▁cotidi	-9185
OM	-9186
▁memb	-9187
▁ocurrido	-9188
▁History	-9189
entada	-9190
▁oposi	-9191
▁doctorado	-9192
▁Stor	-9193
▁Ku	-9194
▁Pascu	-9195
▁centra	-9196
onto	-9197
▁Vers	-9198
▁salto	-9199
▁Group	-9200
▁ensayo	-9201
▁Ruta	-9202
▁Agencia	-9203
▁renomb	-9204
data	-9205
▁apa	-9206
direc	-9207
▁Santander	-9208
▁combatir	-9209
▁acaba	-9210
▁Apo	-9211
▁String	-9212
▁visitas	-9213
▁ecos	-9214
▁dieta	-9215
▁165	-9216
ucran	-9217
▁Vide	-9218
▁Flo	-9219
tua	-9220
PD	-9221
▁soy	-9222
py	-9223
▁compone	-9224
▁Facebook	-9225
▁delito	-9226
ax	-9227
▁roca	-9228
▁Comb	-9229
▁kg	-9230
▁romper	-9231
▁impidi	-9232
gata	-9233
▁Cho	-9234
▁adecuada	-9235
lculo	-9236
▁muere	-9237
▁discre	-9238
▁simb	-9239
▁49	-9240
▁YouTube	-9241
▁jefes	-9242
▁Oficial	-9243
▁espe	-9244
olla	-9245
mpico	-9246
▁Valenci	-9247
▁Mayo	-9248
▁discri	-9249
▁evacu	-9250
now	-9251
▁Cham	-9252
cano	-9253
haus	-9254
▁traspas	-9255
▁digitales	-9256
pacidad	-9257
▁Napole	-9258
ector	-9259
colo	-9260
escri	-9261
▁artesan	-9262
▁Eliz	-9263
▁conclusi	-9264
siles	-9265
▁emprendi	-9266
▁Isa	-9267
▁Jard	-9268
▁advers	-9269
▁simpl	-9270
▁fusil	-9271
▁consist	-9272
▁neer	-9273
▁lesiones	-9274
▁rodaje	-9275
▁Mans	-9276
▁cabe	-9277
ruecos	-9278
▁indican	-9279
▁Ala	-9280
this	-9281
time	-9282
pr	-9283
▁compens	-9284
▁limitado	-9285
rti	-9286
bitat	-9287
▁IX	-9288
udas	-9289
▁monarca	-9290
▁amistos	-9291
▁sindica	-9292
ulario	-9293
▁rumbo	-9294
tens	-9295
▁correcta	-9296
▁contraste	-9297
▁ecol	-9298
ref	-9299
▁sustan	-9300
BI	-9301
▁Informaci	-9302
▁terminado	-9303
▁WWE	-9304
▁Taylor	-9305
▁Estoy	-9306
▁Rojas	-9307
▁demol	-9308
▁halla	-9309
▁llena	-9310
▁Tokio	-9311
▁Vietnam	-9312
▁soberan	-9313
▁1967	-9314
▁Ok	-9315
▁nobleza	-9316
▁Romero	-9317
▁Varios	-9318
▁impresi	-9319
inea	-9320
▁string	-9321
▁protesta	-9322
▁flam	-9323
▁Esper	-9324
▁retiro	-9325
nol	-9326
guas	-9327
▁2002.	-9328
Station	-9329
▁Fra	-9330
▁ago	-9331
▁Trad	-9332
▁Doug	-9333
▁nativos	-9334
▁Angel	-9335
▁correr	-9336
iev	-9337
▁Rick	-9338
▁legislaci	-9339
▁cerrado	-9340
▁Mercedes	-9341
▁Fig	-9342
▁rub	-9343
▁figur	-9344
▁videos	-9345
▁esencial	-9346
▁delitos	-9347
▁multiplic	-9348
▁1971	-9349
▁jueves	-9350
rdidas	-9351
▁2001.	-9352
▁Cabo	-9353
▁Island	-9354
▁Primero	-9355
EG	-9356
▁Bow	-9357
▁rehabil	-9358
▁liberales	-9359
query	-9360
▁Palma	-9361
▁parcial	-9362
arle	-9363
js	-9364
uido	-9365
▁Lev	-9366
▁ampliaci	-9367
▁Revista	-9368
▁jesu	-9369
▁Deportes	-9370
▁larg	-9371
▁Tig	-9372
rente	-9373
▁Bun	-9374
zy	-9375
▁Grandes	-9376
tant	-9377
.;	-9378
▁Yan	-9379
▁renovaci	-9380
▁God	-9381
rimir	-9382
▁subir	-9383
▁cantar	-9384
ae	-9385
ette	-9386
ganza	-9387
▁evaluaci	-9388
▁haga	-9389
▁hayan	-9390
radas	-9391
▁infecci	-9392
▁estatales	-9393
fonos	-9394
▁seco	-9395
-,	-9396
▁peda	-9397
▁anuales	-9398
▁restring	-9399
▁sorpresa	-9400
49	-9401
▁orillas	-9402
-),	-9403
Cal	-9404
▁famosos	-9405
▁reloj	-9406
▁dejaron	-9407
▁lum	-9408
▁positiva	-9409
PC	-9410
cess	-9411
itadas	-9412
▁anillo	-9413
▁isl	-9414
▁Hong	-9415
▁psicol	-9416
▁Obs	-9417
▁desv	-9418
▁electro	-9419
$.	-9420
▁predic	-9421
▁Clo	-9422
▁probar	-9423
here	-9424
▁anime	-9425
▁sober	-9426
▁cerrar	-9427
esas	-9428
▁persecuci	-9429
▁llevando	-9430
TR	-9431
▁Pir	-9432
▁introduci	-9433
tituy	-9434
▁bin	-9435
▁Fies	-9436
▁fort	-9437
parte	-9438
▁hogares	-9439
▁tantos	-9440
▁tens	-9441
▁condujo	-9442
▁Editorial	-9443
▁expec	-9444
entarias	-9445
rad	-9446
istrativo	-9447
usia	-9448
▁Extre	-9449
▁Infan	-9450
▁158	-9451
▁desple	-9452
▁visible	-9453
deas	-9454
▁boda	-9455
▁sugiri	-9456
▁pulgadas	-9457
▁1945	-9458
▁sesenta	-9459
▁calcul	-9460
▁discusi	-9461
AA	-9462
▁Irak	-9463
alar	-9464
tren	-9465
IB	-9466
▁nobles	-9467
▁ester	-9468
▁previo	-9469
cionada	-9470
▁refleja	-9471
▁Cuar	-9472
▁moto	-9473
▁Nos	-9474
▁heredero	-9475
▁rod	-9476
fan	-9477
▁distingu	-9478
nan	-9479
nen	-9480
▁Bomb	-9481
▁cura	-9482
hl	-9483
▁85	-9484
QL	-9485
▁flan	-9486
▁blancas	-9487
▁Land	-9488
▁tron	-9489
▁eligi	-9490
non	-9491
▁glaci	-9492
ecos	-9493
▁ABC	-9494
▁habil	-9495
▁sinti	-9496
▁tarjeta	-9497
ucado	-9498
▁dosis	-9499
▁rayos	-9500
▁cuentos	-9501
▁convoca	-9502
▁Condado	-9503
▁priva	-9504
ilvania	-9505
▁Selecci	-9506
▁basados	-9507
clopedia	-9508
landesa	-9509
gente	-9510
ship	-9511
poles	-9512
▁Team	-9513
▁dedica	-9514
▁implement	-9515
▁desierto	-9516
imb	-9517
▁integral	-9518
▁Magdalena	-9519
▁navegaci	-9520
▁debemos	-9521
▁uniforme	-9522
▁aparte	-9523
▁Jeff	-9524
▁PR	-9525
than	-9526
onarios	-9527
▁pur	-9528
▁mide	-9529
▁batallas	-9530
▁abarca	-9531
▁sufrido	-9532
▁ucran	-9533
▁arroz	-9534
▁conduce	-9535
▁rectang	-9536
▁Jal	-9537
lace	-9538
▁Tiempo	-9539
liz	-9540
▁filial	-9541
▁Convenci	-9542
▁Fueron	-9543
▁reemplazo	-9544
▁London	-9545
tograf	-9546
▁Capital	-9547
▁previa	-9548
▁altamente	-9549
nich	-9550
▁premi	-9551
▁Jar	-9552
Can	-9553
ptica	-9554
▁hard	-9555
▁quieres	-9556
▁solista	-9557
.-	-9558
nomo	-9559
-16	-9560
▁Ash	-9561
▁colonos	-9562
▁gabinete	-9563
▁ber	-9564
▁ganader	-9565
cura	-9566
▁curva	-9567
oman	-9568
▁fallecido	-9569
▁aclar	-9570
▁batall	-9571
▁profesi	-9572
▁pasan	-9573
▁marina	-9574
▁dup	-9575
▁Viejo	-9576
▁Tener	-9577
▁catalog	-9578
▁168	-9579
▁aplica	-9580
▁Ath	-9581
▁Ever	-9582
▁monstru	-9583
▁mortal	-9584
▁even	-9585
▁atravi	-9586
idalgo	-9587
▁Pales	-9588
▁automo	-9589
▁cuadros	-9590
▁quedado	-9591
▁conc	-9592
km	-9593
▁dudas	-9594
▁examen	-9595
▁1989,	-9596
uerte	-9597
▁Gam	-9598
sch	-9599
▁boliv	-9600
▁Diputados	-9601
lanes	-9602
▁Hard	-9603
uble	-9604
▁But	-9605
▁arre	-9606
nec	-9607
▁paralelo	-9608
▁organiza	-9609
text	-9610
▁Cav	-9611
gri	-9612
▁relieve	-9613
▁marr	-9614
▁bando	-9615
▁magnitud	-9616
trar	-9617
▁radiaci	-9618
▁Liv	-9619
hara	-9620
▁restable	-9621
▁iniciales	-9622
ntos	-9623
▁alcanzado	-9624
▁pat	-9625
String	-9626
▁creador	-9627
izaciones	-9628
▁enfoc	-9629
medio	-9630
▁onda	-9631
▁cae	-9632
▁Marruecos	-9633
▁gigante	-9634
▁ensayos	-9635
ufici	-9636
▁sostiene	-9637
-198	-9638
▁transcur	-9639
▁cro	-9640
▁llevada	-9641
jeras	-9642
▁describir	-9643
▁Giovan	-9644
emora	-9645
▁socios	-9646
▁Atenas	-9647
▁sucede	-9648
▁recorri	-9649
▁preparar	-9650
▁desn	-9651
▁Gales	-9652
▁cobre	-9653
▁Miranda	-9654
▁permitido	-9655
▁rico	-9656
▁ignor	-9657
ierro	-9658
▁restric	-9659
▁servidor	-9660
▁tranqu	-9661
▁Maj	-9662
▁Kenne	-9663
▁disoluci	-9664
▁filme	-9665
▁recordar	-9666
▁cercanas	-9667
▁Gonzalo	-9668
▁Alan	-9669
▁Romano	-9670
▁firmar	-9671
▁monarqu	-9672
▁asisten	-9673
▁46	-9674
▁suspensi	-9675
▁refugio	-9676
ndrome	-9677
▁entero	-9678
▁rescate	-9679
▁recurso	-9680
tega	-9681
▁verdes	-9682
▁1939	-9683
▁afro	-9684
gencia	-9685
▁barra	-9686
▁guarda	-9687
▁rostro	-9688
PA	-9689
▁1990.	-9690
vent	-9691
trie	-9692
▁opiniones	-9693
▁Zamora	-9694
▁By	-9695
▁Cob	-9696
izca	-9697
▁provocar	-9698
▁bis	-9699
lib	-9700
▁frutos	-9701
▁puertos	-9702
▁Debut	-9703
▁Femen	-9704
▁efectiva	-9705
▁avances	-9706
ground	-9707
▁espalda	-9708
cambi	-9709
▁sar	-9710
bren	-9711
bury	-9712
▁cubre	-9713
igi	-9714
▁masas	-9715
▁inac	-9716
▁1964	-9717
▁crucero	-9718
▁plazas	-9719
ulla	-9720
▁alquil	-9721
▁cabello	-9722
00.	-9723
▁masculino	-9724
▁responder	-9725
▁Cartagena	-9726
▁martes	-9727
▁vistas	-9728
▁Suc	-9729
tella	-9730
ules	-9731
▁lis	-9732
▁serp	-9733
abilidades	-9734
▁Ciencia	-9735
▁descanso	-9736
▁ov	-9737
penden	-9738
46	-9739
▁Racing	-9740
▁heb	-9741
▁traslado	-9742
EF	-9743
▁reservas	-9744
▁anunciado	-9745
ducto	-9746
▁conductor	-9747
ugby	-9748
menos	-9749
▁Ernesto	-9750
dical	-9751
▁peg	-9752
bec	-9753
▁privados	-9754
▁cedi	-9755
▁conducir	-9756
lista	-9757
▁Roger	-9758
▁custo	-9759
▁unieron	-9760
▁heridas	-9761
▁Proyecto	-9762
▁not	-9763
uki	-9764
▁reorganiz	-9765
▁citado	-9766
itt	-9767
▁extinci	-9768
▁rica	-9769
Te	-9770
▁aprobado	-9771
carriles	-9772
enia	-9773
▁propuesto	-9774
▁Control	-9775
▁extensa	-9776
▁pretend	-9777
▁lanzaron	-9778
puso	-9779
▁Anth	-9780
▁proxim	-9781
▁antece	-9782
untamente	-9783
▁permanece	-9784
▁void	-9785
▁ed	-9786
▁sobrino	-9787
▁neutr	-9788
▁Termin	-9789
By	-9790
▁medir	-9791
iego	-9792
liga	-9793
ql	-9794
▁asimismo	-9795
▁Ron	-9796
acios	-9797
▁explosi	-9798
stamo	-9799
▁extremos	-9800
▁vidrio	-9801
▁pecho	-9802
▁exitos	-9803
wan	-9804
▁Energ	-9805
risto	-9806
▁9,	-9807
▁Ross	-9808
▁herido	-9809
▁virtud	-9810
▁herencia	-9811
▁Lab	-9812
iter	-9813
▁soldado	-9814
▁delantero	-9815
▁Aran	-9816
▁Alma	-9817
▁puntuaci	-9818
trices	-9819
▁Filosof	-9820
ROM	-9821
▁Bad	-9822
▁Java	-9823
▁colap	-9824
▁1966	-9825
▁Nas	-9826
istemas	-9827
vieran	-9828
bes	-9829
restling	-9830
▁elegidos	-9831
▁Vlad	-9832
eres	-9833
raba	-9834
▁pales	-9835
▁simples	-9836
78	-9837
usas	-9838
▁chinos	-9839
abal	-9840
▁Molina	-9841
▁incluidas	-9842
▁Janeiro	-9843
▁Android	-9844
▁detalle	-9845
▁ingen	-9846
▁interacci	-9847
tifici	-9848
▁configur	-9849
▁vigor	-9850
cripciones	-9851
▁logo	-9852
▁siquiera	-9853
▁Pun	-9854
iebre	-9855
▁Sony	-9856
▁fores	-9857
▁dichas	-9858
▁Trinidad	-9859
▁reciben	-9860
geo	-9861
rmol	-9862
▁tin	-9863
▁Jam	-9864
▁ave	-9865
▁transpar	-9866
ladas	-9867
▁impulso	-9868
▁Sing	-9869
▁sucedido	-9870
▁Out	-9871
▁armado	-9872
▁43	-9873
▁Awards	-9874
mbolos	-9875
▁Rena	-9876
▁supues	-9877
▁Autor	-9878
▁Sici	-9879
▁dividido	-9880
imal	-9881
▁sonidos	-9882
▁riesgos	-9883
▁integrada	-9884
▁Paso	-9885
▁Bru	-9886
▁secuela	-9887
venciones	-9888
▁helic	-9889
vir	-9890
▁East	-9891
▁perfecto	-9892
▁ec	-9893
▁huesos	-9894
▁Josef	-9895
▁XII	-9896
▁Exposici	-9897
▁Dy	-9898
▁Claus	-9899
▁inspirado	-9900
▁1965	-9901
▁Karl	-9902
▁vecino	-9903
▁emplaz	-9904
▁capas	-9905
▁vamos	-9906
▁manio	-9907
▁armada	-9908
▁ONU	-9909
▁incons	-9910
▁Veracruz	-9911
▁viuda	-9912
ej	-9913
ansas	-9914
▁fle	-9915
▁gem	-9916
▁insectos	-9917
▁valenci	-9918
▁Guardi	-9919
▁implan	-9920
ijo	-9921
odos	-9922
▁presa	-9923
leto	-9924
▁Margarita	-9925
▁pudieran	-9926
▁Arthur	-9927
▁ideolog	-9928
▁Campeones	-9929
▁Quito	-9930
mus	-9931
ensis	-9932
▁Michel	-9933
42	-9934
▁supre	-9935
uria	-9936
▁feliz	-9937
Sal	-9938
▁Ub	-9939
▁desvi	-9940
▁paseo	-9941
▁alimento	-9942
▁Foot	-9943
lice	-9944
▁promin	-9945
▁creen	-9946
▁gratuita	-9947
▁usos	-9948
▁regla	-9949
▁pares	-9950
Ph	-9951
▁separa	-9952
asas	-9953
▁extens	-9954
▁Brook	-9955
pocas	-9956
▁trece	-9957
▁conjuntos	-9958
▁ida	-9959
▁autos	-9960
▁Raw	-9961
contin	-9962
iese	-9963
▁absoluto	-9964
▁Lleg	-9965
▁Good	-9966
▁Hidalgo	-9967
▁concesi	-9968
▁neur	-9969
▁ornam	-9970
entarios	-9971
▁Final	-9972
▁emitir	-9973
▁him	-9974
▁XVI	-9975
▁cruce	-9976
▁gravedad	-9977
▁mantienen	-9978
▁relatos	-9979
▁95	-9980
▁Montes	-9981
▁tercio	-9982
▁traje	-9983
▁inex	-9984
▁Roja	-9985
cida	-9986
▁vestido	-9987
▁Vida	-9988
▁plato	-9989
▁Falleci	-9990
tream	-9991
sur	-9992
drich	-9993
').	-9994
▁Canci	-9995
▁Post	-9996
▁vuelto	-9997
▁Mira	-9998
torce	-9999
▁expl	-10000
▁patrones	-10001
▁emitido	-10002
▁mencionar	-10003
medo	-10004
▁cortos	-10005
▁hero	-10006
▁fronter	-10007
▁Kaz	-10008
▁drag	-10009
▁elevada	-10010
thy	-10011
▁Cambridge	-10012
idaci	-10013
gy	-10014
▁marcar	-10015
▁vocalista	-10016
▁Luz	-10017
rbita	-10018
▁Lara	-10019
ather	-10020
▁imag	-10021
▁melod	-10022
▁0;	-10023
uestro	-10024
▁virtual	-10025
/19	-10026
▁armon	-10027
onamiento	-10028
tn	-10029
▁avis	-10030
▁Sof	-10031
undamente	-10032
▁159	-10033
iosos	-10034
▁Samuel	-10035
▁abol	-10036
▁sumar	-10037
▁efic	-10038
▁type	-10039
▁Kan	-10040
▁afecta	-10041
▁inyec	-10042
▁talla	-10043
▁domici	-10044
▁Inte	-10045
▁represi	-10046
ttps	-10047
▁1999.	-10048
▁doctrina	-10049
▁impuesto	-10050
▁huir	-10051
▁Vargas	-10052
▁progreso	-10053
nculo	-10054
▁Lord	-10055
▁pastor	-10056
▁glob	-10057
▁nieve	-10058
ness	-10059
▁desci	-10060
▁empu	-10061
▁Victor	-10062
▁franco	-10063
conoci	-10064
▁portal	-10065
ceres	-10066
▁indicar	-10067
ximas	-10068
▁cristiano	-10069
▁Avi	-10070
atl	-10071
izos	-10072
condado	-10073
tiza	-10074
▁Aun	-10075
▁Hom	-10076
▁asegura	-10077
▁postura	-10078
▁Evangel	-10079
iliar	-10080
▁orilla	-10081
▁cubierto	-10082
bras	-10083
▁ceb	-10084
▁Perman	-10085
▁propone	-10086
▁Indias	-10087
▁Marie	-10088
▁Muse	-10089
▁contemp	-10090
77	-10091
▁supl	-10092
▁Elena	-10093
▁console	-10094
▁paquete	-10095
▁156	-10096
▁destacada	-10097
▁mercanc	-10098
▁Cort	-10099
▁che	-10100
▁Valent	-10101
▁telef	-10102
▁Benito	-10103
▁UEFA	-10104
▁embal	-10105
nsito	-10106
▁Realiz	-10107
▁plen	-10108
▁cuidados	-10109
▁surge	-10110
▁llamarse	-10111
igual	-10112
▁meteor	-10113
▁capturado	-10114
▁Operaci	-10115
▁Eso	-10116
▁Medalla	-10117
▁ganaron	-10118
arch	-10119
▁darse	-10120
EA	-10121
▁margin	-10122
CD	-10123
uevas	-10124
▁temprano	-10125
▁arter	-10126
feo	-10127
▁Hispano	-10128
▁finalidad	-10129
▁poderoso	-10130
yd	-10131
▁Studios	-10132
▁guionista	-10133
41	-10134
ficaz	-10135
▁encargada	-10136
med	-10137
rqu	-10138
▁masac	-10139
▁Apertura	-10140
▁frutas	-10141
ivin	-10142
▁(6	-10143
▁necesito	-10144
▁Nacido	-10145
▁(,	-10146
▁colectivo	-10147
date	-10148
▁decidir	-10149
quest	-10150
▁exitoso	-10151
ede	-10152
▁cuartel	-10153
▁cuento	-10154
inosa	-10155
▁(10	-10156
▁psico	-10157
▁observaci	-10158
▁wh	-10159
▁pi	-10160
▁consola	-10161
▁imagin	-10162
▁ciudadan	-10163
osh	-10164
▁1963	-10165
▁Prado	-10166
▁Pak	-10167
▁Lewis	-10168
▁Ball	-10169
▁diarios	-10170
▁prevenir	-10171
▁rueda	-10172
▁desin	-10173
▁literario	-10174
▁Geo	-10175
▁trazado	-10176
▁sorprendi	-10177
▁jub	-10178
▁Naval	-10179
▁Tecnolog	-10180
▁rean	-10181
▁Ali	-10182
etales	-10183
fice	-10184
▁log	-10185
▁irre	-10186
▁estrech	-10187
▁recepci	-10188
▁mediterr	-10189
press	-10190
iladel	-10191
▁sof	-10192
▁1962	-10193
pher	-10194
▁vertical	-10195
▁eficaz	-10196
etts	-10197
▁Dise	-10198
▁rosa	-10199
▁Sob	-10200
▁educativo	-10201
▁sencilla	-10202
▁Power	-10203
▁minerales	-10204
▁41	-10205
▁animada	-10206
lins	-10207
▁polaco	-10208
▁Open	-10209
▁Network	-10210
ASA	-10211
▁demuestra	-10212
UU	-10213
▁Vera	-10214
▁excep	-10215
▁).	-10216
▁Servicios	-10217
▁complejos	-10218
llan	-10219
▁bicicle	-10220
▁52	-10221
▁vence	-10222
uni	-10223
▁muertes	-10224
pat	-10225
turaci	-10226
olution	-10227
dros	-10228
▁chicas	-10229
43	-10230
▁manual	-10231
icismo	-10232
▁federales	-10233
gru	-10234
▁Ll	-10235
▁futur	-10236
▁costumbre	-10237
▁casarse	-10238
rededor	-10239
▁Monter	-10240
guila	-10241
▁adquirido	-10242
itudes	-10243
▁Foro	-10244
▁Hip	-10245
▁pretende	-10246
▁Luisa	-10247
▁conducta	-10248
▁requieren	-10249
▁predeces	-10250
▁bloques	-10251
▁caliente	-10252
frac	-10253
plan	-10254
▁naz	-10255
ement	-10256
wski	-10257
ecas	-10258
rile	-10259
▁electo	-10260
▁remonta	-10261
▁enz	-10262
▁labores	-10263
hoy	-10264
▁luna	-10265
wick	-10266
▁AL	-10267
sky	-10268
▁Sigu	-10269
redientes	-10270
▁infin	-10271
▁1950,	-10272
▁pasi	-10273
▁aparecido	-10274
ierta	-10275
ificada	-10276
ize	-10277
...]	-10278
enza	-10279
▁dividida	-10280
▁Massa	-10281
utica	-10282
▁reduce	-10283
▁Toda	-10284
▁tap	-10285
▁1/	-10286
buses	-10287
▁Camino	-10288
▁orgul	-10289
▁Apol	-10290
▁Thea	-10291
hard	-10292
▁let	-10293
▁Series	-10294
▁copro	-10295
▁conecta	-10296
▁unido	-10297
▁dividir	-10298
▁Dark	-10299
▁confes	-10300
▁Hil	-10301
▁Digital	-10302
▁ans	-10303
▁card	-10304
plona	-10305
▁Tech	-10306
▁rechazo	-10307
tid	-10308
▁58	-10309
acidad	-10310
▁1941	-10311
▁Laura	-10312
▁iguales	-10313
▁Liberal	-10314
▁Barb	-10315
▁Pob	-10316
▁Reich	-10317
cleos	-10318
▁analizar	-10319
▁57	-10320
▁crecer	-10321
estado	-10322
nell	-10323
▁cedido	-10324
sy	-10325
sticamente	-10326
▁ochenta	-10327
▁blin	-10328
fu	-10329
▁planos	-10330
▁Especial	-10331
▁Film	-10332
▁Finlandia	-10333
delo	-10334
▁comprensi	-10335
pidos	-10336
viedo	-10337
▁sufrag	-10338
apar	-10339
▁ira	-10340
▁fases	-10341
ngaro	-10342
ester	-10343
apro	-10344
lyn	-10345
▁1944	-10346
▁Alic	-10347
▁polvo	-10348
nici	-10349
▁comunista	-10350
▁trabajan	-10351
Per	-10352
paz	-10353
▁Jersey	-10354
▁Armadas	-10355
▁ceremon	-10356
▁aerol	-10357
▁camar	-10358
cir	-10359
tif	-10360
▁debes	-10361
▁1958	-10362
▁distinci	-10363
▁lan	-10364
▁get	-10365
▁francesas	-10366
▁toler	-10367
atos	-10368
▁Davis	-10369
bon	-10370
▁avanzar	-10371
▁otorga	-10372
▁existir	-10373
▁singular	-10374
plica	-10375
▁Laguna	-10376
▁Pur	-10377
▁separados	-10378
▁cuerdas	-10379
▁iniciaron	-10380
▁Port	-10381
▁sexta	-10382
▁petrol	-10383
lula	-10384
▁Ortiz	-10385
▁Segundo	-10386
MI	-10387
obili	-10388
▁amante	-10389
▁convoc	-10390
▁Madre	-10391
▁Mora	-10392
tificar	-10393
▁horario	-10394
tense	-10395
▁legado	-10396
▁setenta	-10397
▁130	-10398
▁Sudam	-10399
mics	-10400
▁tall	-10401
▁usados	-10402
▁tejidos	-10403
versia	-10404
head	-10405
ndoles	-10406
▁consejos	-10407
/200	-10408
erba	-10409
inio	-10410
▁frustr	-10411
▁dato	-10412
input	-10413
▁templos	-10414
▁garant	-10415
▁Norteam	-10416
▁nazi	-10417
nticos	-10418
iff	-10419
irman	-10420
▁catedr	-10421
▁Mexicana	-10422
▁sustituci	-10423
▁Wrestling	-10424
Po	-10425
▁panor	-10426
▁Fred	-10427
▁Biblia	-10428
▁quedarse	-10429
▁Cala	-10430
']	-10431
Ca	-10432
▁Jon	-10433
▁archipi	-10434
▁retirado	-10435
▁reputaci	-10436
ete	-10437
▁pintores	-10438
ELECT	-10439
play	-10440
▁catorce	-10441
▁emplea	-10442
▁Hermandad	-10443
▁ecuator	-10444
▁Maxim	-10445
▁bille	-10446
▁cohe	-10447
eto	-10448
▁cifras	-10449
▁mont	-10450
▁espon	-10451
▁sufre	-10452
▁incre	-10453
▁Cuenca	-10454
▁Christo	-10455
▁retrato	-10456
▁relativa	-10457
▁Kra	-10458
▁abundante	-10459
▁bienestar	-10460
▁combati	-10461
▁Armen	-10462
▁incurs	-10463
▁mata	-10464
▁Squ	-10465
▁sedi	-10466
sol	-10467
elia	-10468
▁celebrada	-10469
Res	-10470
sub	-10471
▁ilegal	-10472
▁turistas	-10473
▁recuerdo	-10474
▁Canta	-10475
keting	-10476
▁MTV	-10477
CE	-10478
▁Nov	-10479
▁prestigio	-10480
▁1988,	-10481
fri	-10482
▁ministros	-10483
Sa	-10484
▁sobresal	-10485
▁iluminaci	-10486
▁arbi	-10487
Text	-10488
duras	-10489
▁variantes	-10490
▁Kon	-10491
▁eficiente	-10492
96	-10493
urrecci	-10494
55	-10495
▁fri	-10496
▁ret	-10497
▁Crea	-10498
▁tablas	-10499
▁tratados	-10500
▁Elizabeth	-10501
entando	-10502
▁evangel	-10503
▁Lle	-10504
▁Wolf	-10505
▁reunir	-10506
ucci	-10507
▁Pho	-10508
▁rector	-10509
▁Carlo	-10510
▁Bang	-10511
▁Bernard	-10512
Or	-10513
clip	-10514
▁maneras	-10515
▁copa	-10516
quie	-10517
ython	-10518
▁Paris	-10519
▁delim	-10520
▁abaste	-10521
▁fila	-10522
▁cruzar	-10523
▁arreglo	-10524
▁Nel	-10525
}{	-10526
▁1948	-10527
▁Madonna	-10528
▁modificar	-10529
teto	-10530
blicamente	-10531
omor	-10532
▁1980.	-10533
tusias	-10534
▁esquema	-10535
▁decidido	-10536
▁Sher	-10537
▁rotaci	-10538
▁Tob	-10539
▁1986,	-10540
▁rodeado	-10541
▁Bartolom	-10542
▁modos	-10543
▁simil	-10544
iten	-10545
cat	-10546
ione	-10547
▁comis	-10548
onato	-10549
▁cuch	-10550
▁adquier	-10551
LE	-10552
▁Ri	-10553
actual	-10554
97	-10555
Ins	-10556
▁santuario	-10557
andos	-10558
▁Stephen	-10559
▁56	-10560
cientos	-10561
▁Alicante	-10562
▁caudal	-10563
▁filos	-10564
fran	-10565
▁Mars	-10566
▁huelga	-10567
▁Benjam	-10568
▁Shin	-10569
▁Fondo	-10570
onesia	-10571
▁Ele	-10572
▁Colorado	-10573
alupe	-10574
▁metodo	-10575
traci	-10576
▁platos	-10577
▁barroco	-10578
▁conversi	-10579
▁valles	-10580
▁hechas	-10581
gend	-10582
▁concur	-10583
rillos	-10584
▁escar	-10585
-12	-10586
tipos	-10587
▁Germ	-10588
▁conmemora	-10589
▁comando	-10590
▁Simp	-10591
▁Rin	-10592
▁gigantes	-10593
▁creer	-10594
▁impedir	-10595
▁descrip	-10596
▁hispano	-10597
▁internos	-10598
cili	-10599
▁sop	-10600
▁peruana	-10601
▁tanques	-10602
▁Dolores	-10603
▁Giovanni	-10604
▁asociada	-10605
▁Claudio	-10606
cionan	-10607
▁Recibi	-10608
vard	-10609
▁quiso	-10610
▁quieren	-10611
▁2025	-10612
▁Medell	-10613
▁suelos	-10614
izando	-10615
▁adju	-10616
▁Lisboa	-10617
▁detectar	-10618
▁Boca	-10619
dere	-10620
▁mantenido	-10621
etti	-10622
▁propon	-10623
▁degrad	-10624
piro	-10625
▁ascendido	-10626
▁denuncia	-10627
micamente	-10628
▁incorpora	-10629
▁vs	-10630
tillos	-10631
▁Champion	-10632
▁inclusi	-10633
vento	-10634
▁hembras	-10635
++	-10636
▁Carre	-10637
unales	-10638
▁Fol	-10639
▁Antio	-10640
▁dominante	-10641
▁Forma	-10642
▁(193	-10643
▁dispuesto	-10644
▁ambici	-10645
▁Represent	-10646
▁Mauricio	-10647
▁exploraci	-10648
▁expresa	-10649
▁Florencia	-10650
iblemente	-10651
ding	-10652
ecut	-10653
▁dibuj	-10654
▁atractivo	-10655
▁sublev	-10656
▁segmento	-10657
▁1982,	-10658
▁SE	-10659
▁Turismo	-10660
▁maestra	-10661
▁genes	-10662
▁dirigente	-10663
itaron	-10664
glo	-10665
▁convocado	-10666
cusi	-10667
▁apres	-10668
▁nieto	-10669
grada	-10670
copa	-10671
▁externa	-10672
▁instalar	-10673
▁q	-10674
▁casada	-10675
▁PD	-10676
AB	-10677
▁inus	-10678
▁traer	-10679
ision	-10680
▁ruptura	-10681
▁Dream	-10682
▁humedad	-10683
ejo	-10684
▁aver	-10685
▁Beat	-10686
▁Sex	-10687
▁Road	-10688
▁Arro	-10689
▁piensa	-10690
▁Alc	-10691
▁cueva	-10692
▁destruido	-10693
obo	-10694
▁Warner	-10695
▁ine	-10696
▁asedio	-10697
▁continuo	-10698
▁entusias	-10699
▁Azul	-10700
udos	-10701
▁detenidos	-10702
gener	-10703
▁Saj	-10704
▁1961	-10705
▁1985,	-10706
▁Paran	-10707
▁gases	-10708
tish	-10709
▁reivin	-10710
gor	-10711
▁Conserv	-10712
▁incu	-10713
▁Caballero	-10714
▁Ci	-10715
▁giras	-10716
tedra	-10717
▁criterios	-10718
▁else	-10719
▁repos	-10720
▁misiles	-10721
led	-10722
▁creencias	-10723
▁humanas	-10724
▁rivales	-10725
▁Berg	-10726
ett	-10727
▁dim	-10728
▁Electoral	-10729
▁".	-10730
▁carg	-10731
▁Ker	-10732
ligencia	-10733
▁(8	-10734
▁1942	-10735
▁1987,	-10736
▁detenci	-10737
econ	-10738
▁procede	-10739
untry	-10740
▁responde	-10741
▁140	-10742
▁sistem	-10743
▁monitor	-10744
▁entera	-10745
▁Templo	-10746
▁referente	-10747
rik	-10748
▁vivos	-10749
▁jugue	-10750
▁machos	-10751
▁verti	-10752
▁prosper	-10753
▁Ramos	-10754
▁operar	-10755
▁residu	-10756
eller	-10757
tizada	-10758
0)	-10759
▁inj	-10760
▁Occidente	-10761
▁aparato	-10762
▁creencia	-10763
lao	-10764
cima	-10765
▁lujo	-10766
ced	-10767
▁alegr	-10768
▁Antiguo	-10769
▁Juli	-10770
▁Oviedo	-10771
onaria	-10772
▁codific	-10773
▁Pav	-10774
▁Mana	-10775
▁1946	-10776
inato	-10777
▁camin	-10778
ndares	-10779
▁comenzado	-10780
ierras	-10781
▁segura	-10782
▁Dam	-10783
▁magistr	-10784
▁1956	-10785
▁Infanter	-10786
gaci	-10787
▁Fiscal	-10788
▁extender	-10789
asia	-10790
▁Guadalupe	-10791
▁Alba	-10792
▁Kevin	-10793
▁magia	-10794
▁negras	-10795
▁Reforma	-10796
▁obst	-10797
▁compuso	-10798
▁Peters	-10799
▁exhibici	-10800
▁expecta	-10801
mm	-10802
▁campus	-10803
Ro	-10804
▁asesino	-10805
copio	-10806
▁laguna	-10807
aver	-10808
▁1998.	-10809
▁aque	-10810
▁1983,	-10811
▁pian	-10812
onista	-10813
▁700	-10814
▁amenazas	-10815
teur	-10816
▁osci	-10817
IO	-10818
▁bl	-10819
garia	-10820
▁ampliar	-10821
▁Metal	-10822
php	-10823
▁1937	-10824
rales	-10825
▁1957	-10826
▁conducci	-10827
▁Hur	-10828
inarias	-10829
Ad	-10830
▁porte	-10831
wen	-10832
▁alumno	-10833
tarlo	-10834
Sh	-10835
▁trato	-10836
▁Guy	-10837
▁redi	-10838
▁Bruce	-10839
▁abandono	-10840
▁atribuye	-10841
▁Brus	-10842
uertos	-10843
▁oral	-10844
naval	-10845
▁biograf	-10846
▁Adolfo	-10847
rabia	-10848
▁arroyo	-10849
▁desea	-10850
tah	-10851
▁llamaba	-10852
tie	-10853
▁embarazo	-10854
▁camiseta	-10855
tricos	-10856
▁virrey	-10857
▁ances	-10858
▁alfabe	-10859
▁asignado	-10860
▁iniciado	-10861
▁1959	-10862
istido	-10863
▁fotogr	-10864
▁visitante	-10865
▁queso	-10866
▁conviv	-10867
▁placas	-10868
▁2025,	-10869
▁capturar	-10870
stos	-10871
▁liberado	-10872
▁modernas	-10873
▁consejero	-10874
▁FIFA	-10875
▁tarjetas	-10876
▁masiva	-10877
tarias	-10878
▁Emil	-10879
▁Shak	-10880
▁Hizo	-10881
▁ricos	-10882
▁editado	-10883
trieved	-10884
CH	-10885
▁Estuvo	-10886
▁antrop	-10887
omp	-10888
▁pendiente	-10889
▁insign	-10890
▁flora	-10891
▁reflex	-10892
▁echo	-10893
town	-10894
user	-10895
▁ocupada	-10896
▁aprobada	-10897
▁regulares	-10898
▁disca	-10899
chusetts	-10900
▁congreso	-10901
▁elogi	-10902
quisi	-10903
▁extrema	-10904
20,	-10905
▁Pamplona	-10906
▁agrad	-10907
▁UFC	-10908
worth	-10909
▁Campos	-10910
▁moles	-10911
▁signos	-10912
▁Borb	-10913
▁policial	-10914
▁12,	-10915
▁Calder	-10916
▁Gall	-10917
▁consigo	-10918
▁chico	-10919
▁1931	-10920
▁intensa	-10921
▁declarada	-10922
▁ejecut	-10923
▁facilidad	-10924
▁Clara	-10925
rma	-10926
▁mineral	-10927
▁ape	-10928
▁Tucum	-10929
▁167	-10930
▁Kid	-10931
▁Exper	-10932
▁dividi	-10933
critos	-10934
iental	-10935
▁1943	-10936
▁1955	-10937
▁ventajas	-10938
▁refiri	-10939
ashi	-10940
lema	-10941
sofo	-10942
Di	-10943
grafos	-10944
▁aceptaci	-10945
▁Velas	-10946
▁explicaci	-10947
▁licenci	-10948
rat	-10949
adic	-10950
▁definido	-10951
▁insufici	-10952
▁reduc	-10953
▁distinto	-10954
▁bancar	-10955
▁testigo	-10956
jug	-10957
▁Guinea	-10958
▁conforme	-10959
trado	-10960
▁tubo	-10961
tebr	-10962
▁Obras	-10963
▁divis	-10964
berto	-10965
▁Coraz	-10966
▁sangu	-10967
▁condena	-10968
▁folcl	-10969
▁dispers	-10970
▁alemanas	-10971
▁logros	-10972
▁vigente	-10973
▁CE	-10974
▁trasera	-10975
▁triste	-10976
▁Mallorca	-10977
terno	-10978
Cl	-10979
ali	-10980
▁68	-10981
▁Reserva	-10982
▁aconse	-10983
cita	-10984
▁porci	-10985
▁125	-10986
▁orques	-10987
IR	-10988
ager	-10989
lot	-10990
▁Eng	-10991
▁Uri	-10992
▁inhib	-10993
▁molec	-10994
▁hisp	-10995
▁Bet	-10996
▁Hero	-10997
▁mari	-10998
▁Tenerife	-10999
presiden	-11000
▁nub	-11001
▁Fantas	-11002
▁Douglas	-11003
▁turb	-11004
andy	-11005
iembro	-11006
▁Dead	-11007
▁alz	-11008
▁Corri	-11009
camiento	-11010
▁Manz	-11011
▁trajo	-11012
▁(7	-11013
▁formaba	-11014
▁diagnos	-11015
scara	-11016
▁gato	-11017
adido	-11018
▁false	-11019
▁fortuna	-11020
▁defici	-11021
▁presidi	-11022
▁escasa	-11023
▁hem	-11024
▁auge	-11025
▁devolver	-11026
▁1938	-11027
wig	-11028
▁12.	-11029
▁playas	-11030
▁54	-11031
valo	-11032
UM	-11033
▁reinos	-11034
▁asim	-11035
▁despl	-11036
92	-11037
▁med	-11038
▁Valpara	-11039
▁delegaci	-11040
▁March	-11041
▁voy	-11042
▁51	-11043
▁derivados	-11044
▁Gian	-11045
tine	-11046
▁Continu	-11047
▁encarga	-11048
▁Marc	-11049
▁vieja	-11050
▁racional	-11051
▁Perio	-11052
tinopla	-11053
▁Kam	-11054
▁mitolog	-11055
▁Nombre	-11056
▁ciudadano	-11057
▁Galer	-11058
dura	-11059
▁Fis	-11060
ndalo	-11061
▁ayer	-11062
▁aero	-11063
▁Justo	-11064
▁afectar	-11065
▁guardia	-11066
▁Letras	-11067
▁ef	-11068
▁Ceci	-11069
ineros	-11070
abo	-11071
▁sirven	-11072
▁inmue	-11073
▁comparti	-11074
▁frontal	-11075
▁directiva	-11076
▁cartu	-11077
dicion	-11078
▁1933	-11079
▁Agua	-11080
entenario	-11081
doro	-11082
▁Cic	-11083
▁1940,	-11084
illera	-11085
▁Little	-11086
▁interro	-11087
uelva	-11088
rand	-11089
▁recoge	-11090
dif	-11091
▁fos	-11092
▁Som	-11093
ights	-11094
picas	-11095
▁fisc	-11096
▁bolsa	-11097
▁roj	-11098
▁enviados	-11099
▁patriar	-11100
▁adyac	-11101
▁positivas	-11102
▁11.	-11103
cap	-11104
▁basadas	-11105
▁afectados	-11106
▁prohibici	-11107
▁invent	-11108
▁Serbia	-11109
UP	-11110
▁asamblea	-11111
▁viviendo	-11112
▁Abd	-11113
rculos	-11114
▁1984,	-11115
▁[...]	-11116
vial	-11117
▁Archivo	-11118
▁Frie	-11119
alado	-11120
tonia	-11121
▁vegetales	-11122
ierte	-11123
irst	-11124
▁procur	-11125
▁Miller	-11126
▁afueras	-11127
tienda	-11128
▁1930,	-11129
▁cerrada	-11130
parti	-11131
▁Mateo	-11132
ondas	-11133
▁especta	-11134
▁intenso	-11135
omun	-11136
▁luces	-11137
▁Sociales	-11138
▁Yuca	-11139
▁ines	-11140
▁declara	-11141
▁plantilla	-11142
▁PSOE	-11143
vey	-11144
▁avanzada	-11145
ayas	-11146
▁Argel	-11147
▁buscan	-11148
▁Matt	-11149
▁delic	-11150
cratas	-11151
▁solicitar	-11152
▁Rose	-11153
▁1973,	-11154
▁1979,	-11155
▁Parte	-11156
▁sueco	-11157
▁back	-11158
▁Lang	-11159
▁Brigada	-11160
▁oscur	-11161
▁--	-11162
ambi	-11163
▁toros	-11164
▁suyo	-11165
▁Amp	-11166
bricas	-11167
asis	-11168
▁Rum	-11169
▁Russ	-11170
▁Siempre	-11171
tamos	-11172
▁Fire	-11173
▁Nad	-11174
▁joy	-11175
▁1997.	-11176
▁enmar	-11177
▁inters	-11178
▁tos	-11179
▁ame	-11180
▁contamin	-11181
Cor	-11182
▁mur	-11183
▁Coru	-11184
▁Gord	-11185
▁concejo	-11186
talia	-11187
mundo	-11188
IG	-11189
▁poniendo	-11190
▁cav	-11191
▁tramos	-11192
CC	-11193
bach	-11194
ika	-11195
wich	-11196
▁indirec	-11197
▁resultar	-11198
▁Lago	-11199
nio	-11200
minas	-11201
▁Pino	-11202
▁Rap	-11203
▁mexicanos	-11204
▁1947	-11205
▁noches	-11206
rell	-11207
nova	-11208
▁Juventud	-11209
▁Marta	-11210
vestre	-11211
TML	-11212
▁naranja	-11213
ptico	-11214
▁pisto	-11215
▁dimensi	-11216
rro	-11217
▁Chur	-11218
ink	-11219
▁asientos	-11220
▁Amar	-11221
▁descarga	-11222
utiliz	-11223
▁Andrew	-11224
▁fieles	-11225
▁celebran	-11226
▁Magn	-11227
mulo	-11228
▁Morris	-11229
▁cumbre	-11230
guirre	-11231
▁clandes	-11232
▁Carol	-11233
▁innovaci	-11234
aldo	-11235
▁Oliv	-11236
pool	-11237
▁patas	-11238
test	-11239
igg	-11240
ombres	-11241
▁name	-11242
▁Estaba	-11243
▁silencio	-11244
▁sabemos	-11245
▁bombas	-11246
▁Llo	-11247
encial	-11248
ganist	-11249
▁recre	-11250
▁impuso	-11251
▁sombra	-11252
/1	-11253
ose	-11254
-197	-11255
▁166	-11256
He	-11257
incu	-11258
▁violaci	-11259
▁Blas	-11260
▁Feria	-11261
▁cartel	-11262
▁sustituir	-11263
inois	-11264
▁internas	-11265
▁(188	-11266
▁redujo	-11267
▁certamen	-11268
HP	-11269
▁suministr	-11270
toriales	-11271
▁seguida	-11272
ells	-11273
▁contratos	-11274
cilio	-11275
▁interfaz	-11276
▁viajeros	-11277
▁criminal	-11278
▁cama	-11279
▁latina	-11280
▁fortific	-11281
▁ordenador	-11282
▁jueces	-11283
▁mediano	-11284
▁llaman	-11285
▁medias	-11286
ute	-11287
▁1996.	-11288
▁futura	-11289
%)	-11290
▁legend	-11291
mentaci	-11292
▁apoder	-11293
▁contactos	-11294
▁gor	-11295
▁2-1	-11296
▁Lyn	-11297
▁escritas	-11298
▁2022.	-11299
▁puentes	-11300
▁vib	-11301
▁inoc	-11302
▁Ces	-11303
▁fallo	-11304
ctricos	-11305
▁limpieza	-11306
▁contando	-11307
▁anuncia	-11308
tez	-11309
▁abstr	-11310
▁Velasco	-11311
▁desconoce	-11312
sider	-11313
▁masco	-11314
▁giro	-11315
▁evaluar	-11316
eira	-11317
quierda	-11318
▁redacci	-11319
oleta	-11320
▁chicos	-11321
▁Ton	-11322
▁tumb	-11323
▁gimnas	-11324
▁actuando	-11325
▁aeronave	-11326
▁reen	-11327
xis	-11328
▁conforman	-11329
Pe	-11330
bl	-11331
dro	-11332
▁Apro	-11333
lebre	-11334
▁migra	-11335
off	-11336
cilla	-11337
▁1978,	-11338
▁coopera	-11339
tosa	-11340
▁tripul	-11341
▁favorable	-11342
▁Amor	-11343
▁Ras	-11344
▁periodos	-11345
tentr	-11346
ecto	-11347
▁Cant	-11348
▁destinada	-11349
▁Bank	-11350
▁armados	-11351
▁mostrando	-11352
lculos	-11353
▁gerente	-11354
:30	-11355
▁resid	-11356
▁Maestro	-11357
▁Eva	-11358
▁Football	-11359
loga	-11360
▁Diputaci	-11361
▁destruc	-11362
trio	-11363
▁NBA	-11364
▁Brad	-11365
▁reelec	-11366
▁admiti	-11367
▁tabl	-11368
▁Howard	-11369
▁venganza	-11370
olv	-11371
▁Pilar	-11372
▁descom	-11373
aw	-11374
▁activista	-11375
▁quis	-11376
▁Allen	-11377
▁crece	-11378
▁armen	-11379
▁exili	-11380
▁poses	-11381
▁contener	-11382
▁Americana	-11383
...)	-11384
▁Ejemp	-11385
▁XIV	-11386
▁contrajo	-11387
▁ligero	-11388
▁buscaba	-11389
▁proyecci	-11390
eland	-11391
voc	-11392
tigu	-11393
ays	-11394
▁apoyado	-11395
▁vali	-11396
▁Duque	-11397
▁relevante	-11398
▁congel	-11399
▁bara	-11400
▁Bav	-11401
esen	-11402
▁into	-11403
▁Afganist	-11404
laza	-11405
▁subsi	-11406
urne	-11407
▁parques	-11408
▁sucesos	-11409
Men	-11410
▁hablan	-11411
jed	-11412
▁sinte	-11413
▁obispos	-11414
▁epi	-11415
▁accion	-11416
sis	-11417
bria	-11418
▁emisora	-11419
▁1929	-11420
▁dama	-11421
▁madrile	-11422
▁Wall	-11423
▁Has	-11424
▁misa	-11425
▁rara	-11426
▁Anderson	-11427
▁uruguayo	-11428
▁toca	-11429
▁Banda	-11430
▁agricul	-11431
▁separadas	-11432
▁Bros	-11433
▁trigo	-11434
▁visu	-11435
▁lento	-11436
dromo	-11437
▁levantar	-11438
sor	-11439
▁revuelta	-11440
▁Arque	-11441
▁vener	-11442
▁Pues	-11443
▁octavo	-11444
▁instalado	-11445
▁cuerda	-11446
▁Ortega	-11447
▁desembar	-11448
seg	-11449
▁Abra	-11450
▁fech	-11451
▁comentar	-11452
▁Lady	-11453
▁exclusiva	-11454
▁78	-11455
▁primar	-11456
▁Clark	-11457
▁exceso	-11458
uana	-11459
▁Monumento	-11460
acciones	-11461
▁1949	-11462
▁1952	-11463
▁cabezas	-11464
▁Comand	-11465
▁divorci	-11466
▁antic	-11467
▁Anterior	-11468
▁extracci	-11469
▁true	-11470
▁Boys	-11471
▁1954	-11472
cidencia	-11473
▁Cru	-11474
▁1994.	-11475
tumb	-11476
dimiento	-11477
▁Base	-11478
tines	-11479
our	-11480
▁dinosa	-11481
▁subespeci	-11482
▁atraer	-11483
▁Marcelo	-11484
uba	-11485
▁cajas	-11486
▁const	-11487
▁respaldo	-11488
▁Yucat	-11489
▁ganadora	-11490
▁Gun	-11491
▁ladrillo	-11492
▁tasas	-11493
▁cumplea	-11494
fasis	-11495
ensor	-11496
▁paraguay	-11497
▁Leo	-11498
▁Jimmy	-11499
▁hurac	-11500
▁expulsi	-11501
▁Toronto	-11502
▁realista	-11503
▁conservar	-11504
▁eros	-11505
▁Johnny	-11506
▁Roca	-11507
pto	-11508
urios	-11509
▁agro	-11510
▁Alf	-11511
nfasis	-11512
▁encer	-11513
▁islam	-11514
▁variaci	-11515
▁alb	-11516
tricas	-11517
def	-11518
▁guardar	-11519
rgenes	-11520
▁recolec	-11521
Que	-11522
▁ganancias	-11523
▁defensor	-11524
!,	-11525
▁72	-11526
▁Palestina	-11527
▁beca	-11528
▁rebotes	-11529
▁autobuses	-11530
hou	-11531
▁1976,	-11532
▁Gi	-11533
▁Laur	-11534
▁1945,	-11535
▁autora	-11536
▁Barrio	-11537
Is	-11538
house	-11539
▁Trump	-11540
▁causado	-11541
▁atraviesa	-11542
▁Cup	-11543
▁atentado	-11544
▁afirmando	-11545
alan	-11546
▁lectores	-11547
▁chocola	-11548
▁vuelven	-11549
versi	-11550
▁Dicho	-11551
rum	-11552
▁Sound	-11553
▁conjunta	-11554
▁facultad	-11555
▁hormig	-11556
▁inflam	-11557
EE	-11558
▁Jacques	-11559
▁dedicarse	-11560
▁sustancia	-11561
oll	-11562
▁deciden	-11563
tyle	-11564
jano	-11565
▁adoptar	-11566
▁culpa	-11567
▁Muy	-11568
▁lema	-11569
▁State	-11570
▁Mam	-11571
▁intes	-11572
▁Opera	-11573
gazine	-11574
▁lien	-11575
▁Cis	-11576
▁Hace	-11577
uyendo	-11578
▁1953	-11579
▁1970.	-11580
▁Posee	-11581
zca	-11582
▁neum	-11583
▁colaborar	-11584
▁1934	-11585
diciales	-11586
▁sult	-11587
pot	-11588
▁Mancha	-11589
lov	-11590
▁URSS	-11591
▁oscura	-11592
▁Superman	-11593
▁juntas	-11594
rent	-11595
▁panel	-11596
▁espar	-11597
▁bacterias	-11598
▁psi	-11599
▁otomano	-11600
▁Friedrich	-11601
▁inmigraci	-11602
esor	-11603
▁Im	-11604
▁inmediata	-11605
▁distinta	-11606
▁feste	-11607
▁66	-11608
▁manifest	-11609
▁Audiencia	-11610
▁Meta	-11611
uston	-11612
Element	-11613
▁Ambas	-11614
▁instrucci	-11615
onio	-11616
bida	-11617
ezca	-11618
Th	-11619
▁afron	-11620
▁Sicilia	-11621
▁reflej	-11622
PN	-11623
▁53	-11624
▁Podemos	-11625
▁portavoz	-11626
▁1995.	-11627
▁Sep	-11628
▁invitada	-11629
erson	-11630
▁Band	-11631
▁Orle	-11632
▁aliado	-11633
▁prototipo	-11634
▁pecul	-11635
jidad	-11636
▁Mit	-11637
▁cubano	-11638
▁1932	-11639
▁marino	-11640
▁eco	-11641
▁testigos	-11642
▁convencer	-11643
▁Utiliz	-11644
▁parada	-11645
▁Noti	-11646
▁insta	-11647
▁Zh	-11648
hue	-11649
▁ant	-11650
earch	-11651
▁comparte	-11652
▁porno	-11653
▁selva	-11654
▁Belg	-11655
▁FROM	-11656
▁paisajes	-11657
▁Rioja	-11658
▁Ref	-11659
▁Cabrera	-11660
▁Isidro	-11661
uld	-11662
▁integrar	-11663
▁gui	-11664
▁abuela	-11665
▁Bry	-11666
ctricas	-11667
▁eru	-11668
▁localiz	-11669
▁esqu	-11670
▁CF	-11671
▁Pit	-11672
idth	-11673
▁marcada	-11674
▁Academ	-11675
▁escalera	-11676
▁Yugosla	-11677
RC	-11678
▁Gue	-11679
▁1928	-11680
▁Global	-11681
▁Oli	-11682
▁Jona	-11683
vina	-11684
▁nominado	-11685
▁explorar	-11686
▁ordenado	-11687
tento	-11688
▁recorrer	-11689
lah	-11690
ct	-11691
▁1910	-11692
▁Paral	-11693
▁Siendo	-11694
▁puls	-11695
▁rompi	-11696
dicto	-11697
ui	-11698
▁Publ	-11699
vida	-11700
▁Buen	-11701
▁metales	-11702
acete	-11703
▁receptor	-11704
▁110	-11705
▁3:	-11706
▁albergar	-11707
▁Puerta	-11708
▁Francesa	-11709
▁anticip	-11710
▁Leonardo	-11711
▁austria	-11712
desde	-11713
▁derru	-11714
▁1975,	-11715
▁mira	-11716
▁Cient	-11717
▁causando	-11718
▁Toma	-11719
▁signo	-11720
▁potencias	-11721
▁renunciar	-11722
▁toman	-11723
▁Equi	-11724
▁Grammy	-11725
▁$1	-11726
▁curi	-11727
▁Institute	-11728
▁gua	-11729
cepti	-11730
▁1500	-11731
alth	-11732
▁XIX	-11733
▁gustar	-11734
guerra	-11735
dulo	-11736
▁regulaci	-11737
▁dirigidos	-11738
▁obligados	-11739
▁Jud	-11740
▁colina	-11741
▁Wel	-11742
▁sorpren	-11743
▁Andrea	-11744
▁Science	-11745
emia	-11746
▁model	-11747
terapia	-11748
Cons	-11749
▁Monterrey	-11750
lites	-11751
▁Prom	-11752
▁Alfred	-11753
▁triple	-11754
▁quebr	-11755
ibil	-11756
▁pez	-11757
▁Donald	-11758
html	-11759
riz	-11760
▁Home	-11761
tch	-11762
iley	-11763
▁decora	-11764
jillo	-11765
▁CS	-11766
▁Meg	-11767
▁encuesta	-11768
▁Dick	-11769
sburgo	-11770
▁End	-11771
▁Premier	-11772
DS	-11773
sped	-11774
▁feria	-11775
▁Prusia	-11776
▁Spring	-11777
▁materias	-11778
▁turco	-11779
timos	-11780
▁prevenci	-11781
▁hambre	-11782
▁Simpson	-11783
▁Punta	-11784
▁sever	-11785
illano	-11786
rprete	-11787
▁Fle	-11788
▁Sav	-11789
rbi	-11790
inada	-11791
▁Mari	-11792
ENT	-11793
▁desenca	-11794
▁respira	-11795
kan	-11796
▁reflexi	-11797
▁costar	-11798
▁enrique	-11799
anca	-11800
sex	-11801
▁fundar	-11802
▁pusieron	-11803
93	-11804
▁cantantes	-11805
iosas	-11806
▁influenci	-11807
▁Nat	-11808
feld	-11809
▁ubicados	-11810
oria	-11811
▁Marsh	-11812
▁cambiando	-11813
rador	-11814
▁cres	-11815
▁foro	-11816
baco	-11817
▁11,	-11818
▁Bag	-11819
▁robo	-11820
▁Beach	-11821
▁Ryan	-11822
urado	-11823
▁apel	-11824
▁Nelson	-11825
▁Dio	-11826
▁Museum	-11827
▁nombrar	-11828
▁toque	-11829
▁1900	-11830
VA	-11831
▁discur	-11832
iler	-11833
yes	-11834
▁liderado	-11835
ndum	-11836
taro	-11837
Ver	-11838
▁seguros	-11839
▁Encuen	-11840
govia	-11841
▁Sea	-11842
▁ocurrir	-11843
▁encargo	-11844
▁Retrieved	-11845
cala	-11846
▁Sas	-11847
▁condesa	-11848
picamente	-11849
▁mostrado	-11850
▁Conce	-11851
▁Universo	-11852
illy	-11853
▁Navarro	-11854
▁pacto	-11855
genos	-11856
▁Golfo	-11857
▁aviaci	-11858
▁1935	-11859
▁corredor	-11860
vita	-11861
▁Tos	-11862
▁1918	-11863
iba	-11864
▁hablando	-11865
▁anch	-11866
▁FA	-11867
asco	-11868
ecida	-11869
▁trage	-11870
▁Clausura	-11871
▁anfi	-11872
reak	-11873
▁153	-11874
▁Integr	-11875
bell	-11876
▁Buda	-11877
▁clan	-11878
▁habido	-11879
abil	-11880
▁maestr	-11881
▁Jay	-11882
▁Ace	-11883
rys	-11884
▁Kat	-11885
IF	-11886
▁1992.	-11887
▁vita	-11888
▁humil	-11889
dney	-11890
▁Christ	-11891
▁volar	-11892
▁polar	-11893
▁Morgan	-11894
pie	-11895
▁Vice	-11896
▁pasada	-11897
▁residuos	-11898
▁manzana	-11899
▁perf	-11900
▁coloca	-11901
rugada	-11902
▁HD	-11903
▁recuerdos	-11904
▁atracci	-11905
▁cintur	-11906
▁ideol	-11907
▁museos	-11908
ree	-11909
▁tuviera	-11910
▁Stal	-11911
▁logro	-11912
▁litros	-11913
▁Destac	-11914
cesi	-11915
▁abuso	-11916
▁compor	-11917
▁Vegas	-11918
▁Sede	-11919
▁88	-11920
▁congres	-11921
▁Xbox	-11922
▁niega	-11923
▁esperando	-11924
▁franja	-11925
▁elaborado	-11926
▁mundiales	-11927
Na	-11928
▁Antigua	-11929
▁Nep	-11930
▁evolucion	-11931
▁UC	-11932
▁!	-11933
▁aliv	-11934
▁despa	-11935
▁psicolog	-11936
baci	-11937
▁},	-11938
▁disparo	-11939
▁pesc	-11940
▁afectado	-11941
egro	-11942
entaron	-11943
▁piernas	-11944
gunas	-11945
▁desigual	-11946
▁Harvard	-11947
indo	-11948
▁3000	-11949
▁espor	-11950
▁recoger	-11951
▁Regres	-11952
rse	-11953
▁asume	-11954
▁manejar	-11955
ox	-11956
▁lagos	-11957
▁online	-11958
ayaquil	-11959
script	-11960
▁Formaci	-11961
▁00	-11962
▁oriente	-11963
▁inser	-11964
▁adoptado	-11965
dle	-11966
▁demogr	-11967
▁receta	-11968
▁Anthony	-11969
▁algoritmo	-11970
▁muralla	-11971
feras	-11972
▁inesper	-11973
▁Belgrano	-11974
';	-11975
▁disper	-11976
▁dobles	-11977
▁corteza	-11978
▁Alrededor	-11979
▁Arc	-11980
▁unen	-11981
▁comparten	-11982
▁guarnici	-11983
▁Bruselas	-11984
▁concepci	-11985
ichi	-11986
▁1981,	-11987
▁atender	-11988
▁$(	-11989
▁fija	-11990
▁Familia	-11991
▁pabell	-11992
▁medallas	-11993
ecieron	-11994
▁bloqueo	-11995
▁conectar	-11996
▁reanud	-11997
▁improvis	-11998
▁escuadr	-11999
▁fum	-12000
▁Kor	-12001
rgica	-12002
▁lector	-12003
▁ocupando	-12004
TAN	-12005
tore	-12006
▁separada	-12007
inde	-12008
umer	-12009
▁aristo	-12010
arcas	-12011
lava	-12012
▁bajista	-12013
▁almac	-12014
▁residi	-12015
GT	-12016
imi	-12017
▁escuadra	-12018
▁Humb	-12019
▁aceptado	-12020
▁().	-12021
mberg	-12022
▁pudiendo	-12023
▁Soc	-12024
▁Bull	-12025
▁1991.	-12026
▁precurs	-12027
▁etiqueta	-12028
peras	-12029
▁ment	-12030
▁localiza	-12031
ils	-12032
▁lun	-12033
▁Ohio	-12034
ordenadas	-12035
▁comprobar	-12036
▁fug	-12037
▁herb	-12038
▁estabil	-12039
▁1920,	-12040
▁Emperador	-12041
▁enfa	-12042
alismo	-12043
Ba	-12044
▁13,	-12045
▁Rolling	-12046
▁Lie	-12047
▁urbanos	-12048
eth	-12049
dillo	-12050
hire	-12051
▁Guan	-12052
▁Nobel	-12053
▁liberar	-12054
▁(2000	-12055
▁censura	-12056
▁nominaci	-12057
iers	-12058
icon	-12059
pata	-12060
gros	-12061
peta	-12062
▁utilidad	-12063
Cam	-12064
▁Thor	-12065
▁destruida	-12066
▁Jacob	-12067
▁Shang	-12068
▁finca	-12069
▁tuber	-12070
▁equ	-12071
FL	-12072
▁armadas	-12073
▁hacienda	-12074
▁Declar	-12075
▁grad	-12076
▁emigr	-12077
▁pelota	-12078
▁surgieron	-12079
wart	-12080
▁Tin	-12081
94	-12082
▁pav	-12083
▁Jason	-12084
▁Soto	-12085
▁disparos	-12086
▁enlaces	-12087
▁Protecci	-12088
▁situados	-12089
▁Moore	-12090
▁Video	-12091
▁quedaba	-12092
▁Old	-12093
▁gratis	-12094
▁Hir	-12095
▁autob	-12096
▁Anto	-12097
rc	-12098
sterdam	-12099
ufac	-12100
▁hueso	-12101
▁Orleans	-12102
queta	-12103
▁Alas	-12104
▁negativo	-12105
anger	-12106
▁incur	-12107
▁Pakist	-12108
▁potente	-12109
▁disminuir	-12110
▁campan	-12111
idaridad	-12112
▁ayudante	-12113
▁1974,	-12114
▁Pron	-12115
▁Julia	-12116
▁Sarah	-12117
▁predi	-12118
▁salario	-12119
zano	-12120
▁Respuesta	-12121
zgo	-12122
▁apodo	-12123
renta	-12124
▁Recon	-12125
nculos	-12126
▁accedi	-12127
▁exportaci	-12128
▁sp	-12129
▁USA	-12130
▁arrestado	-12131
UD	-12132
ury	-12133
▁cerebral	-12134
value	-12135
▁jugado	-12136
uario	-12137
▁ende	-12138
▁Perten	-12139
▁adulto	-12140
▁repetir	-12141
▁santa	-12142
▁Aga	-12143
▁emocional	-12144
edia	-12145
imar	-12146
▁geom	-12147
▁1977,	-12148
gie	-12149
▁Carrera	-12150
ceas	-12151
▁reglam	-12152
▁Bulgaria	-12153
▁escap	-12154
▁terapia	-12155
▁Dicha	-12156
▁varones	-12157
▁Dragon	-12158
▁Hierro	-12159
bera	-12160
▁Sul	-12161
▁Henri	-12162
▁combina	-12163
▁fibra	-12164
▁luchas	-12165
▁1924	-12166
▁Taiw	-12167
▁1919	-12168
▁rever	-12169
▁reto	-12170
▁1917	-12171
▁pregunt	-12172
▁rumores	-12173
▁1914	-12174
▁retratos	-12175
▁Sajonia	-12176
▁1968,	-12177
▁Oce	-12178
▁play	-12179
▁suple	-12180
▁posicion	-12181
acea	-12182
▁depre	-12183
▁Pictures	-12184
▁salen	-12185
▁164	-12186
bito	-12187
termina	-12188
▁accede	-12189
nold	-12190
▁pap	-12191
▁expresar	-12192
91	-12193
▁reh	-12194
▁Cali	-12195
▁espectro	-12196
▁98	-12197
▁Hart	-12198
▁describ	-12199
▁Chia	-12200
▁caras	-12201
eon	-12202
ilos	-12203
▁embar	-12204
▁Dev	-12205
▁Nova	-12206
▁Chip	-12207
▁someter	-12208
▁ordin	-12209
▁mina	-12210
▁Down	-12211
▁educativa	-12212
xx	-12213
▁67	-12214
▁geol	-12215
▁duelo	-12216
▁delincu	-12217
▁abiertos	-12218
▁13.	-12219
landeses	-12220
▁preparado	-12221
dadores	-12222
▁guerrill	-12223
edonia	-12224
Buenos	-12225
▁bizantino	-12226
▁orb	-12227
▁Justin	-12228
▁Iglesias	-12229
▁poderosa	-12230
-11	-12231
iscopal	-12232
▁marinos	-12233
▁Austral	-12234
▁tortu	-12235
graph	-12236
▁1972,	-12237
▁matrimon	-12238
▁decenas	-12239
astas	-12240
▁are	-12241
▁actualiz	-12242
▁Gordon	-12243
dirse	-12244
▁1925	-12245
▁Hein	-12246
▁apoya	-12247
:0	-12248
▁Croacia	-12249
▁Iron	-12250
▁escasez	-12251
allo	-12252
▁1936,	-12253
lovaquia	-12254
▁Under	-12255
▁Ner	-12256
▁entregado	-12257
▁1951	-12258
▁Fuentes	-12259
▁Registro	-12260
▁Trujillo	-12261
queros	-12262
▁reba	-12263
▁madrugada	-12264
[]	-12265
anato	-12266
▁cere	-12267
▁asigna	-12268
▁operador	-12269
ipo	-12270
▁mirada	-12271
▁pasaba	-12272
▁tocando	-12273
Jos	-12274
▁llanura	-12275
▁levant	-12276
▁pescado	-12277
each	-12278
ocos	-12279
▁novio	-12280
▁Oliver	-12281
▁experto	-12282
▁embajada	-12283
▁problem	-12284
▁utilizaba	-12285
▁Vatic	-12286
▁Almer	-12287
▁designaci	-12288
▁Disco	-12289
▁hembra	-12290
▁estrell	-12291
miten	-12292
entin	-12293
?"	-12294
▁entraron	-12295
▁50%	-12296
▁Boe	-12297
▁Fall	-12298
▁indio	-12299
▁supervisi	-12300
rang	-12301
▁ree	-12302
lines	-12303
▁pianista	-12304
eau	-12305
▁Marte	-12306
entamiento	-12307
▁Shar	-12308
▁somos	-12309
▁France	-12310
▁diosa	-12311
▁cuesta	-12312
ingos	-12313
▁Puedes	-12314
▁bendi	-12315
▁quir	-12316
control	-12317
▁alcald	-12318
▁Parro	-12319
▁Hombre	-12320
tepec	-12321
▁cuestion	-12322
▁Baviera	-12323
▁realistas	-12324
ibo	-12325
axaca	-12326
▁seca	-12327
▁sepul	-12328
▁altern	-12329
guer	-12330
▁Back	-12331
▁Sport	-12332
▁cortar	-12333
▁dramatur	-12334
▁gram	-12335
▁fomentar	-12336
esco	-12337
▁compil	-12338
▁pilares	-12339
▁renacen	-12340
▁Sid	-12341
▁bate	-12342
▁Batall	-12343
▁Gh	-12344
▁emblem	-12345
▁huevo	-12346
▁talentos	-12347
▁Billy	-12348
▁duplic	-12349
▁desastre	-12350
▁perfor	-12351
▁apreciar	-12352
▁consenso	-12353
▁cilin	-12354
▁viaja	-12355
▁Villan	-12356
▁cubiertas	-12357
▁adorn	-12358
▁modalidad	-12359
▁teles	-12360
▁belga	-12361
▁Bou	-12362
▁compleja	-12363
▁ejecutado	-12364
▁lealtad	-12365
▁acostumb	-12366
▁value	-12367
▁membrana	-12368
▁Contra	-12369
▁cancha	-12370
▁Unos	-12371
▁Lac	-12372
▁serio	-12373
DO	-12374
Una	-12375
eds	-12376
gob	-12377
ibre	-12378
▁vienen	-12379
▁eficacia	-12380
▁Abu	-12381
▁Nam	-12382
▁Arg	-12383
▁obreros	-12384
▁WH	-12385
pha	-12386
▁Capilla	-12387
▁Rab	-12388
nesis	-12389
▁aclam	-12390
▁Johann	-12391
LC	-12392
▁Kennedy	-12393
nor	-12394
▁ph	-12395
▁trastorno	-12396
▁regalo	-12397
▁estacion	-12398
▁Pul	-12399
▁derivado	-12400
rando	-12401
▁DJ	-12402
ents	-12403
verde	-12404
cista	-12405
famil	-12406
▁Alvar	-12407
▁grabada	-12408
▁Barran	-12409
▁Games	-12410
emon	-12411
▁1993.	-12412
▁Indonesia	-12413
▁tomada	-12414
▁maquin	-12415
▁dedos	-12416
▁culpable	-12417
▁pantal	-12418
▁cortas	-12419
oluciones	-12420
acimientos	-12421
▁Yu	-12422
▁1-	-12423
▁defecto	-12424
BM	-12425
▁Ec	-12426
▁152	-12427
▁Garden	-12428
▁perfecta	-12429
▁vocales	-12430
▁silla	-12431
▁anchura	-12432
▁cromos	-12433
▁presos	-12434
itis	-12435
':	-12436
▁dign	-12437
▁votar	-12438
▁canciller	-12439
▁Roque	-12440
Don	-12441
lon	-12442
▁sujetos	-12443
▁queremos	-12444
boy	-12445
▁anf	-12446
▁period	-12447
▁percepci	-12448
Star	-12449
▁Roman	-12450
▁Prince	-12451
▁septentr	-12452
▁bach	-12453
▁datan	-12454
▁sindical	-12455
Nueva	-12456
kel	-12457
▁Ellos	-12458
▁adopci	-12459
Mon	-12460
▁tienden	-12461
▁Obama	-12462
▁salieron	-12463
▁CP	-12464
▁table	-12465
▁Pis	-12466
▁nacida	-12467
▁Guayaquil	-12468
▁migraci	-12469
▁6-	-12470
▁monjes	-12471
bulo	-12472
▁bala	-12473
▁externos	-12474
uye	-12475
▁Wy	-12476
▁alu	-12477
▁ruido	-12478
▁Contempor	-12479
▁Kings	-12480
▁francis	-12481
madura	-12482
sculos	-12483
andar	-12484
▁Pontifici	-12485
▁coral	-12486
▁fresco	-12487
▁nominada	-12488
▁Vizca	-12489
AG	-12490
▁disputado	-12491
nsul	-12492
▁grabados	-12493
▁1,5	-12494
▁arca	-12495
▁CV	-12496
▁1926	-12497
?,	-12498
▁dejan	-12499
▁combinado	-12500
▁gre	-12501
doso	-12502
onalidad	-12503
▁mutu	-12504
▁Casi	-12505
▁expulsado	-12506
▁Obtuvo	-12507
▁abiertas	-12508
▁confron	-12509
▁campeones	-12510
▁Charlie	-12511
▁noventa	-12512
Data	-12513
mont	-12514
▁pse	-12515
▁1927	-12516
▁Broadway	-12517
▁mostraron	-12518
▁1941,	-12519
▁futuros	-12520
▁cuadrado	-12521
bot	-12522
andes	-12523
▁77	-12524
▁Casas	-12525
▁vam	-12526
▁Aman	-12527
very	-12528
right	-12529
▁patrio	-12530
▁integra	-12531
izaron	-12532
▁emitida	-12533
▁tela	-12534
▁Hamb	-12535
▁modes	-12536
▁adjudic	-12537
▁Got	-12538
On	-12539
bet	-12540
Down	-12541
quito	-12542
▁asiento	-12543
▁76	-12544
▁pra	-12545
▁Labora	-12546
▁gasto	-12547
uramente	-12548
▁reunirse	-12549
▁Illinois	-12550
▁fl	-12551
▁preval	-12552
may	-12553
▁Actu	-12554
▁himno	-12555
respon	-12556
▁sugieren	-12557
XT	-12558
teos	-12559
rbara	-12560
BO	-12561
▁Porto	-12562
▁reunieron	-12563
quillo	-12564
▁azules	-12565
▁aparente	-12566
erbaiy	-12567
▁carn	-12568
cana	-12569
▁Arts	-12570
▁diecis	-12571
▁bebidas	-12572
amilton	-12573
▁Piz	-12574
rice	-12575
▁redonde	-12576
▁bole	-12577
▁americana	-12578
ulgaci	-12579
iac	-12580
uke	-12581
▁154	-12582
▁controles	-12583
.:	-12584
▁Jor	-12585
▁Arizona	-12586
▁juveniles	-12587
▁vinculado	-12588
▁primarias	-12589
▁box	-12590
▁Anne	-12591
▁Afr	-12592
▁Ola	-12593
▁Pep	-12594
▁bajar	-12595
▁condecor	-12596
▁Cinco	-12597
▁santos	-12598
Yo	-12599
▁Segovia	-12600
▁Alban	-12601
color	-12602
▁obtenidos	-12603
actor	-12604
▁Bes	-12605
▁63	-12606
▁obligaci	-12607
▁sint	-12608
shire	-12609
▁FM	-12610
taca	-12611
donde	-12612
trall	-12613
chet	-12614
ticu	-12615
entimiento	-12616
▁extendido	-12617
▁penales	-12618
genda	-12619
▁Whit	-12620
▁mapas	-12621
▁Bravo	-12622
gate	-12623
▁Ense	-12624
▁rodea	-12625
▁legi	-12626
▁requi	-12627
▁Rodolfo	-12628
▁despre	-12629
▁formaban	-12630
▁punk	-12631
▁Toro	-12632
▁1967,	-12633
▁ocasion	-12634
▁sudeste	-12635
▁golpes	-12636
▁temor	-12637
▁Aguirre	-12638
▁alo	-12639
▁Hog	-12640
ockey	-12641
▁derrotas	-12642
vitud	-12643
▁Glas	-12644
▁luchando	-12645
▁laborales	-12646
▁1922	-12647
▁ejemplar	-12648
▁exclusivo	-12649
▁secreta	-12650
▁oficio	-12651
▁harina	-12652
▁devas	-12653
gono	-12654
iat	-12655
yen	-12656
uste	-12657
mid	-12658
cab	-12659
ilandia	-12660
▁compres	-12661
dada	-12662
ucos	-12663
▁Paula	-12664
▁misterio	-12665
ecidos	-12666
▁corporal	-12667
▁persa	-12668
omi	-12669
parse	-12670
▁defec	-12671
▁tratan	-12672
▁paquetes	-12673
▁Arena	-12674
▁declarar	-12675
▁nucleares	-12676
▁confusi	-12677
▁practicar	-12678
vic	-12679
▁propici	-12680
inte	-12681
▁Mega	-12682
llam	-12683
▁balance	-12684
▁almirante	-12685
▁rivalidad	-12686
onismo	-12687
ATE	-12688
kers	-12689
orros	-12690
▁hoteles	-12691
divers	-12692
▁videoclip	-12693
▁Clin	-12694
▁automovil	-12695
▁subur	-12696
▁locomo	-12697
hattan	-12698
▁algod	-12699
▁nazis	-12700
quias	-12701
","	-12702
▁usaba	-12703
▁ligera	-12704
▁medici	-12705
▁esencia	-12706
▁marketing	-12707
hist	-12708
▁bode	-12709
▁sien	-12710
▁dedicados	-12711
portes	-12712
cao	-12713
PR	-12714
▁Aur	-12715
▁Lec	-12716
▁transf	-12717
▁Tla	-12718
raci	-12719
▁Moham	-12720
▁academia	-12721
▁British	-12722
Para	-12723
▁reforzar	-12724
▁afectada	-12725
▁Cantabria	-12726
idra	-12727
Er	-12728
▁simul	-12729
mante	-12730
▁motoci	-12731
▁murallas	-12732
▁Ji	-12733
▁vecina	-12734
▁concej	-12735
88	-12736
▁insul	-12737
▁goleador	-12738
▁marx	-12739
▁cumpli	-12740
ST	-12741
▁Free	-12742
▁devoci	-12743
▁analiz	-12744
ticiones	-12745
▁circund	-12746
▁dijeron	-12747
▁imponer	-12748
▁afirmaci	-12749
▁componen	-12750
▁emig	-12751
▁BM	-12752
▁Wars	-12753
plo	-12754
▁Coronel	-12755
▁Girl	-12756
▁Petr	-12757
▁viva	-12758
▁Mys	-12759
▁retirar	-12760
▁Arri	-12761
▁aparec	-12762
blast	-12763
▁Jin	-12764
▁subcampe	-12765
dula	-12766
thers	-12767
▁ilus	-12768
▁Liberaci	-12769
▁concluir	-12770
▁Isaac	-12771
▁Carter	-12772
▁jornadas	-12773
▁ibn	-12774
▁comunica	-12775
▁1960.	-12776
▁Mercado	-12777
▁Kur	-12778
▁lineal	-12779
rf	-12780
quien	-12781
▁arbitr	-12782
▁1923	-12783
▁Hubo	-12784
▁1969,	-12785
opoldo	-12786
▁Nich	-12787
▁encla	-12788
▁Secci	-12789
▁geograf	-12790
▁protegido	-12791
▁balc	-12792
▁creados	-12793
▁Mala	-12794
jedrez	-12795
▁100%	-12796
▁muel	-12797
▁defien	-12798
▁chocolate	-12799
yan	-12800
istrativas	-12801
Gran	-12802
function	-12803
iliares	-12804
ById	-12805
pteros	-12806
▁bordes	-12807
▁deseos	-12808
▁Kelly	-12809
▁Salta	-12810
▁turcos	-12811
▁Oaxaca	-12812
▁rodeada	-12813
▁situadas	-12814
vinas	-12815
aduras	-12816
tuoso	-12817
▁ondas	-12818
tienden	-12819
▁Seminario	-12820
ocia	-12821
▁Mesa	-12822
▁Mr	-12823
▁Kh	-12824
ienses	-12825
nik	-12826
garse	-12827
▁supo	-12828
▁favorito	-12829
▁1939,	-12830
mand	-12831
mers	-12832
▁teolog	-12833
▁castigo	-12834
▁Negra	-12835
▁62	-12836
▁incom	-12837
▁Magazine	-12838
▁vendidos	-12839
max	-12840
cipes	-12841
denci	-12842
▁anuncios	-12843
guida	-12844
▁seud	-12845
sw	-12846
▁romp	-12847
▁certific	-12848
ige	-12849
▁falla	-12850
▁goz	-12851
▁dren	-12852
▁Lenin	-12853
▁music	-12854
▁poetas	-12855
quet	-12856
▁Mej	-12857
orios	-12858
▁narrativa	-12859
▁afirman	-12860
▁firmaron	-12861
His	-12862
▁Toy	-12863
▁Khan	-12864
▁incendios	-12865
300	-12866
All	-12867
▁armamento	-12868
▁rele	-12869
sculo	-12870
▁Ques	-12871
▁protegida	-12872
ift	-12873
file	-12874
▁alberg	-12875
▁3-	-12876
▁Labor	-12877
▁Cay	-12878
inero	-12879
▁bits	-12880
-196	-12881
vira	-12882
▁fisi	-12883
▁donaci	-12884
ilater	-12885
ridos	-12886
fecha	-12887
▁Situ	-12888
▁1971,	-12889
pio	-12890
vocaci	-12891
▁generado	-12892
▁atrap	-12893
▁colectiva	-12894
▁Bis	-12895
▁cargas	-12896
▁jerarqu	-12897
▁abogados	-12898
▁llevaban	-12899
▁comprendi	-12900
troit	-12901
▁vertic	-12902
inda	-12903
uber	-12904
usco	-12905
▁demandas	-12906
iladelfia	-12907
▁controver	-12908
▁Armenia	-12909
▁protector	-12910
▁peculiar	-12911
▁granja	-12912
sil	-12913
▁montes	-12914
▁superando	-12915
▁cafe	-12916
▁Fl	-12917
▁Singa	-12918
▁compras	-12919
▁realizaba	-12920
▁Parker	-12921
▁Alicia	-12922
▁Leopoldo	-12923
▁Octa	-12924
▁Your	-12925
▁patria	-12926
▁Deportiva	-12927
▁900	-12928
▁Oper	-12929
▁escasos	-12930
▁Work	-12931
▁reducida	-12932
▁exc	-12933
▁null	-12934
▁viendo	-12935
▁ponen	-12936
▁pluma	-12937
▁diaria	-12938
SE	-12939
▁dominios	-12940
▁extenso	-12941
▁reporta	-12942
▁Ginebra	-12943
▁alturas	-12944
▁Guay	-12945
▁salsa	-12946
fortun	-12947
▁1944,	-12948
▁Patrick	-12949
▁2-	-12950
▁arroj	-12951
rence	-12952
Ciudad	-12953
▁Sancho	-12954
▁poseer	-12955
eja	-12956
Ser	-12957
▁1912	-12958
▁hallazgos	-12959
cron	-12960
▁tensiones	-12961
lay	-12962
▁alab	-12963
▁sorte	-12964
▁aluminio	-12965
▁solares	-12966
▁Union	-12967
-1,	-12968
lock	-12969
▁malos	-12970
▁depender	-12971
aju	-12972
▁marcando	-12973
▁minim	-12974
▁ads	-12975
▁versos	-12976
▁Constituy	-12977
▁Queen	-12978
[0	-12979
pt	-12980
alta	-12981
reza	-12982
pulo	-12983
▁161	-12984
▁folk	-12985
▁Lud	-12986
cindi	-12987
▁fiebre	-12988
76	-12989
So	-12990
▁dispuso	-12991
lidas	-12992
▁macho	-12993
▁recta	-12994
mack	-12995
▁compara	-12996
oac	-12997
▁muebles	-12998
▁montaje	-12999
▁you	-13000
▁claves	-13001
ols	-13002
▁ganadores	-13003
avy	-13004
▁galax	-13005
▁embalse	-13006
bis	-13007
▁contrat	-13008
▁obses	-13009
▁externo	-13010
etz	-13011
▁irse	-13012
df	-13013
▁elevaci	-13014
▁fuga	-13015
▁tend	-13016
renda	-13017
▁librer	-13018
lab	-13019
ival	-13020
dorf	-13021
mada	-13022
▁numero	-13023
▁1921	-13024
▁caci	-13025
▁abarc	-13026
▁inquie	-13027
▁IA	-13028
curio	-13029
▁Abraham	-13030
▁pagos	-13031
▁pesado	-13032
▁domicilio	-13033
▁efectivos	-13034
gil	-13035
▁delantera	-13036
▁ID	-13037
▁Moon	-13038
avier	-13039
reinato	-13040
▁intern	-13041
▁violenta	-13042
▁colegios	-13043
▁163	-13044
▁XVIII	-13045
▁novel	-13046
▁Fiesta	-13047
▁ori	-13048
▁(192	-13049
▁bebida	-13050
▁Conoci	-13051
Mi	-13052
veres	-13053
▁Industria	-13054
▁emociones	-13055
▁Who	-13056
▁superado	-13057
button	-13058
▁aci	-13059
▁baterista	-13060
▁iran	-13061
▁clasifica	-13062
chu	-13063
▁Hispanoam	-13064
bitos	-13065
thor	-13066
▁Gene	-13067
misiones	-13068
▁mayoritar	-13069
▁noci	-13070
▁tanque	-13071
stu	-13072
rillas	-13073
▁ofertas	-13074
▁aldeas	-13075
▁normales	-13076
▁fant	-13077
▁vaya	-13078
▁reforz	-13079
▁174	-13080
▁Week	-13081
▁Diana	-13082
▁agencias	-13083
▁Galle	-13084
▁Tak	-13085
▁Otto	-13086
▁golfo	-13087
▁Io	-13088
▁Paci	-13089
▁ayudan	-13090
▁inspirada	-13091
inch	-13092
▁promesa	-13093
igen	-13094
▁pata	-13095
▁sufrieron	-13096
Hz	-13097
▁retorn	-13098
imentaci	-13099
▁tonos	-13100
▁aba	-13101
▁funda	-13102
omento	-13103
▁Carm	-13104
▁Cher	-13105
▁Atlanta	-13106
▁bombardeo	-13107
▁Pot	-13108
▁Buc	-13109
▁neocl	-13110
▁Channel	-13111
▁estuviera	-13112
▁Neces	-13113
pop	-13114
▁empat	-13115
▁Ebro	-13116
▁corpora	-13117
▁embri	-13118
▁Lincol	-13119
▁sud	-13120
▁materna	-13121
estia	-13122
▁Admin	-13123
▁necesitar	-13124
▁seria	-13125
▁cerveza	-13126
CN	-13127
▁Asc	-13128
▁1989.	-13129
cton	-13130
▁recopila	-13131
view	-13132
▁Triple	-13133
▁Houston	-13134
▁rojos	-13135
▁remode	-13136
Name	-13137
digos	-13138
▁Peso	-13139
▁Praga	-13140
▁fundaron	-13141
▁Dip	-13142
▁ola	-13143
▁trascen	-13144
esto	-13145
▁Record	-13146
▁Russell	-13147
▁inmun	-13148
▁relata	-13149
iega	-13150
▁Hell	-13151
▁Stalin	-13152
▁96	-13153
mado	-13154
entro	-13155
▁apunta	-13156
uru	-13157
▁malas	-13158
lick	-13159
▁Embaj	-13160
▁platino	-13161
GBT	-13162
cdo	-13163
ndolas	-13164
▁Canaria	-13165
▁tiros	-13166
acar	-13167
▁intim	-13168
▁narco	-13169
▁tenis	-13170
▁concejal	-13171
vara	-13172
ded	-13173
ificados	-13174
▁tributo	-13175
ople	-13176
▁Montre	-13177
▁Sports	-13178
ntas	-13179
rueba	-13180
helm	-13181
▁input	-13182
ganta	-13183
jugador	-13184
▁Magal	-13185
▁impulsar	-13186
▁automa	-13187
▁Data	-13188
▁Fair	-13189
FE	-13190
▁Acu	-13191
ngulos	-13192
▁empie	-13193
▁creciendo	-13194
mund	-13195
▁vegetal	-13196
▁Bris	-13197
▁Penal	-13198
-193	-13199
senal	-13200
▁Manhattan	-13201
▁mostraba	-13202
▁Esperanza	-13203
icha	-13204
▁paneles	-13205
usse	-13206
▁fiscales	-13207
▁99	-13208
▁Arabia	-13209
▁quitar	-13210
▁resumen	-13211
▁edificaci	-13212
▁discul	-13213
▁recorre	-13214
▁visuales	-13215
▁15,	-13216
▁lucro	-13217
▁colocado	-13218
▁Tara	-13219
▁mante	-13220
guen	-13221
▁Ki	-13222
▁planetas	-13223
▁dirigidas	-13224
app	-13225
▁reivindic	-13226
▁Resta	-13227
▁Salazar	-13228
▁esfera	-13229
minente	-13230
▁concen	-13231
▁Aparte	-13232
▁Austin	-13233
▁Eugenio	-13234
▁hig	-13235
▁miel	-13236
▁cig	-13237
rte	-13238
ija	-13239
joz	-13240
▁edit	-13241
▁masculina	-13242
▁Flam	-13243
▁importar	-13244
▁bil	-13245
attle	-13246
▁Iden	-13247
5.000	-13248
▁Andy	-13249
ences	-13250
▁decimo	-13251
▁incorrec	-13252
▁($	-13253
▁codigo	-13254
OST	-13255
▁barran	-13256
istic	-13257
sed	-13258
▁Aguilar	-13259
▁curios	-13260
▁rescatar	-13261
▁rojas	-13262
▁173	-13263
▁viejos	-13264
▁rocos	-13265
ceno	-13266
mart	-13267
▁Ambiente	-13268
▁exce	-13269
▁Research	-13270
▁tumbas	-13271
▁Tag	-13272
▁tragedia	-13273
▁Hugh	-13274
▁reparaci	-13275
tania	-13276
▁casti	-13277
▁horno	-13278
▁Colo	-13279
▁Kara	-13280
▁abandona	-13281
▁revisar	-13282
▁opuesto	-13283
▁coc	-13284
sovia	-13285
▁Mata	-13286
soci	-13287
cipiente	-13288
PE	-13289
▁autopista	-13290
▁Franz	-13291
Cas	-13292
▁involucr	-13293
▁positivos	-13294
ernos	-13295
▁infr	-13296
▁NASA	-13297
quete	-13298
▁Coch	-13299
▁radicales	-13300
ov	-13301
▁Ocu	-13302
how	-13303
▁Vig	-13304
cracia	-13305
▁coleccion	-13306
▁Water	-13307
56	-13308
▁Aus	-13309
under	-13310
▁llor	-13311
entino	-13312
▁Barry	-13313
▁14.	-13314
▁Athle	-13315
▁descargar	-13316
▁171	-13317
▁plantel	-13318
▁GT	-13319
▁aren	-13320
▁Tib	-13321
▁aplas	-13322
▁test	-13323
)"	-13324
book	-13325
ciano	-13326
▁hiciera	-13327
▁Pia	-13328
▁apost	-13329
▁ametrall	-13330
ptero	-13331
▁soportar	-13332
sp	-13333
ucal	-13334
▁Local	-13335
▁Alice	-13336
▁obtenci	-13337
adajoz	-13338
▁Tradici	-13339
inidad	-13340
▁patrona	-13341
▁vil	-13342
▁devuelve	-13343
▁Quint	-13344
▁adquiere	-13345
▁Consul	-13346
▁fortaleci	-13347
▁Educa	-13348
posa	-13349
edra	-13350
▁Dri	-13351
▁ideales	-13352
▁torpe	-13353
▁amistoso	-13354
ionista	-13355
▁Detroit	-13356
▁Org	-13357
▁opt	-13358
venida	-13359
omod	-13360
▁Fru	-13361
pac	-13362
entaban	-13363
▁urbanas	-13364
produc	-13365
lack	-13366
▁tiende	-13367
ocho	-13368
fectura	-13369
▁invit	-13370
!"	-13371
hon	-13372
rate	-13373
▁grueso	-13374
▁sequ	-13375
medios	-13376
▁Aleks	-13377
temporada	-13378
▁protocolo	-13379
▁Jalisco	-13380
▁atacado	-13381
enne	-13382
▁Wis	-13383
iness	-13384
▁Kiev	-13385
▁crean	-13386
wo	-13387
ERE	-13388
▁Indiana	-13389
▁Clemente	-13390
','	-13391
▁Rot	-13392
etta	-13393
▁Tas	-13394
▁Holanda	-13395
bin	-13396
lgar	-13397
▁Hop	-13398
▁abra	-13399
▁tril	-13400
▁traducido	-13401
▁Fores	-13402
rick	-13403
▁secos	-13404
▁superh	-13405
▁candidata	-13406
UT	-13407
ujo	-13408
ofici	-13409
▁Ple	-13410
▁Kris	-13411
▁odio	-13412
▁notar	-13413
▁Jonathan	-13414
▁Dia	-13415
▁Gav	-13416
▁Ark	-13417
▁Tecnol	-13418
VI	-13419
▁Gloria	-13420
diar	-13421
see	-13422
loven	-13423
▁Fuego	-13424
▁antepas	-13425
nticas	-13426
▁colegas	-13427
▁costera	-13428
▁ubicadas	-13429
▁14,	-13430
vico	-13431
fra	-13432
▁Abad	-13433
rmica	-13434
▁Inma	-13435
vica	-13436
▁alien	-13437
▁Kin	-13438
▁Empez	-13439
▁catalana	-13440
bamos	-13441
▁brindar	-13442
▁Saba	-13443
▁1964,	-13444
turalmente	-13445
▁sell	-13446
dillas	-13447
▁piz	-13448
▁Church	-13449
▁secretos	-13450
▁refugi	-13451
▁enormes	-13452
valu	-13453
▁Light	-13454
▁IP	-13455
foro	-13456
tiemp	-13457
20.	-13458
▁Over	-13459
▁ordena	-13460
▁str	-13461
▁concurs	-13462
▁intentado	-13463
▁semifinal	-13464
▁anat	-13465
▁pulm	-13466
▁reab	-13467
▁Cervantes	-13468
▁provocado	-13469
fato	-13470
tabil	-13471
▁disparar	-13472
▁148	-13473
▁desembo	-13474
esos	-13475
▁refrig	-13476
▁ponerse	-13477
▁suya	-13478
ucristo	-13479
urar	-13480
pecto	-13481
▁162	-13482
bados	-13483
▁nacer	-13484
▁(9	-13485
▁desesper	-13486
▁Humanidad	-13487
ternidad	-13488
▁destinos	-13489
▁rab	-13490
▁Hamilton	-13491
▁barras	-13492
osamente	-13493
▁matan	-13494
▁terap	-13495
▁pertur	-13496
▁confec	-13497
▁Motor	-13498
▁arreglos	-13499
▁maci	-13500
▁colapso	-13501
▁Tac	-13502
▁sostuvo	-13503
▁profundas	-13504
▁bail	-13505
tierro	-13506
▁2023.	-13507
▁recrea	-13508
▁Liver	-13509
▁dulces	-13510
▁Viol	-13511
▁prestar	-13512
ceo	-13513
iche	-13514
▁noveno	-13515
▁razas	-13516
▁compati	-13517
▁trim	-13518
▁impac	-13519
ogra	-13520
cribe	-13521
▁LGBT	-13522
▁estatuas	-13523
▁hermosa	-13524
▁Lake	-13525
iliado	-13526
▁determina	-13527
▁Mik	-13528
▁unidos	-13529
▁atre	-13530
▁afectadas	-13531
ulia	-13532
▁asesinar	-13533
gg	-13534
▁diam	-13535
asen	-13536
▁Valdi	-13537
ME	-13538
▁luci	-13539
▁ligas	-13540
msterdam	-13541
ample	-13542
▁precisa	-13543
allen	-13544
▁estrib	-13545
▁pionero	-13546
▁cometido	-13547
▁informar	-13548
▁Sonora	-13549
▁colabora	-13550
▁Lisa	-13551
▁Nuestro	-13552
▁Prensa	-13553
▁auxiliar	-13554
mble	-13555
estas	-13556
▁pensaba	-13557
▁dia	-13558
tomos	-13559
utico	-13560
▁citada	-13561
▁nativa	-13562
List	-13563
udi	-13564
57	-13565
igui	-13566
▁Casta	-13567
▁Master	-13568
▁promovido	-13569
▁Vald	-13570
Reg	-13571
▁prioridad	-13572
▁Arias	-13573
▁autobio	-13574
▁JS	-13575
▁criterio	-13576
iscos	-13577
▁octava	-13578
dren	-13579
▁artef	-13580
▁Minas	-13581
▁Estrella	-13582
rra	-13583
▁Speci	-13584
bit	-13585
▁Misi	-13586
▁Barre	-13587
▁aporte	-13588
▁Cong	-13589
▁apartado	-13590
▁Lil	-13591
▁ritual	-13592
utbolista	-13593
esp	-13594
▁Sinf	-13595
▁trae	-13596
▁Franklin	-13597
▁jesuitas	-13598
▁triunf	-13599
illerato	-13600
Mus	-13601
▁Clase	-13602
▁Meso	-13603
▁anarqu	-13604
▁Figh	-13605
culada	-13606
▁desgr	-13607
▁umb	-13608
▁Lanz	-13609
▁Story	-13610
▁LP	-13611
▁Singapur	-13612
cultura	-13613
americanas	-13614
▁Villar	-13615
▁Vizcaya	-13616
▁arbus	-13617
▁Et	-13618
▁lac	-13619
▁parad	-13620
▁Walker	-13621
▁salvaje	-13622
▁Profesor	-13623
▁masacre	-13624
▁arb	-13625
turbios	-13626
rosa	-13627
▁Galax	-13628
cencia	-13629
ndices	-13630
▁1966,	-13631
▁prohibido	-13632
▁transvers	-13633
▁movilidad	-13634
▁suceder	-13635
▁Space	-13636
▁derrumb	-13637
▁ultra	-13638
▁ascender	-13639
tilaci	-13640
zen	-13641
cerse	-13642
▁1942,	-13643
▁Varsovia	-13644
ESCO	-13645
▁Nunca	-13646
▁exacta	-13647
▁logran	-13648
▁afect	-13649
▁cofrad	-13650
▁cari	-13651
izador	-13652
▁querer	-13653
▁1)	-13654
down	-13655
▁",	-13656
chigan	-13657
▁ax	-13658
▁leyendas	-13659
▁fes	-13660
▁subi	-13661
▁listo	-13662
▁Congo	-13663
▁salva	-13664
▁choque	-13665
▁20,	-13666
▁Deuts	-13667
▁atl	-13668
▁cuero	-13669
▁frases	-13670
elamente	-13671
dob	-13672
▁detuvo	-13673
▁Rally	-13674
flix	-13675
podos	-13676
nacido	-13677
▁computaci	-13678
▁15.	-13679
▁garantiz	-13680
▁escape	-13681
▁inflaci	-13682
▁litoral	-13683
▁dir	-13684
▁SELECT	-13685
▁feminista	-13686
mosf	-13687
().	-13688
ulk	-13689
▁Compos	-13690
ange	-13691
▁Pronto	-13692
yr	-13693
anim	-13694
▁ocupaba	-13695
▁detecci	-13696
▁74	-13697
▁McG	-13698
▁Death	-13699
▁rompe	-13700
▁Lincoln	-13701
ingen	-13702
▁bril	-13703
▁pierna	-13704
sage	-13705
▁criticado	-13706
▁Rosas	-13707
biles	-13708
▁Caja	-13709
▁jefa	-13710
▁aceptada	-13711
▁cabina	-13712
▁costado	-13713
haw	-13714
abetes	-13715
▁atacaron	-13716
voca	-13717
▁fanes	-13718
▁circun	-13719
▁jugaba	-13720
▁rechazado	-13721
▁Gesti	-13722
▁falsa	-13723
▁audiovis	-13724
▁Kle	-13725
ends	-13726
turado	-13727
▁delegado	-13728
▁conducido	-13729
▁preservar	-13730
▁declive	-13731
▁ejerce	-13732
▁prohibi	-13733
▁Bush	-13734
▁avanzado	-13735
▁dorado	-13736
▁fraude	-13737
▁semestre	-13738
spe	-13739
▁Llam	-13740
▁asociadas	-13741
▁Rh	-13742
▁roles	-13743
▁Pek	-13744
▁1965,	-13745
▁emplear	-13746
dice	-13747
ritos	-13748
▁inmor	-13749
▁that	-13750
▁Studio	-13751
▁homici	-13752
▁mansi	-13753
▁Patria	-13754
▁Angeles	-13755
bablemente	-13756
58	-13757
▁casta	-13758
▁crema	-13759
▁Noticias	-13760
(){	-13761
oney	-13762
▁ranking	-13763
rame	-13764
▁Parece	-13765
cles	-13766
▁Ponce	-13767
▁('	-13768
▁Alem	-13769
▁1943,	-13770
▁ladr	-13771
▁Siete	-13772
62	-13773
▁59	-13774
▁CH	-13775
▁puro	-13776
▁Bruno	-13777
antemente	-13778
▁ciclos	-13779
▁espejo	-13780
corpor	-13781
tables	-13782
diversidad	-13783
fag	-13784
▁emite	-13785
▁aparatos	-13786
▁invitaci	-13787
iserie	-13788
▁escolares	-13789
tov	-13790
"></	-13791
▁masivo	-13792
▁cosech	-13793
CS	-13794
XX	-13795
▁rastre	-13796
▁enfermos	-13797
▁memorias	-13798
▁construye	-13799
▁Kansas	-13800
huahua	-13801
▁asocia	-13802
ordinario	-13803
▁capitales	-13804
ih	-13805
▁pasaje	-13806
▁panorama	-13807
isfer	-13808
▁dedicadas	-13809
▁amarilla	-13810
▁http	-13811
-1.	-13812
zaro	-13813
▁lap	-13814
▁Miembro	-13815
▁contempl	-13816
eria	-13817
texto	-13818
▁gala	-13819
▁llave	-13820
▁prelim	-13821
▁colinas	-13822
cidas	-13823
▁enviada	-13824
▁Ges	-13825
host	-13826
▁Sarmiento	-13827
▁169	-13828
▁famosas	-13829
olar	-13830
istan	-13831
▁enfermo	-13832
▁Habsburgo	-13833
▁cines	-13834
mix	-13835
▁interino	-13836
▁suicidio	-13837
▁Potos	-13838
uka	-13839
▁Drag	-13840
▁GP	-13841
mbitos	-13842
▁Salom	-13843
▁MS	-13844
▁128	-13845
""	-13846
▁otorgar	-13847
▁inno	-13848
='	-13849
▁Bona	-13850
▁Bella	-13851
▁opuso	-13852
▁fluy	-13853
▁querido	-13854
▁Great	-13855
▁defensas	-13856
inf	-13857
▁nap	-13858
▁1913	-13859
▁prehis	-13860
▁entiende	-13861
bourne	-13862
▁restante	-13863
▁Bud	-13864
▁Vaticano	-13865
▁acusados	-13866
▁luchador	-13867
ielor	-13868
▁vasos	-13869
selec	-13870
ionada	-13871
▁Let	-13872
▁inse	-13873
▁Edgar	-13874
entarse	-13875
▁Charlo	-13876
Como	-13877
▁Dave	-13878
▁postul	-13879
▁ejes	-13880
▁grasa	-13881
▁advirti	-13882
▁Chel	-13883
▁descal	-13884
▁Estatu	-13885
▁acorde	-13886
1/	-13887
tadt	-13888
▁eres	-13889
▁cuadrada	-13890
▁Dion	-13891
pacial	-13892
▁87	-13893
▁Neu	-13894
inados	-13895
▁centrado	-13896
▁agru	-13897
▁cena	-13898
▁musulmana	-13899
▁submarino	-13900
▁OS	-13901
▁Radical	-13902
▁Zar	-13903
uncias	-13904
▁SA	-13905
▁Flash	-13906
▁deliber	-13907
▁infante	-13908
▁incen	-13909
-194	-13910
ifas	-13911
▁barrera	-13912
▁distingue	-13913
▁observado	-13914
3%	-13915
▁gros	-13916
▁hallaba	-13917
▁Ot	-13918
gento	-13919
vens	-13920
▁brigada	-13921
▁Tir	-13922
▁hago	-13923
▁roman	-13924
▁metabol	-13925
▁fijo	-13926
▁SO	-13927
icar	-13928
▁ove	-13929
ducida	-13930
▁report	-13931
▁mueve	-13932
▁Call	-13933
▁manzanas	-13934
remio	-13935
▁Matthe	-13936
▁Smack	-13937
▁brutal	-13938
▁Bond	-13939
▁Serrano	-13940
▁Airlines	-13941
▁Lagos	-13942
uis	-13943
▁16,	-13944
▁convenio	-13945
▁estallido	-13946
▁Hud	-13947
renden	-13948
▁Izquierda	-13949
omal	-13950
▁Marqu	-13951
▁trasladar	-13952
range	-13953
▁hardware	-13954
▁importa	-13955
▁servido	-13956
▁Netflix	-13957
▁Cross	-13958
▁abordar	-13959
▁Azerbaiy	-13960
▁entrenar	-13961
▁hostil	-13962
▁frescos	-13963
ai	-13964
▁lev	-13965
▁exige	-13966
▁piscina	-13967
▁contienda	-13968
▁gastronom	-13969
▁Aguas	-13970
trix	-13971
▁recopil	-13972
▁aeronaves	-13973
▁secuestro	-13974
alto	-13975
▁Kas	-13976
ueltas	-13977
jun	-13978
uter	-13979
▁firmas	-13980
dig	-13981
▁dormir	-13982
▁Ts	-13983
▁pastel	-13984
▁Beatriz	-13985
ween	-13986
▁durar	-13987
▁quie	-13988
▁facto	-13989
▁Palmas	-13990
▁Ministros	-13991
▁azo	-13992
▁Sand	-13993
▁alcanzan	-13994
uevo	-13995
cello	-13996
▁Crime	-13997
▁Ful	-13998
▁dob	-13999
▁solem	-14000
▁enfrentan	-14001
▁vistos	-14002
roll	-14003
▁gasolina	-14004
▁estamp	-14005
▁1988.	-14006
▁oce	-14007
▁84	-14008
▁Fuerte	-14009
iegue	-14010
▁empiezan	-14011
▁custodia	-14012
▁MP	-14013
▁cantando	-14014
▁reside	-14015
ensos	-14016
▁Theatre	-14017
▁negociaci	-14018
▁ritmos	-14019
▁definida	-14020
▁turno	-14021
new	-14022
into	-14023
raltar	-14024
▁preven	-14025
tira	-14026
▁extraer	-14027
MC	-14028
▁1911	-14029
▁1948,	-14030
▁inclus	-14031
▁micros	-14032
▁tronco	-14033
Her	-14034
mouth	-14035
▁61	-14036
▁fren	-14037
eratriz	-14038
▁vest	-14039
ficios	-14040
▁Boeing	-14041
▁hebreo	-14042
▁1915	-14043
▁anfitri	-14044
▁plumas	-14045
▁Latin	-14046
▁ducado	-14047
▁suceso	-14048
▁rodean	-14049
clar	-14050
ancha	-14051
▁Argelia	-14052
▁malo	-14053
▁alegando	-14054
▁Mix	-14055
rquez	-14056
▁amo	-14057
▁Tem	-14058
nimas	-14059
▁negativos	-14060
▁manufac	-14061
▁much	-14062
▁lit	-14063
▁ficha	-14064
▁della	-14065
tari	-14066
▁1916	-14067
▁Bueno	-14068
▁Frontera	-14069
▁vale	-14070
chadas	-14071
▁caminar	-14072
▁guerreros	-14073
▁llevados	-14074
▁felicidad	-14075
▁Wag	-14076
▁Ingres	-14077
▁estelar	-14078
▁agar	-14079
▁Sho	-14080
▁Fres	-14081
▁suspen	-14082
▁afectan	-14083
Cap	-14084
▁Ye	-14085
rite	-14086
bula	-14087
tit	-14088
▁Isl	-14089
▁Dance	-14090
▁rebelde	-14091
▁Field	-14092
▁causada	-14093
▁reten	-14094
▁Susan	-14095
▁Scar	-14096
▁tantas	-14097
▁variar	-14098
▁Acuerdo	-14099
▁Sporting	-14100
▁cilindros	-14101
▁Borg	-14102
▁falso	-14103
▁Pay	-14104
▁confirma	-14105
post	-14106
▁Bey	-14107
▁Nazar	-14108
▁exf	-14109
▁aborto	-14110
▁ensamb	-14111
▁reestruc	-14112
▁supuesta	-14113
▁traslada	-14114
▁futuras	-14115
▁meseta	-14116
ACI	-14117
jaros	-14118
Ale	-14119
▁Espar	-14120
▁sometido	-14121
▁biolog	-14122
▁86	-14123
▁leve	-14124
▁Lista	-14125
▁ficticio	-14126
▁geometr	-14127
▁poblada	-14128
▁guardias	-14129
▁triang	-14130
▁fabricar	-14131
▁deterioro	-14132
gth	-14133
▁Montreal	-14134
▁esperado	-14135
▁mariscal	-14136
▁NBC	-14137
comun	-14138
▁preciso	-14139
▁Glen	-14140
▁Liceo	-14141
▁pilas	-14142
laje	-14143
ference	-14144
rop	-14145
nomos	-14146
▁Women	-14147
adiendo	-14148
▁Steven	-14149
▁Legi	-14150
citos	-14151
Univers	-14152
▁hubiese	-14153
▁robar	-14154
▁negociar	-14155
▁Albacete	-14156
lanca	-14157
▁Japan	-14158
▁coincide	-14159
▁transmite	-14160
▁oscuridad	-14161
ividad	-14162
▁fruta	-14163
▁Islam	-14164
▁Cole	-14165
ncipes	-14166
▁pensando	-14167
▁taquilla	-14168
▁Gy	-14169
omar	-14170
▁alea	-14171
▁almacenar	-14172
▁Spi	-14173
▁Won	-14174
▁Jordan	-14175
▁cintas	-14176
tiro	-14177
▁agradable	-14178
body	-14179
▁nervioso	-14180
fero	-14181
▁restaurar	-14182
▁PRO	-14183
▁cach	-14184
New	-14185
ahora	-14186
ionistas	-14187
▁Run	-14188
▁text	-14189
▁Varias	-14190
-195	-14191
▁razon	-14192
▁liderada	-14193
▁1986.	-14194
▁5000	-14195
▁criaturas	-14196
irus	-14197
▁tesoro	-14198
▁farmac	-14199
▁equipado	-14200
▁coco	-14201
▁Golden	-14202
▁vemos	-14203
▁vien	-14204
▁residente	-14205
▁Bron	-14206
ote	-14207
▁16.	-14208
ulada	-14209
▁vinos	-14210
▁saliendo	-14211
getElement	-14212
▁intentan	-14213
dard	-14214
▁Liverpool	-14215
dies	-14216
▁Rid	-14217
▁Academy	-14218
isma	-14219
▁Marx	-14220
▁escaleras	-14221
▁presiones	-14222
▁bicicleta	-14223
▁consultar	-14224
taje	-14225
aux	-14226
▁produ	-14227
▁divorcio	-14228
▁romance	-14229
▁neerland	-14230
tini	-14231
▁conflu	-14232
obiliario	-14233
GA	-14234
▁Justi	-14235
▁ambientes	-14236
▁20.	-14237
▁Pascual	-14238
▁(187	-14239
▁falle	-14240
▁invenci	-14241
▁vendidas	-14242
▁Tipo	-14243
▁1962,	-14244
▁Tailandia	-14245
ads	-14246
dale	-14247
forme	-14248
isio	-14249
▁alias	-14250
▁previos	-14251
▁revesti	-14252
▁nocturno	-14253
▁list	-14254
▁vector	-14255
▁Quebec	-14256
gir	-14257
▁PN	-14258
▁vestig	-14259
LO	-14260
lomer	-14261
▁Tito	-14262
▁Cass	-14263
▁Lob	-14264
▁1963,	-14265
▁Gobernaci	-14266
▁Ponte	-14267
▁Francesco	-14268
-14	-14269
▁Pear	-14270
▁placer	-14271
▁manchas	-14272
▁haz	-14273
▁1987.	-14274
wal	-14275
▁Catar	-14276
▁soberano	-14277
▁nube	-14278
▁pozo	-14279
▁RA	-14280
rdenas	-14281
cico	-14282
▁Hola	-14283
▁(14	-14284
▁puntas	-14285
▁aumentado	-14286
lexi	-14287
didad	-14288
▁Acad	-14289
▁manej	-14290
urope	-14291
▁alerta	-14292
▁monopol	-14293
ied	-14294
▁->	-14295
▁tabaco	-14296
▁Bec	-14297
▁PHP	-14298
▁UK	-14299
▁vot	-14300
adieron	-14301
▁Intro	-14302
▁marinas	-14303
▁desfile	-14304
▁Hat	-14305
▁tox	-14306
▁designar	-14307
▁acr	-14308
▁alza	-14309
▁capillas	-14310
▁Corporaci	-14311
▁molecular	-14312
▁reno	-14313
▁Amazonas	-14314
▁Rang	-14315
▁icono	-14316
▁Fos	-14317
estra	-14318
▁tranv	-14319
▁radios	-14320
▁portero	-14321
mia	-14322
▁Line	-14323
▁Total	-14324
▁mosa	-14325
▁escucha	-14326
▁incapaz	-14327
chado	-14328
orada	-14329
▁ancha	-14330
▁cerdo	-14331
▁Adol	-14332
▁acudir	-14333
▁vestidos	-14334
modo	-14335
▁irland	-14336
▁arresto	-14337
5%	-14338
▁llegaba	-14339
director	-14340
▁refuerzos	-14341
▁funcionan	-14342
0000	-14343
▁deform	-14344
▁vocaci	-14345
▁acogida	-14346
▁llamaron	-14347
ermo	-14348
string	-14349
▁relativo	-14350
stol	-14351
▁Rho	-14352
▁Hand	-14353
▁contes	-14354
entina	-14355
▁adher	-14356
▁adquirida	-14357
ird	-14358
▁Vigo	-14359
▁pila	-14360
▁Chihuahua	-14361
▁espont	-14362
▁canon	-14363
tadores	-14364
pensa	-14365
▁legisl	-14366
▁promul	-14367
▁duquesa	-14368
▁hablado	-14369
unya	-14370
▁sev	-14371
▁desar	-14372
▁linaje	-14373
▁ARN	-14374
Pal	-14375
▁Campa	-14376
▁limit	-14377
▁saben	-14378
▁elaborar	-14379
▁asturi	-14380
▁visibles	-14381
plas	-14382
▁Juniors	-14383
▁bella	-14384
▁demues	-14385
▁formatos	-14386
▁garganta	-14387
rov	-14388
▁reclu	-14389
▁Marshall	-14390
▁Litu	-14391
▁Estudio	-14392
▁Maur	-14393
▁generando	-14394
▁DEL	-14395
zadas	-14396
▁nec	-14397
▁patente	-14398
▁Centroam	-14399
▁introduce	-14400
rane	-14401
sche	-14402
▁Mob	-14403
mentar	-14404
▁while	-14405
▁Lomb	-14406
tury	-14407
chevi	-14408
dicamente	-14409
icol	-14410
▁infil	-14411
▁trayecto	-14412
▁Tienen	-14413
▁Beatles	-14414
lg	-14415
rita	-14416
▁teclado	-14417
vista	-14418
▁Wo	-14419
▁edades	-14420
▁Ligas	-14421
▁billetes	-14422
▁1-0	-14423
▁Santuario	-14424
eppe	-14425
poli	-14426
▁Polit	-14427
▁Personas	-14428
imento	-14429
▁172	-14430
▁self	-14431
▁Ian	-14432
▁Hamburgo	-14433
▁locu	-14434
▁burgues	-14435
▁pistola	-14436
▁piratas	-14437
▁Athletic	-14438
▁rituales	-14439
ogen	-14440
raft	-14441
▁VIH	-14442
CP	-14443
▁vasco	-14444
lina	-14445
roqu	-14446
▁Dob	-14447
▁(2010	-14448
star	-14449
campo	-14450
zzo	-14451
▁atmosf	-14452
▁100,	-14453
▁Seis	-14454
▁Adams	-14455
▁cotidiana	-14456
▁teatrales	-14457
▁97	-14458
▁hilo	-14459
▁vertebr	-14460
▁accesible	-14461
▁Wilhelm	-14462
▁Escribe	-14463
▁reli	-14464
▁justific	-14465
aa	-14466
Pri	-14467
▁1985.	-14468
▁andalu	-14469
▁miniserie	-14470
▁Wayne	-14471
▁inmedi	-14472
cate	-14473
https	-14474
▁penit	-14475
▁perdida	-14476
FS	-14477
▁enfri	-14478
▁Fuj	-14479
▁Get	-14480
aceae	-14481
mide	-14482
▁bul	-14483
▁afirmar	-14484
inaria	-14485
tribu	-14486
ties	-14487
▁350	-14488
▁Escal	-14489
issa	-14490
▁cuevas	-14491
▁docentes	-14492
▁dorsal	-14493
poco	-14494
tanci	-14495
▁lazos	-14496
abra	-14497
idelidad	-14498
bloque	-14499
rbitro	-14500
▁Alaska	-14501
▁cargar	-14502
resa	-14503
▁Soy	-14504
▁entrando	-14505
▁149	-14506
▁brind	-14507
▁mezquita	-14508
▁verificar	-14509
▁OTAN	-14510
▁cruza	-14511
▁basura	-14512
hea	-14513
▁olvidar	-14514
▁Dod	-14515
▁morf	-14516
nett	-14517
▁reiter	-14518
elt	-14519
▁Omar	-14520
▁Malvinas	-14521
pina	-14522
▁Tul	-14523
▁Olimp	-14524
▁alusi	-14525
▁madres	-14526
espe	-14527
lamos	-14528
pton	-14529
▁caj	-14530
gramas	-14531
▁Malasia	-14532
▁AT	-14533
▁dignidad	-14534
andal	-14535
▁Mitch	-14536
▁destitu	-14537
▁remol	-14538
▁enve	-14539
▁herida	-14540
▁recibida	-14541
▁eman	-14542
▁cogni	-14543
terres	-14544
rgico	-14545
▁recolecci	-14546
Ob	-14547
ecretario	-14548
▁chi	-14549
macia	-14550
▁HTML	-14551
▁pura	-14552
gam	-14553
▁Chu	-14554
▁Wiki	-14555
▁parcel	-14556
We	-14557
tuar	-14558
▁permita	-14559
▁Gius	-14560
▁exal	-14561
▁git	-14562
▁Square	-14563
▁reelecci	-14564
▁ocuparon	-14565
▁Od	-14566
▁Daily	-14567
▁Noche	-14568
▁gratuito	-14569
teres	-14570
▁volv	-14571
▁dejo	-14572
cticos	-14573
▁Muerte	-14574
teza	-14575
▁CBS	-14576
▁Villal	-14577
▁calcula	-14578
ffs	-14579
▁Emma	-14580
▁Year	-14581
▁nitr	-14582
▁radar	-14583
▁Python	-14584
▁arra	-14585
▁Genera	-14586
▁consci	-14587
▁registra	-14588
▁insurg	-14589
▁comidas	-14590
▁(202	-14591
▁Beck	-14592
▁polin	-14593
▁asci	-14594
orum	-14595
▁rendici	-14596
▁capitan	-14597
Quer	-14598
▁financiar	-14599
▁suicid	-14600
▁Gig	-14601
▁Obispo	-14602
▁Naturales	-14603
▁agregado	-14604
▁verduras	-14605
▁recal	-14606
▁cavidad	-14607
▁Heart	-14608
▁Ibero	-14609
▁Freder	-14610
▁reconcili	-14611
▁73	-14612
▁Py	-14613
▁gatos	-14614
▁Fomento	-14615
▁Lawrence	-14616
["	-14617
▁toro	-14618
▁Dirig	-14619
▁Linux	-14620
inario	-14621
▁plana	-14622
▁matando	-14623
ometrajes	-14624
▁Gay	-14625
▁itiner	-14626
▁Soledad	-14627
▁CIA	-14628
▁ministra	-14629
▁rodilla	-14630
▁presidido	-14631
kas	-14632
lag	-14633
icho	-14634
met	-14635
▁je	-14636
nguez	-14637
andina	-14638
▁Amazon	-14639
▁Delgado	-14640
▁145	-14641
▁condi	-14642
▁Taller	-14643
▁Hos	-14644
▁Benjamin	-14645
ogue	-14646
▁Four	-14647
onancia	-14648
▁Center	-14649
dn	-14650
▁aler	-14651
▁1982.	-14652
▁suplente	-14653
▁151	-14654
▁Shan	-14655
ged	-14656
Barcelona	-14657
▁use	-14658
▁habitan	-14659
att	-14660
mod	-14661
▁Homer	-14662
▁Jung	-14663
▁135	-14664
▁Venus	-14665
▁Inca	-14666
▁supera	-14667
▁acomod	-14668
main	-14669
▁dicta	-14670
cast	-14671
▁facilita	-14672
▁147	-14673
▁71	-14674
jaro	-14675
▁1958,	-14676
▁Judicial	-14677
nito	-14678
▁Concilio	-14679
visa	-14680
▁10%	-14681
guard	-14682
▁funeral	-14683
▁informado	-14684
▁105	-14685
▁Ted	-14686
▁Lyon	-14687
▁caser	-14688
▁discutir	-14689
▁20%	-14690
▁Wild	-14691
▁plantea	-14692
TER	-14693
▁ball	-14694
▁vivido	-14695
▁up	-14696
▁1908	-14697
▁obligada	-14698
▁debutar	-14699
Este	-14700
▁clero	-14701
stro	-14702
▁telec	-14703
86	-14704
evales	-14705
▁pintar	-14706
▁zapatos	-14707
tades	-14708
▁Lugo	-14709
▁Him	-14710
kai	-14711
▁presas	-14712
▁Fitz	-14713
ordinaria	-14714
dato	-14715
▁contaban	-14716
▁segmentos	-14717
▁Ocho	-14718
▁villas	-14719
▁acumulaci	-14720
▁Cerca	-14721
▁Vista	-14722
ways	-14723
▁SmackDown	-14724
▁dobla	-14725
▁dieciocho	-14726
▁Hes	-14727
▁PAR	-14728
inista	-14729
▁condes	-14730
▁ocupan	-14731
witz	-14732
▁Fro	-14733
▁Niger	-14734
▁conmo	-14735
▁vacuna	-14736
▁evitando	-14737
ret	-14738
▁iniciada	-14739
▁simpa	-14740
▁reapar	-14741
▁cierra	-14742
▁intercep	-14743
▁fragmento	-14744
▁usaban	-14745
ranas	-14746
▁Say	-14747
▁Diam	-14748
▁1984.	-14749
siete	-14750
nesota	-14751
-13	-14752
▁aval	-14753
▁circuitos	-14754
▁Dog	-14755
▁Fama	-14756
▁Cooper	-14757
▁dorada	-14758
▁mensual	-14759
▁Boliv	-14760
▁fibras	-14761
▁difundir	-14762
▁Best	-14763
▁Convento	-14764
▁industri	-14765
clas	-14766
inetes	-14767
▁Chiapas	-14768
▁arroyos	-14769
▁Armando	-14770
▁expuesto	-14771
▁usaron	-14772
▁Publicado	-14773
▁Publish	-14774
▁teatros	-14775
oner	-14776
▁equivoc	-14777
engo	-14778
▁1961,	-14779
▁Salinas	-14780
▁emer	-14781
▁oponente	-14782
pulos	-14783
▁raro	-14784
▁Modern	-14785
▁intervino	-14786
▁Bosnia	-14787
▁gay	-14788
▁Review	-14789
▁nativo	-14790
▁Gibraltar	-14791
▁camiones	-14792
ficit	-14793
▁usarse	-14794
▁private	-14795
▁Earth	-14796
▁Ency	-14797
ticidad	-14798
▁ciruj	-14799
▁ole	-14800
▁perif	-14801
▁Adven	-14802
▁Soria	-14803
▁deudas	-14804
▁riego	-14805
▁tracci	-14806
▁Nota	-14807
▁Joven	-14808
▁narraci	-14809
▁Cres	-14810
▁gall	-14811
www	-14812
▁egres	-14813
▁autoriz	-14814
▁UNESCO	-14815
ueroa	-14816
▁Robinson	-14817
▁poblados	-14818
EB	-14819
guesa	-14820
▁nacidos	-14821
▁criatura	-14822
▁enam	-14823
▁sostienen	-14824
▁mixta	-14825
▁Gij	-14826
"]	-14827
▁concedido	-14828
▁1937,	-14829
▁Silver	-14830
▁octavos	-14831
▁69	-14832
iggins	-14833
▁formados	-14834
▁anotar	-14835
rb	-14836
▁Aquel	-14837
▁Gom	-14838
▁Swe	-14839
enberg	-14840
▁feudo	-14841
▁acabado	-14842
▁1905	-14843
▁banca	-14844
▁granos	-14845
▁Luxe	-14846
teniente	-14847
▁DS	-14848
lymp	-14849
▁$('	-14850
▁ajedrez	-14851
▁despedido	-14852
▁navegador	-14853
▁This	-14854
▁inusual	-14855
wi	-14856
canos	-14857
▁pale	-14858
▁Atlas	-14859
▁gluc	-14860
1:	-14861
▁complejas	-14862
▁1938,	-14863
▁beber	-14864
Phone	-14865
▁celda	-14866
eciendo	-14867
osaurus	-14868
▁hierba	-14869
▁dependen	-14870
▁cosecha	-14871
1-	-14872
pic	-14873
▁mesti	-14874
▁nubes	-14875
tex	-14876
▁August	-14877
onom	-14878
hemia	-14879
▁occidente	-14880
▁parto	-14881
▁1890	-14882
ompson	-14883
▁agrega	-14884
▁cuidar	-14885
risa	-14886
▁silenci	-14887
unos	-14888
▁Cofrad	-14889
▁sacrific	-14890
▁Gaspar	-14891
▁Proto	-14892
▁(12	-14893
▁360	-14894
▁mixtas	-14895
els	-14896
gando	-14897
chner	-14898
Estados	-14899
▁sedes	-14900
▁despi	-14901
▁cantau	-14902
▁usadas	-14903
▁Alejandr	-14904
▁carec	-14905
▁quede	-14906
▁promovi	-14907
ramos	-14908
▁Mack	-14909
▁criol	-14910
valor	-14911
▁regente	-14912
▁82	-14913
isferio	-14914
▁siti	-14915
▁dividen	-14916
uya	-14917
zer	-14918
trap	-14919
ritus	-14920
▁persegu	-14921
▁adaptado	-14922
▁africanos	-14923
bres	-14924
▁mandar	-14925
▁Haz	-14926
▁rota	-14927
▁Spa	-14928
▁acudi	-14929
▁aquello	-14930
▁Arti	-14931
▁normativa	-14932
▁topo	-14933
▁1956,	-14934
▁propuls	-14935
▁refieren	-14936
nah	-14937
ragona	-14938
kele	-14939
ubio	-14940
▁repob	-14941
▁nariz	-14942
RS	-14943
hasta	-14944
▁vertiente	-14945
▁out	-14946
▁Chipre	-14947
▁peligroso	-14948
tori	-14949
▁Clinton	-14950
WA	-14951
velas	-14952
▁legitim	-14953
▁suizo	-14954
▁Hues	-14955
▁Xavier	-14956
▁oy	-14957
▁pino	-14958
▁Arroyo	-14959
bulos	-14960
▁$2	-14961
inoso	-14962
▁Ville	-14963
▁Orlando	-14964
▁acusaci	-14965
ilera	-14966
▁Perry	-14967
▁componer	-14968
cea	-14969
vor	-14970
▁Badajoz	-14971
Esta	-14972
▁Sos	-14973
▁Match	-14974
▁Empresa	-14975
▁votantes	-14976
▁dud	-14977
rimido	-14978
▁disolvi	-14979
▁alquiler	-14980
▁apas	-14981
▁Sla	-14982
uv	-14983
num	-14984
▁Bosque	-14985
OP	-14986
▁Arist	-14987
lus	-14988
▁inal	-14989
stamos	-14990
▁cantera	-14991
▁Patricia	-14992
▁reviv	-14993
▁Stad	-14994
▁Adici	-14995
▁estudiado	-14996
▁nutrici	-14997
▁SN	-14998
grados	-14999
▁Phill	-15000
▁Eurovisi	-15001
▁Nag	-15002
▁1983.	-15003
▁Founda	-15004
▁Queens	-15005
▁trilog	-15006
▁Menor	-15007
▁concursos	-15008
▁ates	-15009
▁nas	-15010
▁tira	-15011
▁semin	-15012
gus	-15013
▁Dej	-15014
▁sensible	-15015
▁sobrepas	-15016
▁terminada	-15017
▁provienen	-15018
▁AG	-15019
▁Battle	-15020
▁Dallas	-15021
▁estudia	-15022
▁Not	-15023
light	-15024
▁entran	-15025
▁carece	-15026
▁1906	-15027
▁Benav	-15028
ARC	-15029
▁separar	-15030
teado	-15031
gentes	-15032
▁Siguiendo	-15033
colmo	-15034
▁elegante	-15035
adur	-15036
▁Gior	-15037
▁torn	-15038
sus	-15039
▁Musical	-15040
▁diabetes	-15041
▁First	-15042
▁);	-15043
list	-15044
▁abar	-15045
.(	-15046
tog	-15047
Mu	-15048
pura	-15049
▁Verg	-15050
▁virgen	-15051
▁debates	-15052
▁comprado	-15053
istrativos	-15054
▁Estable	-15055
cs	-15056
▁Bale	-15057
▁terminan	-15058
▁81	-15059
▁WHERE	-15060
▁renovar	-15061
▁mantendr	-15062
▁verso	-15063
400	-15064
▁destro	-15065
▁McK	-15066
▁Joy	-15067
▁18.	-15068
▁Ferrar	-15069
oth	-15070
ibus	-15071
▁poderosos	-15072
nime	-15073
quipa	-15074
lection	-15075
▁Carab	-15076
▁tango	-15077
▁disponer	-15078
▁Declaraci	-15079
▁armadura	-15080
isiana	-15081
▁sed	-15082
▁juegan	-15083
fs	-15084
agro	-15085
▁Kol	-15086
▁Cual	-15087
▁1959,	-15088
▁indicando	-15089
▁Tercer	-15090
▁disminuye	-15091
▁reutiliz	-15092
iria	-15093
▁semanal	-15094
▁marquesa	-15095
cionando	-15096
ocal	-15097
▁hito	-15098
▁Maximil	-15099
▁gro	-15100
▁1950.	-15101
Pres	-15102
▁XVII	-15103
Santiago	-15104
▁semb	-15105
▁Terry	-15106
▁Cabildo	-15107
spedes	-15108
▁deno	-15109
▁Hispan	-15110
▁Shakespe	-15111
item	-15112
▁Major	-15113
mpica	-15114
▁anar	-15115
▁lobo	-15116
▁gracia	-15117
▁sobrevivi	-15118
gh	-15119
▁moverse	-15120
▁necesitas	-15121
▁That	-15122
▁coinciden	-15123
gante	-15124
▁paralela	-15125
John	-15126
▁volviendo	-15127
orre	-15128
▁caos	-15129
ULL	-15130
uctu	-15131
▁Box	-15132
▁empleada	-15133
▁encomend	-15134
▁Bak	-15135
▁Hue	-15136
▁ego	-15137
▁Cecilia	-15138
▁tubos	-15139
incluyendo	-15140
isas	-15141
ederos	-15142
▁costes	-15143
▁coher	-15144
▁agujero	-15145
▁Nevada	-15146
▁lienzo	-15147
▁Diez	-15148
▁1880	-15149
▁Enci	-15150
▁espinas	-15151
Nombre	-15152
▁gobernaci	-15153
▁Polo	-15154
▁Damas	-15155
▁Titan	-15156
▁Tama	-15157
▁Checa	-15158
▁Catalunya	-15159
▁Pros	-15160
▁sufragio	-15161
▁cruel	-15162
▁afuera	-15163
▁absorci	-15164
▁HMS	-15165
▁Roos	-15166
▁Chaco	-15167
____	-15168
▁Quintana	-15169
▁Apolo	-15170
▁main	-15171
▁pesados	-15172
/2	-15173
▁Ocean	-15174
▁entab	-15175
▁costeras	-15176
▁4-	-15177
▁Spar	-15178
▁repu	-15179
▁Commun	-15180
▁totales	-15181
▁Mez	-15182
▁olor	-15183
▁grano	-15184
▁Extra	-15185
▁bolas	-15186
▁bola	-15187
▁anillos	-15188
▁Bart	-15189
▁115	-15190
ological	-15191
▁Wit	-15192
▁cuen	-15193
▁demand	-15194
hora	-15195
▁sensor	-15196
▁Progres	-15197
▁1907	-15198
▁Conci	-15199
▁Figueroa	-15200
▁finanzas	-15201
▁inaugural	-15202
HS	-15203
▁tour	-15204
▁concello	-15205
Esto	-15206
grupo	-15207
rtica	-15208
▁poli	-15209
▁abusos	-15210
▁metodolog	-15211
▁probado	-15212
mbra	-15213
▁joyas	-15214
▁Piedra	-15215
▁1918,	-15216
▁Liz	-15217
▁carrocer	-15218
DR	-15219
-23	-15220
▁foco	-15221
▁consisti	-15222
▁IG	-15223
tivity	-15224
▁Vuelta	-15225
▁Express	-15226
▁Ediciones	-15227
iadas	-15228
▁impulsado	-15229
Hay	-15230
▁desliz	-15231
males	-15232
losa	-15233
▁enven	-15234
▁laderas	-15235
▁Macedonia	-15236
▁costarric	-15237
icor	-15238
▁claras	-15239
▁sostener	-15240
▁vaso	-15241
itares	-15242
xos	-15243
ocas	-15244
▁evolu	-15245
▁chilenos	-15246
▁reele	-15247
dulos	-15248
▁lava	-15249
▁Geograf	-15250
▁antagon	-15251
▁SQL	-15252
length	-15253
onga	-15254
▁Last	-15255
▁inconven	-15256
▁Buck	-15257
▁Mexicano	-15258
▁Aure	-15259
▁Summer	-15260
▁instant	-15261
▁Igual	-15262
▁atrajo	-15263
▁Pardo	-15264
▁textura	-15265
▁AV	-15266
▁Ferrer	-15267
▁Lituania	-15268
▁creadores	-15269
▁fantasma	-15270
▁salarios	-15271
edo	-15272
▁ejecuta	-15273
▁rugby	-15274
▁inmueble	-15275
▁Maduro	-15276
▁Huelva	-15277
▁Antioquia	-15278
▁graduarse	-15279
Ber	-15280
▁my	-15281
▁Stanley	-15282
llev	-15283
▁ramal	-15284
▁introduc	-15285
▁describen	-15286
ams	-15287
▁Hermanos	-15288
▁alfabeto	-15289
▁Rav	-15290
valos	-15291
▁Argent	-15292
▁insignia	-15293
▁heter	-15294
▁venido	-15295
adurez	-15296
cendi	-15297
▁disfraz	-15298
▁apla	-15299
▁Sacro	-15300
▁monto	-15301
uza	-15302
▁1909	-15303
▁Armas	-15304
zig	-15305
LS	-15306
▁mercen	-15307
▁Kate	-15308
anova	-15309
-21	-15310
▁claustro	-15311
▁Jerry	-15312
▁Shel	-15313
▁Jenni	-15314
▁Zen	-15315
▁Lind	-15316
▁derivada	-15317
▁innovador	-15318
▁Godo	-15319
▁Porque	-15320
▁Michoac	-15321
umber	-15322
▁estimado	-15323
▁denuncias	-15324
igne	-15325
▁1946,	-15326
▁ratific	-15327
▁negativas	-15328
▁case	-15329
▁titul	-15330
▁parientes	-15331
▁%.	-15332
▁Ilustr	-15333
▁bols	-15334
▁fals	-15335
▁1949,	-15336
▁calcio	-15337
▁molde	-15338
▁sellos	-15339
▁elige	-15340
▁Equipo	-15341
▁Ultima	-15342
▁polacos	-15343
ises	-15344
▁Gim	-15345
▁Rumania	-15346
▁1955,	-15347
▁cuchar	-15348
tml	-15349
▁delegados	-15350
▁despo	-15351
pidas	-15352
▁Hait	-15353
▁proli	-15354
▁amantes	-15355
▁resistir	-15356
tentes	-15357
▁afluente	-15358
▁Sindica	-15359
Ra	-15360
▁List	-15361
▁plomo	-15362
▁someti	-15363
obia	-15364
▁desmante	-15365
▁17.	-15366
▁Cele	-15367
click	-15368
▁Alco	-15369
▁intu	-15370
▁Online	-15371
▁cayeron	-15372
Am	-15373
Rob	-15374
enix	-15375
▁amino	-15376
cules	-15377
▁sinf	-15378
Bri	-15379
▁creativo	-15380
▁Wind	-15381
▁Aviaci	-15382
▁duras	-15383
uver	-15384
▁cubana	-15385
▁refriger	-15386
tinal	-15387
EST	-15388
carga	-15389
▁1979.	-15390
▁gestionar	-15391
▁Olymp	-15392
▁impide	-15393
▁abus	-15394
▁humo	-15395
▁expone	-15396
▁diputada	-15397
▁surgido	-15398
▁Walt	-15399
▁Callao	-15400
▁motocicle	-15401
▁erupci	-15402
alte	-15403
▁app	-15404
▁espir	-15405
▁ayudado	-15406
▁Stewart	-15407
▁juguetes	-15408
▁Excel	-15409
▁bautizado	-15410
▁Expe	-15411
▁Urban	-15412
▁Jazz	-15413
idur	-15414
mago	-15415
▁Dul	-15416
▁tortura	-15417
bside	-15418
▁cami	-15419
[...]
